{
  "vocab": {
    "ć": 0,
    "v": 1,
    "運": 2,
    "é": 3,
    "š": 4,
    "q": 5,
    "光": 6,
    "ó": 7,
    "k": 8,
    "µ": 9,
    "'": 10,
    "h": 11,
    "z": 12,
    "咲": 13,
    "３": 14,
    "x": 15,
    "w": 16,
    "]": 17,
    "ä": 18,
    "á": 19,
    "ṯ": 20,
    "誓": 21,
    "‡": 22,
    "場": 23,
    "/": 24,
    "t": 25,
    "灯": 26,
    "j": 27,
    "ア": 28,
    "ァ": 29,
    "3": 30,
    "å": 31,
    "う": 32,
    "β": 33,
    "+": 34,
    "赤": 35,
    "5": 36,
    "女": 37,
    "£": 38,
    "ö": 39,
    "@": 40,
    "u": 41,
    "ḏ": 42,
    "く": 43,
    "’": 44,
    "\"": 45,
    "願": 46,
    ".": 47,
    "花": 48,
    ":": 49,
    "y": 50,
    "名": 51,
    "が": 52,
    "“": 53,
    "ā": 54,
    "ュ": 55,
    "1": 56,
    "”": 57,
    "つ": 58,
    "ú": 59,
    "č": 60,
    "²": 61,
    "°": 62,
    "=": 63,
    "7": 64,
    "e": 65,
    "[": 66,
    "ū": 67,
    "</w>": 68,
    "キ": 69,
    "c": 70,
    "き": 71,
    "し": 72,
    "₹": 73,
    "6": 74,
    "—": 75,
    "た": 76,
    "–": 77,
    "ü": 78,
    "(": 79,
    ")": 80,
    "%": 81,
    "º": 82,
    "-": 83,
    ",": 84,
    "い": 85,
    "8": 86,
    "な": 87,
    "!": 88,
    "ō": 89,
    "か": 90,
    "ñ": 91,
    "ら": 92,
    "l": 93,
    "m": 94,
    "リ": 95,
    ";": 96,
    "?": 97,
    "æ": 98,
    "n": 99,
    "b": 100,
    "ɪ": 101,
    "の": 102,
    "~": 103,
    "f": 104,
    "‘": 105,
    "í": 106,
    "đ": 107,
    "d": 108,
    "�": 109,
    "ル": 110,
    "9": 111,
    "め": 112,
    "g": 113,
    "r": 114,
    "乙": 115,
    "誰": 116,
    "君": 117,
    "2": 118,
    "銃": 119,
    "o": 120,
    "ヴ": 121,
    "0": 122,
    "$": 123,
    "†": 124,
    "&": 125,
    "命": 126,
    "4": 127,
    "s": 128,
    "₤": 129,
    "p": 130,
    "戦": 131,
    "も": 132,
    "ô": 133,
    "#": 134,
    "i": 135,
    "瘡": 136,
    "a": 137,
    "e</w>": 138,
    "s</w>": 139,
    "th": 140,
    "d</w>": 141,
    "in": 142,
    "er": 143,
    "the</w>": 144,
    "an": 145,
    "t</w>": 146,
    "on": 147,
    ",</w>": 148,
    "y</w>": 149,
    "ed</w>": 150,
    "or": 151,
    ".</w>": 152,
    "ar": 153,
    "en": 154,
    "al": 155,
    "ti": 156,
    "re": 157,
    "o</w>": 158,
    "f</w>": 159,
    "a</w>": 160,
    "of</w>": 161,
    "er</w>": 162,
    "and</w>": 163,
    "g</w>": 164,
    "in</w>": 165,
    "on</w>": 166,
    "ing</w>": 167,
    "@</w>": 168,
    "st": 169,
    "ro": 170,
    "as</w>": 171,
    "es</w>": 172,
    "to</w>": 173,
    "at": 174,
    "hi": 175,
    "ou": 176,
    "ch": 177,
    "li": 178,
    "m</w>": 179,
    "si": 180,
    "al</w>": 181,
    "ri": 182,
    "=</w>": 183,
    "de": 184,
    "ac": 185,
    "at</w>": 186,
    "th</w>": 187,
    "el": 188,
    "or</w>": 189,
    "an</w>": 190,
    "as": 191,
    "co": 192,
    "di": 193,
    "\"</w>": 194,
    "wi": 195,
    "ati": 196,
    "ir": 197,
    "ur": 198,
    "l</w>": 199,
    "ow": 200,
    "un": 201,
    "en</w>": 202,
    "am": 203,
    "was</w>": 204,
    "ly</w>": 205,
    "ts</w>": 206,
    "-</w>": 207,
    "is</w>": 208,
    "ic": 209,
    "sh": 210,
    "k</w>": 211,
    "se": 212,
    "'</w>": 213,
    "st</w>": 214,
    "be": 215,
    "ra": 216,
    "le</w>": 217,
    "with</w>": 218,
    "le": 219,
    "ol": 220,
    "for</w>": 221,
    "con": 222,
    "the": 223,
    "gh": 224,
    "ma": 225,
    "it": 226,
    "that</w>": 227,
    "ch</w>": 228,
    "il": 229,
    "bu": 230,
    "su": 231,
    "n</w>": 232,
    "av": 233,
    "ere</w>": 234,
    "ent</w>": 235,
    "em": 236,
    "by</w>": 237,
    "com": 238,
    "ar</w>": 239,
    "go": 240,
    "pl": 241,
    "pro": 242,
    "ap": 243,
    "ne": 244,
    "ation</w>": 245,
    "for": 246,
    "ag": 247,
    "se</w>": 248,
    "sp": 249,
    ")</w>": 250,
    "(</w>": 251,
    "ted</w>": 252,
    "19": 253,
    "ul": 254,
    "po": 255,
    "ab": 256,
    "ds</w>": 257,
    "tion</w>": 258,
    "ce</w>": 259,
    "om": 260,
    "ers</w>": 261,
    "ci": 262,
    "0</w>": 263,
    "lo": 264,
    "ad</w>": 265,
    "ru": 266,
    "fe": 267,
    "p</w>": 268,
    "vi": 269,
    "were</w>": 270,
    "ad": 271,
    "mo": 272,
    "ons</w>": 273,
    "wh": 274,
    "is": 275,
    "per": 276,
    "whi": 277,
    "his</w>": 278,
    "it</w>": 279,
    "ver": 280,
    "pre": 281,
    "c</w>": 282,
    "no": 283,
    "fro": 284,
    "20": 285,
    "ter</w>": 286,
    "from</w>": 287,
    "ve</w>": 288,
    "ter": 289,
    "he</w>": 290,
    "lu": 291,
    "de</w>": 292,
    "are</w>": 293,
    "ther</w>": 294,
    "ex": 295,
    "1</w>": 296,
    "sen": 297,
    "air": 298,
    "ated</w>": 299,
    "ate</w>": 300,
    "au": 301,
    "oun": 302,
    "par": 303,
    "wor": 304,
    "ding</w>": 305,
    "rec": 306,
    "du": 307,
    "tr": 308,
    "shi": 309,
    "qu": 310,
    "i</w>": 311,
    "w</w>": 312,
    "ay": 313,
    "ing": 314,
    "ec": 315,
    "all</w>": 316,
    "es": 317,
    "her</w>": 318,
    "fi": 319,
    "ld</w>": 320,
    "im": 321,
    "man": 322,
    "tw": 323,
    "por": 324,
    "2</w>": 325,
    "op": 326,
    "ame</w>": 327,
    "ver</w>": 328,
    "bo": 329,
    "which</w>": 330,
    "ded</w>": 331,
    "be</w>": 332,
    ";</w>": 333,
    "ity</w>": 334,
    "sc": 335,
    "gu": 336,
    "one</w>": 337,
    "me": 338,
    "tow": 339,
    "ser": 340,
    "ay</w>": 341,
    "our": 342,
    "so</w>": 343,
    "af": 344,
    "ght</w>": 345,
    "pe": 346,
    "ta": 347,
    "der": 348,
    "she</w>": 349,
    "ine</w>": 350,
    "der</w>": 351,
    "ft</w>": 352,
    "tim": 353,
    "4</w>": 354,
    "ally</w>": 355,
    "to": 356,
    "he": 357,
    "ty</w>": 358,
    "low": 359,
    "sed</w>": 360,
    "5</w>": 361,
    "3</w>": 362,
    "fic": 363,
    "ave</w>": 364,
    "ties</w>": 365,
    "18": 366,
    "had</w>": 367,
    "tur": 368,
    "out</w>": 369,
    "gh</w>": 370,
    "ved</w>": 371,
    "ting</w>": 372,
    "gi": 373,
    "ary</w>": 374,
    "car": 375,
    "ir</w>": 376,
    "mi": 377,
    "this</w>": 378,
    "comm": 379,
    "ck</w>": 380,
    "yp": 381,
    "um": 382,
    "their</w>": 383,
    "of": 384,
    "other</w>": 385,
    "el</w>": 386,
    "str": 387,
    "ea": 388,
    "its</w>": 389,
    "but</w>": 390,
    "onal</w>": 391,
    "mor": 392,
    "rou": 393,
    "cre": 394,
    "has</w>": 395,
    "ss</w>": 396,
    "fer": 397,
    "also</w>": 398,
    "ents</w>": 399,
    "led</w>": 400,
    "ber</w>": 401,
    "eg": 402,
    "6</w>": 403,
    "gods</w>": 404,
    "not</w>": 405,
    "200": 406,
    "ph": 407,
    "fir": 408,
    "7</w>": 409,
    "ke</w>": 410,
    "two</w>": 411,
    "ould</w>": 412,
    "ory</w>": 413,
    "–</w>": 414,
    "att": 415,
    "te</w>": 416,
    "oc": 417,
    "ast</w>": 418,
    "mu": 419,
    "ye": 420,
    "sel": 421,
    "tic": 422,
    "char": 423,
    "old</w>": 424,
    "tra": 425,
    "201": 426,
    "ment</w>": 427,
    "after</w>": 428,
    "ori": 429,
    "9</w>": 430,
    "8</w>": 431,
    "ge</w>": 432,
    "tu": 433,
    "clu": 434,
    "ari": 435,
    "town": 436,
    "who</w>": 437,
    "ations</w>": 438,
    "min": 439,
    "own</w>": 440,
    "sig": 441,
    "gre": 442,
    "form": 443,
    "ned</w>": 444,
    "ack": 445,
    "send</w>": 446,
    "townsend</w>": 447,
    "ance</w>": 448,
    "they</w>": 449,
    "ant</w>": 450,
    "ong</w>": 451,
    "we": 452,
    "new</w>": 453,
    "albu": 454,
    "have</w>": 455,
    "ill": 456,
    "ass": 457,
    "duc": 458,
    "sh</w>": 459,
    "ep": 460,
    "pu": 461,
    "ali": 462,
    "ely</w>": 463,
    "cen": 464,
    "our</w>": 465,
    "som": 466,
    "first</w>": 467,
    "sy": 468,
    "cl": 469,
    "play": 470,
    "stru": 471,
    "sion</w>": 472,
    "ge": 473,
    "gen": 474,
    ":</w>": 475,
    "lit": 476,
    "ai": 477,
    "00</w>": 478,
    "egyp": 479,
    "ran": 480,
    "pri": 481,
    "ni": 482,
    "raft</w>": 483,
    "time</w>": 484,
    "ined</w>": 485,
    "most</w>": 486,
    "more</w>": 487,
    "us</w>": 488,
    "cont": 489,
    "thou": 490,
    "ities</w>": 491,
    "fey</w>": 492,
    "ous</w>": 493,
    "chi": 494,
    "ace</w>": 495,
    "age</w>": 496,
    "ars</w>": 497,
    "ack</w>": 498,
    "king</w>": 499,
    "les</w>": 500,
    "bi": 501,
    "ased</w>": 502,
    "album</w>": 503,
    "ei": 504,
    "mar": 505,
    "cor": 506,
    "ings</w>": 507,
    "jo": 508,
    "tions</w>": 509,
    "oo": 510,
    "ow</w>": 511,
    "ater</w>": 512,
    "dev": 513,
    "ces": 514,
    "ev": 515,
    "fin": 516,
    "ure</w>": 517,
    "been</w>": 518,
    "ms</w>": 519,
    "dis": 520,
    "cul": 521,
    "up</w>": 522,
    "these</w>": 523,
    "ship</w>": 524,
    "uring</w>": 525,
    "ten": 526,
    "tre": 527,
    "oll": 528,
    "ps</w>": 529,
    "inter": 530,
    "tru": 531,
    "mon": 532,
    "aw": 533,
    "als</w>": 534,
    "buil": 535,
    "recor": 536,
    "able</w>": 537,
    "ying</w>": 538,
    "z</w>": 539,
    "h</w>": 540,
    "serv": 541,
    "lan": 542,
    "pp": 543,
    "deities</w>": 544,
    "reg": 545,
    "airc": 546,
    "only</w>": 547,
    "ard</w>": 548,
    "gin": 549,
    "ans</w>": 550,
    "ga</w>": 551,
    "during</w>": 552,
    "some</w>": 553,
    "do": 554,
    "while</w>": 555,
    "ree</w>": 556,
    "x</w>": 557,
    "ann": 558,
    "sou": 559,
    "bar": 560,
    "ic</w>": 561,
    "spe": 562,
    "aircraft</w>": 563,
    "ear": 564,
    "egypti": 565,
    "ked</w>": 566,
    "jec": 567,
    "een</w>": 568,
    "doll": 569,
    "gold</w>": 570,
    "no</w>": 571,
    "ses</w>": 572,
    "b</w>": 573,
    "ound</w>": 574,
    "tly</w>": 575,
    "ell</w>": 576,
    "et</w>": 577,
    "year</w>": 578,
    "into</w>": 579,
    "loc": 580,
    "inclu": 581,
    "many</w>": 582,
    "ob": 583,
    "wri": 584,
    "sk": 585,
    "ates</w>": 586,
    "ited</w>": 587,
    "ks</w>": 588,
    "rock</w>": 589,
    "val": 590,
    "ember</w>": 591,
    "sur": 592,
    "bli": 593,
    "sti": 594,
    "bri": 595,
    "game</w>": 596,
    "cal": 597,
    "there</w>": 598,
    "though</w>": 599,
    "uni": 600,
    "so": 601,
    "199": 602,
    "nor": 603,
    "ins</w>": 604,
    "when</w>": 605,
    "sing</w>": 606,
    "ason</w>": 607,
    "den": 608,
    "publi": 609,
    "ani": 610,
    "throu": 611,
    "sm": 612,
    "va</w>": 613,
    "comp": 614,
    "ong": 615,
    "est": 616,
    "produc": 617,
    "ju": 618,
    "may</w>": 619,
    "ok</w>": 620,
    "fl": 621,
    "hist": 622,
    "roun": 623,
    "un</w>": 624,
    "pi": 625,
    "rea": 626,
    "fol": 627,
    "work</w>": 628,
    "fac": 629,
    "nati": 630,
    "god</w>": 631,
    "shiva</w>": 632,
    "fu": 633,
    "would</w>": 634,
    "world</w>": 635,
    "ors</w>": 636,
    "war</w>": 637,
    "ain": 638,
    "charac": 639,
    "ames</w>": 640,
    "tle</w>": 641,
    "bro": 642,
    "rele": 643,
    "cu": 644,
    "being</w>": 645,
    "self</w>": 646,
    "made</w>": 647,
    "phi": 648,
    "air</w>": 649,
    "truj": 650,
    "over</w>": 651,
    "ste": 652,
    "sist": 653,
    "gener": 654,
    "ten</w>": 655,
    "tic</w>": 656,
    "tal</w>": 657,
    "avi": 658,
    "trujill": 659,
    "trujillo</w>": 660,
    "ron": 661,
    "ters</w>": 662,
    "me</w>": 663,
    "nov": 664,
    "ble</w>": 665,
    "son</w>": 666,
    "end</w>": 667,
    "side</w>": 668,
    "follow": 669,
    "oper": 670,
    "tri": 671,
    "gra": 672,
    "than</w>": 673,
    "three</w>": 674,
    "dy</w>": 675,
    "musi": 676,
    "pic": 677,
    "speci": 678,
    "pres": 679,
    "est</w>": 680,
    "sul": 681,
    "pen": 682,
    "ll</w>": 683,
    "sub": 684,
    "bec": 685,
    "four</w>": 686,
    "ies</w>": 687,
    "tran": 688,
    "indi": 689,
    "mem": 690,
    "ning</w>": 691,
    "betw": 692,
    "between</w>": 693,
    "ew": 694,
    "bl": 695,
    "re</w>": 696,
    "under</w>": 697,
    "shed</w>": 698,
    "later</w>": 699,
    "ey</w>": 700,
    "res</w>": 701,
    "such</w>": 702,
    "desig": 703,
    "both</w>": 704,
    "ces</w>": 705,
    "poin": 706,
    "stri": 707,
    "presen": 708,
    "ern</w>": 709,
    "ating</w>": 710,
    "ves</w>": 711,
    "kn": 712,
    "cro": 713,
    "city</w>": 714,
    "appe": 715,
    "south</w>": 716,
    "tea": 717,
    "about</w>": 718,
    "sch": 719,
    "red</w>": 720,
    "ase</w>": 721,
    "can</w>": 722,
    "dollar</w>": 723,
    "ky": 724,
    "and": 725,
    "mis": 726,
    "with": 727,
    "tro": 728,
    "num": 729,
    "emp": 730,
    "cap": 731,
    "could</w>": 732,
    "well</w>": 733,
    "tive</w>": 734,
    "cri": 735,
    "vol": 736,
    "each</w>": 737,
    "them</w>": 738,
    "rema": 739,
    "offic": 740,
    "light</w>": 741,
    "clo": 742,
    "little</w>": 743,
    "land</w>": 744,
    "egyptian</w>": 745,
    "secon": 746,
    "team</w>": 747,
    "ving</w>": 748,
    "ular</w>": 749,
    "ef": 750,
    "syn": 751,
    "way</w>": 752,
    "season</w>": 753,
    "form</w>": 754,
    "scri": 755,
    "arm": 756,
    "pow": 757,
    "ever</w>": 758,
    "sup": 759,
    "struc": 760,
    "col": 761,
    "can": 762,
    "coun": 763,
    "national</w>": 764,
    "beg": 765,
    "lar": 766,
    "des</w>": 767,
    "ays</w>": 768,
    "ang": 769,
    "port</w>": 770,
    "ker</w>": 771,
    "day</w>": 772,
    "man</w>": 773,
    "star": 774,
    "fa": 775,
    "ho": 776,
    "pil": 777,
    "aer": 778,
    "posi": 779,
    "sl": 780,
    "act</w>": 781,
    "ale</w>": 782,
    "ven": 783,
    "um</w>": 784,
    "gover": 785,
    "omin": 786,
    "used</w>": 787,
    "ass</w>": 788,
    "him</w>": 789,
    "div": 790,
    "ced</w>": 791,
    "sever": 792,
    "te": 793,
    "pilo": 794,
    "ture</w>": 795,
    "eng": 796,
    "mil": 797,
    "ber": 798,
    "fil": 799,
    "zed</w>": 800,
    "part</w>": 801,
    "through</w>": 802,
    "dif": 803,
    "wom": 804,
    "projec": 805,
    "series</w>": 806,
    "second</w>": 807,
    "ial</w>": 808,
    "dition</w>": 809,
    "fore</w>": 810,
    "public</w>": 811,
    "ren": 812,
    "ba": 813,
    "reli": 814,
    "devel": 815,
    "origin": 816,
    "rel": 817,
    "ence</w>": 818,
    "represen": 819,
    "sin": 820,
    "all": 821,
    "ess</w>": 822,
    "began</w>": 823,
    "action</w>": 824,
    "following</w>": 825,
    "ta</w>": 826,
    "several</w>": 827,
    "fun": 828,
    "dro": 829,
    "ships</w>": 830,
    "valky": 831,
    "ria</w>": 832,
    "like</w>": 833,
    "ining</w>": 834,
    "fe</w>": 835,
    "develop": 836,
    "where</w>": 837,
    "cur": 838,
    "bers</w>": 839,
    "cep": 840,
    "cer": 841,
    "appear": 842,
    "ele": 843,
    "186": 844,
    "ican</w>": 845,
    "ue</w>": 846,
    "dr": 847,
    "192": 848,
    "aves</w>": 849,
    "how": 850,
    "resp": 851,
    "any</w>": 852,
    "ets</w>": 853,
    "ice</w>": 854,
    "eat": 855,
    "tor</w>": 856,
    "recei": 857,
    "her": 858,
    "although</w>": 859,
    "ili": 860,
    "peri": 861,
    "suc": 862,
    "govern": 863,
    "la": 864,
    "000</w>": 865,
    "ton</w>": 866,
    "ligh": 867,
    "cial</w>": 868,
    "lum": 869,
    "austr": 870,
    "grou": 871,
    "cess": 872,
    "again": 873,
    "against</w>": 874,
    "ven</w>": 875,
    "tional</w>": 876,
    "sted</w>": 877,
    "blu": 878,
    "state</w>": 879,
    "joh": 880,
    "inf": 881,
    "descri": 882,
    "valkyria</w>": 883,
    "squ": 884,
    "ns</w>": 885,
    "sol": 886,
    "contin": 887,
    "music</w>": 888,
    "issu": 889,
    "history</w>": 890,
    "called</w>": 891,
    "ling</w>": 892,
    "come": 893,
    "divine</w>": 894,
    "eaton</w>": 895,
    "nam": 896,
    "hel": 897,
    "early</w>": 898,
    "building</w>": 899,
    "years</w>": 900,
    "another</w>": 901,
    "small</w>": 902,
    "colum": 903,
    "back</w>": 904,
    "—</w>": 905,
    "tical</w>": 906,
    "port": 907,
    "released</w>": 908,
    "same</w>": 909,
    "tho": 910,
    "sts</w>": 911,
    "avy</w>": 912,
    "known</w>": 913,
    "ards</w>": 914,
    "ain</w>": 915,
    "before</w>": 916,
    "revi": 917,
    "round</w>": 918,
    "hu": 919,
    "ii</w>": 920,
    "out": 921,
    "empl": 922,
    "vari": 923,
    "main</w>": 924,
    "pers": 925,
    "order</w>": 926,
    "mat": 927,
    "ssi": 928,
    "became</w>": 929,
    "gro": 930,
    "acti": 931,
    "times</w>": 932,
    "pop": 933,
    "did</w>": 934,
    "dam": 935,
    "tower</w>": 936,
    "194": 937,
    "stor": 938,
    "religi": 939,
    "og": 940,
    "co</w>": 941,
    "flying</w>": 942,
    "ak": 943,
    "youn": 944,
    "tain</w>": 945,
    "power</w>": 946,
    "then</w>": 947,
    "ls</w>": 948,
    "project</w>": 949,
    "jack": 950,
    "ami": 951,
    "ra</w>": 952,
    "seen</w>": 953,
    "aero": 954,
    "batt": 955,
    "new": 956,
    "tion": 957,
    "up": 958,
    "aid</w>": 959,
    "left</w>": 960,
    "plan": 961,
    "pur": 962,
    "et": 963,
    "beli": 964,
    "dent</w>": 965,
    "ical</w>": 966,
    "poli": 967,
    "ety</w>": 968,
    "var": 969,
    "len</w>": 970,
    "ful</w>": 971,
    "however</w>": 972,
    "ce": 973,
    "mes</w>": 974,
    "hin": 975,
    "blue</w>": 976,
    "states</w>": 977,
    "head</w>": 978,
    "sis</w>": 979,
    "north</w>": 980,
    "depic": 981,
    "bed</w>": 982,
    "hun": 983,
    "record</w>": 984,
    "hor": 985,
    "feat": 986,
    "direc": 987,
    "fran": 988,
    "off</w>": 989,
    "typ": 990,
    "my": 991,
    "ched</w>": 992,
    "general</w>": 993,
    "maj": 994,
    "number</w>": 995,
    "ime</w>": 996,
    "aged</w>": 997,
    "pat": 998,
    "stan": 999,
    "od</w>": 1000,
    "ca": 1001,
    "flow": 1002,
    "united</w>": 1003,
    "plac": 1004,
    "nan": 1005,
    "including</w>": 1006,
    "women</w>": 1007,
    "hum": 1008,
    "hl</w>": 1009,
    "cullen</w>": 1010,
    "thir": 1011,
    "retur": 1012,
    "played</w>": 1013,
    "dic": 1014,
    "tes</w>": 1015,
    "young</w>": 1016,
    "bru": 1017,
    "arsen": 1018,
    "10</w>": 1019,
    "30</w>": 1020,
    "long</w>": 1021,
    "ze</w>": 1022,
    "barker</w>": 1023,
    "ator</w>": 1024,
    "cave</w>": 1025,
    "mader": 1026,
    "caves</w>": 1027,
    "play</w>": 1028,
    "eu": 1029,
    "received</w>": 1030,
    "place</w>": 1031,
    "dered</w>": 1032,
    "dar": 1033,
    "ort</w>": 1034,
    "vely</w>": 1035,
    "uk</w>": 1036,
    "formed</w>": 1037,
    "dom</w>": 1038,
    "men": 1039,
    "jackets</w>": 1040,
    "dre": 1041,
    "line</w>": 1042,
    "stra": 1043,
    "commun": 1044,
    "madero</w>": 1045,
    "games</w>": 1046,
    "comple": 1047,
    "ct</w>": 1048,
    "ken</w>": 1049,
    "arsenal</w>": 1050,
    "sem": 1051,
    "agre": 1052,
    "was": 1053,
    "band</w>": 1054,
    "regi": 1055,
    "fle": 1056,
    "vati": 1057,
    "cir": 1058,
    "import": 1059,
    "tish</w>": 1060,
    "dez</w>": 1061,
    "gue</w>": 1062,
    "aerodro": 1063,
    "litary</w>": 1064,
    "operations</w>": 1065,
    "pra": 1066,
    "appro": 1067,
    "high": 1068,
    "do</w>": 1069,
    "consi": 1070,
    "ve": 1071,
    "dem": 1072,
    "over": 1073,
    "set</w>": 1074,
    "centr": 1075,
    "life</w>": 1076,
    "amer": 1077,
    "feder": 1078,
    "ry</w>": 1079,
    "are": 1080,
    "east</w>": 1081,
    "198": 1082,
    "ie</w>": 1083,
    "cess</w>": 1084,
    "commer": 1085,
    "lion</w>": 1086,
    "ron</w>": 1087,
    "fernan": 1088,
    "fernandez</w>": 1089,
    "chron": 1090,
    "2011</w>": 1091,
    "along</w>": 1092,
    "pan": 1093,
    "book</w>": 1094,
    "lim": 1095,
    "sing": 1096,
    "fem": 1097,
    "ful": 1098,
    "respon": 1099,
    "try</w>": 1100,
    "sa": 1101,
    "ently</w>": 1102,
    "har": 1103,
    "del": 1104,
    "bel": 1105,
    "group</w>": 1106,
    "ania</w>": 1107,
    "film</w>": 1108,
    "chronic": 1109,
    "gam": 1110,
    "military</w>": 1111,
    "stern</w>": 1112,
    "november</w>": 1113,
    "az": 1114,
    "sions</w>": 1115,
    "lin": 1116,
    "ement</w>": 1117,
    "ther": 1118,
    "continu": 1119,
    "los": 1120,
    "took</w>": 1121,
    "requ": 1122,
    "ative</w>": 1123,
    "cal</w>": 1124,
    "live</w>": 1125,
    "said</w>": 1126,
    "pr": 1127,
    "win": 1128,
    "wee": 1129,
    "bus</w>": 1130,
    "king": 1131,
    "pping</w>": 1132,
    "aviation</w>": 1133,
    "chronicles</w>": 1134,
    "alli": 1135,
    "low</w>": 1136,
    "contro": 1137,
    "found</w>": 1138,
    "around</w>": 1139,
    "per</w>": 1140,
    "ause</w>": 1141,
    "within</w>": 1142,
    "last</w>": 1143,
    "peop": 1144,
    "people</w>": 1145,
    "arly</w>": 1146,
    "nat": 1147,
    "government</w>": 1148,
    "$</w>": 1149,
    "observ": 1150,
    "domin": 1151,
    "don</w>": 1152,
    "columbus</w>": 1153,
    "brea": 1154,
    "coins</w>": 1155,
    "regime</w>": 1156,
    "fiel": 1157,
    "role</w>": 1158,
    "vision</w>": 1159,
    "ments</w>": 1160,
    "character</w>": 1161,
    "ised</w>": 1162,
    "ements</w>": 1163,
    "down</w>": 1164,
    "becom": 1165,
    "five</w>": 1166,
    "ders</w>": 1167,
    "fied</w>": 1168,
    "tec": 1169,
    "present</w>": 1170,
    "construc": 1171,
    "ash</w>": 1172,
    "mag": 1173,
    "ans": 1174,
    "gar": 1175,
    "lab": 1176,
    "12</w>": 1177,
    "influ": 1178,
    "sn": 1179,
    "high</w>": 1180,
    "comedy</w>": 1181,
    "british</w>": 1182,
    "ke": 1183,
    "due</w>": 1184,
    "differ": 1185,
    "spec": 1186,
    "tial</w>": 1187,
    "based</w>": 1188,
    "posed</w>": 1189,
    "ged</w>": 1190,
    "desp": 1191,
    "ite</w>": 1192,
    "ini": 1193,
    "novel</w>": 1194,
    "apri": 1195,
    "april</w>": 1196,
    "bon": 1197,
    "cop": 1198,
    "ka</w>": 1199,
    "name</w>": 1200,
    "atory</w>": 1201,
    "br": 1202,
    "11</w>": 1203,
    "193": 1204,
    "human</w>": 1205,
    "tor": 1206,
    "nhl</w>": 1207,
    "belie": 1208,
    "je": 1209,
    "metal</w>": 1210,
    "ple</w>": 1211,
    "ried</w>": 1212,
    "lead": 1213,
    "une</w>": 1214,
    "partic": 1215,
    "accor": 1216,
    "han": 1217,
    "oni": 1218,
    "built</w>": 1219,
    "presi": 1220,
    "use</w>": 1221,
    "bor": 1222,
    "fur": 1223,
    "dec": 1224,
    "ed": 1225,
    "stu": 1226,
    "described</w>": 1227,
    "resul": 1228,
    "kingdom</w>": 1229,
    "important</w>": 1230,
    "ayer</w>": 1231,
    "urania</w>": 1232,
    "mul": 1233,
    "fic</w>": 1234,
    "dist": 1235,
    "gr": 1236,
    "who": 1237,
    "roy": 1238,
    "events</w>": 1239,
    "fron": 1240,
    "sequ": 1241,
    "design</w>": 1242,
    "produced</w>": 1243,
    "art</w>": 1244,
    "u</w>": 1245,
    "hal": 1246,
    "ark": 1247,
    "since</w>": 1248,
    "estab": 1249,
    "establi": 1250,
    "john</w>": 1251,
    "incre": 1252,
    "civi": 1253,
    "18</w>": 1254,
    "/</w>": 1255,
    "equ": 1256,
    "ger</w>": 1257,
    "often</w>": 1258,
    "yor": 1259,
    "eer</w>": 1260,
    "la</w>": 1261,
    "struck</w>": 1262,
    "medi": 1263,
    "third</w>": 1264,
    "original</w>": 1265,
    "very</w>": 1266,
    "class</w>": 1267,
    "gn</w>": 1268,
    "him": 1269,
    "ster": 1270,
    "invol": 1271,
    "pec": 1272,
    "ata</w>": 1273,
    "ous": 1274,
    "auth": 1275,
    "ination</w>": 1276,
    "my</w>": 1277,
    "dra": 1278,
    "abo": 1279,
    "father</w>": 1280,
    "asso": 1281,
    "associ": 1282,
    "ries</w>": 1283,
    "fami": 1284,
    "family</w>": 1285,
    "win</w>": 1286,
    "sil": 1287,
    "arian</w>": 1288,
    "island</w>": 1289,
    "dies</w>": 1290,
    "large</w>": 1291,
    "under": 1292,
    "some": 1293,
    "ways</w>": 1294,
    "hou": 1295,
    "much</w>": 1296,
    "show</w>": 1297,
    "atten": 1298,
    "ring</w>": 1299,
    "cted</w>": 1300,
    "ath</w>": 1301,
    "thers</w>": 1302,
    "central</w>": 1303,
    "15</w>": 1304,
    "tel": 1305,
    "ster</w>": 1306,
    "ches</w>": 1307,
    "org": 1308,
    "ood</w>": 1309,
    "australi": 1310,
    "black": 1311,
    "commercial</w>": 1312,
    "career</w>": 1313,
    "york</w>": 1314,
    "former</w>": 1315,
    "sec": 1316,
    "squad": 1317,
    "date</w>": 1318,
    "god": 1319,
    "gli": 1320,
    "pilot</w>": 1321,
    "coin</w>": 1322,
    "devin</w>": 1323,
    "ago": 1324,
    "ner</w>": 1325,
    "tics</w>": 1326,
    "signed</w>": 1327,
    "less</w>": 1328,
    "himself</w>": 1329,
    "success": 1330,
    "position</w>": 1331,
    "just</w>": 1332,
    "ew</w>": 1333,
    "nex": 1334,
    "next</w>": 1335,
    "stated</w>": 1336,
    "tten</w>": 1337,
    "gust</w>": 1338,
    "anti": 1339,
    "mas": 1340,
    "19</w>": 1341,
    "hy": 1342,
    "blackie</w>": 1343,
    "lev": 1344,
    "olog": 1345,
    "ban": 1346,
    "2008</w>": 1347,
    "bia</w>": 1348,
    "star</w>": 1349,
    "regul": 1350,
    "voc": 1351,
    "godde": 1352,
    "fig": 1353,
    "slayer</w>": 1354,
    "mint</w>": 1355,
    "gas</w>": 1356,
    "vati</w>": 1357,
    "strapping</w>": 1358,
    "synago": 1359,
    "synagogue</w>": 1360,
    "previ": 1361,
    "els</w>": 1362,
    "characters</w>": 1363,
    "members</w>": 1364,
    "single</w>": 1365,
    "points</w>": 1366,
    "fel": 1367,
    "van": 1368,
    "great</w>": 1369,
    "unti": 1370,
    "ired</w>": 1371,
    "best</w>": 1372,
    "wish</w>": 1373,
    "febru": 1374,
    "february</w>": 1375,
    "app": 1376,
    "sive</w>": 1377,
    "sty": 1378,
    "half</w>": 1379,
    "served</w>": 1380,
    "am</w>": 1381,
    "hand</w>": 1382,
    "50</w>": 1383,
    "san": 1384,
    "ation": 1385,
    "soci": 1386,
    "cha": 1387,
    "suppor": 1388,
    "squadron</w>": 1389,
    "deity</w>": 1390,
    "right</w>": 1391,
    "sky</w>": 1392,
    "licen": 1393,
    "reaction</w>": 1394,
    "vargas</w>": 1395,
    "llos": 1396,
    "llosa</w>": 1397,
    "snl</w>": 1398,
    "parvati</w>": 1399,
    "fre": 1400,
    "selec": 1401,
    "those</w>": 1402,
    "thing</w>": 1403,
    "abili": 1404,
    "vic": 1405,
    "until</w>": 1406,
    "major</w>": 1407,
    "fini": 1408,
    "shor": 1409,
    "main": 1410,
    "ail": 1411,
    "2012</w>": 1412,
    "tici": 1413,
    "leg": 1414,
    "august</w>": 1415,
    "arkans": 1416,
    "head": 1417,
    "den</w>": 1418,
    "construction</w>": 1419,
    "wal": 1420,
    "17</w>": 1421,
    "bur": 1422,
    "0s</w>": 1423,
    "even</w>": 1424,
    "area</w>": 1425,
    "chri": 1426,
    "compe": 1427,
    "contr": 1428,
    "ah</w>": 1429,
    "atlan": 1430,
    "night</w>": 1431,
    "az</w>": 1432,
    "assass": 1433,
    "lad</w>": 1434,
    "development</w>": 1435,
    "revol": 1436,
    "vate</w>": 1437,
    "enti": 1438,
    "female</w>": 1439,
    "13</w>": 1440,
    "consist": 1441,
    "make</w>": 1442,
    "ide": 1443,
    "comb": 1444,
    "ately</w>": 1445,
    "force</w>": 1446,
    "considered</w>": 1447,
    "pol": 1448,
    "ality</w>": 1449,
    "continued</w>": 1450,
    "june</w>": 1451,
    "arkansas</w>": 1452,
    "local</w>": 1453,
    "foo": 1454,
    "men</w>": 1455,
    "conne": 1456,
    "near</w>": 1457,
    "gun": 1458,
    "chil": 1459,
    "fai": 1460,
    "mid": 1461,
    "society</w>": 1462,
    "thern</w>": 1463,
    "id</w>": 1464,
    "xi": 1465,
    "din": 1466,
    "community</w>": 1467,
    "pilots</w>": 1468,
    "review": 1469,
    "temp": 1470,
    "hung": 1471,
    "wing</w>": 1472,
    "flight</w>": 1473,
    "egyptians</w>": 1474,
    "figure</w>": 1475,
    "yli": 1476,
    "dí": 1477,
    "díaz</w>": 1478,
    "wasp</w>": 1479,
    "station</w>": 1480,
    "jan": 1481,
    "2010</w>": 1482,
    "cam": 1483,
    "if</w>": 1484,
    "through": 1485,
    "throughout</w>": 1486,
    "comman": 1487,
    "now</w>": 1488,
    "still</w>": 1489,
    "trans": 1490,
    "according</w>": 1491,
    "ped</w>": 1492,
    "purpo": 1493,
    "song": 1494,
    "sion": 1495,
    "gl": 1496,
    "track</w>": 1497,
    "phia</w>": 1498,
    "ths</w>": 1499,
    "navy</w>": 1500,
    "ol</w>": 1501,
    "ball</w>": 1502,
    "ford</w>": 1503,
    "octo": 1504,
    "october</w>": 1505,
    "signi": 1506,
    "long": 1507,
    "late</w>": 1508,
    "given</w>": 1509,
    "appeared</w>": 1510,
    "2006</w>": 1511,
    "sport</w>": 1512,
    "scor": 1513,
    "ground</w>": 1514,
    "2009</w>": 1515,
    "indu": 1516,
    "os</w>": 1517,
    "eleph": 1518,
    "reag": 1519,
    "dominican</w>": 1520,
    "zagre": 1521,
    "take</w>": 1522,
    "forces</w>": 1523,
    "different</w>": 1524,
    "ditional</w>": 1525,
    "aving</w>": 1526,
    "wn</w>": 1527,
    "tory</w>": 1528,
    "ot</w>": 1529,
    "exi": 1530,
    "them": 1531,
    "moder": 1532,
    "lity</w>": 1533,
    "west</w>": 1534,
    "provi": 1535,
    "ured</w>": 1536,
    "ph</w>": 1537,
    "[</w>": 1538,
    "]</w>": 1539,
    "because</w>": 1540,
    "allow": 1541,
    "moun": 1542,
    "delphia</w>": 1543,
    "attemp": 1544,
    "activi": 1545,
    "cour": 1546,
    "death</w>": 1547,
    "private</w>": 1548,
    "fru": 1549,
    "196": 1550,
    "verse</w>": 1551,
    "sun</w>": 1552,
    "2007</w>": 1553,
    "21</w>": 1554,
    "wil": 1555,
    "ports</w>": 1556,
    "writing</w>": 1557,
    "shr": 1558,
    "af</w>": 1559,
    "zagreb</w>": 1560,
    "recorded</w>": 1561,
    "player</w>": 1562,
    "tting</w>": 1563,
    "point</w>": 1564,
    "kes</w>": 1565,
    "hom": 1566,
    "again</w>": 1567,
    "chan": 1568,
    "mater": 1569,
    "forms</w>": 1570,
    "simil": 1571,
    "guit": 1572,
    "pt": 1573,
    "site</w>": 1574,
    "il</w>": 1575,
    "leading</w>": 1576,
    "standing</w>": 1577,
    "club</w>": 1578,
    "actions</w>": 1579,
    "civil</w>": 1580,
    "held</w>": 1581,
    "185": 1582,
    "country</w>": 1583,
    "ov": 1584,
    "signific": 1585,
    "ching</w>": 1586,
    "religious</w>": 1587,
    "cent</w>": 1588,
    "cup</w>": 1589,
    "patter": 1590,
    "ler</w>": 1591,
    "def": 1592,
    "believed</w>": 1593,
    "lon": 1594,
    "ism</w>": 1595,
    "atlanta</w>": 1596,
    "ise</w>": 1597,
    "templ": 1598,
    "temples</w>": 1599,
    "heav": 1600,
    "albums</w>": 1601,
    "aerodromes</w>": 1602,
    "raaf</w>": 1603,
    "jewish</w>": 1604,
    "uary</w>": 1605,
    "open": 1606,
    "revolu": 1607,
    "tex": 1608,
    "sses</w>": 1609,
    "limited</w>": 1610,
    "dest": 1611,
    "ben": 1612,
    "support</w>": 1613,
    "deci": 1614,
    "moved</w>": 1615,
    "production</w>": 1616,
    "song</w>": 1617,
    "fer</w>": 1618,
    "enter": 1619,
    "style</w>": 1620,
    "include</w>": 1621,
    "sum": 1622,
    "sear": 1623,
    "flower</w>": 1624,
    "named</w>": 1625,
    "key</w>": 1626,
    "federal</w>": 1627,
    "american</w>": 1628,
    "sent</w>": 1629,
    "cy</w>": 1630,
    "president</w>": 1631,
    "behin": 1632,
    "behind</w>": 1633,
    "cru": 1634,
    "phy</w>": 1635,
    "ef</w>": 1636,
    "union</w>": 1637,
    "fif": 1638,
    "197": 1639,
    "mer": 1640,
    "childr": 1641,
    "children</w>": 1642,
    "schoo": 1643,
    "school</w>": 1644,
    "oro": 1645,
    "fri": 1646,
    "wro": 1647,
    "wrote</w>": 1648,
    "ash": 1649,
    "ek</w>": 1650,
    "disc": 1651,
    "circul": 1652,
    "political</w>": 1653,
    "shown</w>": 1654,
    "plan</w>": 1655,
    "human": 1656,
    "stry</w>": 1657,
    "zo": 1658,
    "egypt</w>": 1659,
    "zr": 1660,
    "ny": 1661,
    "dollars</w>": 1662,
    "ferred</w>": 1663,
    "outside</w>": 1664,
    "january</w>": 1665,
    "euro": 1666,
    "stand": 1667,
    "ach</w>": 1668,
    "syste": 1669,
    "system</w>": 1670,
    "heavy</w>": 1671,
    "troop": 1672,
    "ram": 1673,
    "suf": 1674,
    "war": 1675,
    "addition</w>": 1676,
    "written</w>": 1677,
    "despite</w>": 1678,
    "damaged</w>": 1679,
    "tation</w>": 1680,
    "songs</w>": 1681,
    "oy": 1682,
    "184": 1683,
    "dou": 1684,
    "ously</w>": 1685,
    "14</w>": 1686,
    "came</w>": 1687,
    "march</w>": 1688,
    "away</w>": 1689,
    "rep": 1690,
    "depar": 1691,
    "above</w>": 1692,
    "remained</w>": 1693,
    "ones</w>": 1694,
    "km</w>": 1695,
    "association</w>": 1696,
    "fairies</w>": 1697,
    "mother</w>": 1698,
    "ends</w>": 1699,
    "195": 1700,
    "sug": 1701,
    "back": 1702,
    "australia</w>": 1703,
    "type</w>": 1704,
    "draft</w>": 1705,
    "million</w>": 1706,
    "stre": 1707,
    "represented</w>": 1708,
    "silver</w>": 1709,
    "ina</w>": 1710,
    "lights</w>": 1711,
    "ri</w>": 1712,
    "religion</w>": 1713,
    "figu": 1714,
    "figures</w>": 1715,
    "heaven</w>": 1716,
    "transport</w>": 1717,
    "zrí": 1718,
    "zríny": 1719,
    "zrínyi</w>": 1720,
    "developed</w>": 1721,
    "story</w>": 1722,
    "multi": 1723,
    "returned</w>": 1724,
    "previous</w>": 1725,
    "anim": 1726,
    "diffic": 1727,
    "difficul": 1728,
    "arded</w>": 1729,
    "face</w>": 1730,
    "ah": 1731,
    "fire</w>": 1732,
    "popular</w>": 1733,
    "ority</w>": 1734,
    "synthe": 1735,
    "lat": 1736,
    "bal": 1737,
    "foc": 1738,
    "tually</w>": 1739,
    "ur</w>": 1740,
    "james</w>": 1741,
    "25</w>": 1742,
    "16</w>": 1743,
    "colle": 1744,
    "lead</w>": 1745,
    "kings</w>": 1746,
    "vity</w>": 1747,
    "placed</w>": 1748,
    "activities</w>": 1749,
    "month</w>": 1750,
    "mur": 1751,
    "flo": 1752,
    "front</w>": 1753,
    "histor": 1754,
    "tors</w>": 1755,
    "competi": 1756,
    "foot": 1757,
    "acro": 1758,
    "wide</w>": 1759,
    "nature</w>": 1760,
    "estim": 1761,
    "spir": 1762,
    "trade</w>": 1763,
    "phila": 1764,
    "training</w>": 1765,
    "caa</w>": 1766,
    "put</w>": 1767,
    "subsequ": 1768,
    "atic</w>": 1769,
    "india</w>": 1770,
    "perfor": 1771,
    "performan": 1772,
    "treat": 1773,
    "exam": 1774,
    "austro</w>": 1775,
    "hungarian</w>": 1776,
    "ants</w>": 1777,
    "temple</w>": 1778,
    "battle": 1779,
    "real</w>": 1780,
    "eless</w>": 1781,
    "release</w>": 1782,
    "tially</w>": 1783,
    "using</w>": 1784,
    "personal</w>": 1785,
    "command</w>": 1786,
    "troops</w>": 1787,
    "ained</w>": 1788,
    "army</w>": 1789,
    "xed</w>": 1790,
    "cept</w>": 1791,
    "fered</w>": 1792,
    "what</w>": 1793,
    "material</w>": 1794,
    "originally</w>": 1795,
    "cho": 1796,
    "aspec": 1797,
    "tively</w>": 1798,
    "ward</w>": 1799,
    "inten": 1800,
    "others</w>": 1801,
    "arti": 1802,
    "established</w>": 1803,
    "stead</w>": 1804,
    "arms</w>": 1805,
    "rif": 1806,
    "among</w>": 1807,
    "guns</w>": 1808,
    "iron": 1809,
    "chap": 1810,
    "mary</w>": 1811,
    "child</w>": 1812,
    "influen": 1813,
    "ness</w>": 1814,
    "pho": 1815,
    "international</w>": 1816,
    "reco": 1817,
    "across</w>": 1818,
    "kra": 1819,
    "species</w>": 1820,
    "cau": 1821,
    "hol": 1822,
    "aria</w>": 1823,
    "size</w>": 1824,
    "cou": 1825,
    "philadelphia</w>": 1826,
    "pas": 1827,
    "2013</w>": 1828,
    "bc</w>": 1829,
    "cas": 1830,
    "kh": 1831,
    "croati": 1832,
    "formation</w>": 1833,
    "rul": 1834,
    "ima": 1835,
    "shrine</w>": 1836,
    "longac": 1837,
    "longacre</w>": 1838,
    "zap": 1839,
    "ese</w>": 1840,
    "field</w>": 1841,
    "tained</w>": 1842,
    "pos": 1843,
    "control</w>": 1844,
    "vo": 1845,
    "depen": 1846,
    "grow": 1847,
    "battle</w>": 1848,
    "carried</w>": 1849,
    "acks</w>": 1850,
    "without</w>": 1851,
    "stat": 1852,
    "xim": 1853,
    "kil": 1854,
    "begin": 1855,
    "space</w>": 1856,
    "prob": 1857,
    "designed</w>": 1858,
    "mit": 1859,
    "bility</w>": 1860,
    "ric": 1861,
    "sept": 1862,
    "september</w>": 1863,
    "too</w>": 1864,
    "promo": 1865,
    "sm</w>": 1866,
    "period</w>": 1867,
    "prin": 1868,
    "loo": 1869,
    "even": 1870,
    "located</w>": 1871,
    "mac": 1872,
    "commis": 1873,
    "ick</w>": 1874,
    "20</w>": 1875,
    "common</w>": 1876,
    "dge</w>": 1877,
    "days</w>": 1878,
    "ington</w>": 1879,
    "show": 1880,
    "service</w>": 1881,
    "fav": 1882,
    "surroun": 1883,
    "roo": 1884,
    "centur": 1885,
    "century</w>": 1886,
    "earli": 1887,
    "broken</w>": 1888,
    "ended</w>": 1889,
    "sugge": 1890,
    "final</w>": 1891,
    "greater</w>": 1892,
    "phy": 1893,
    "ption</w>": 1894,
    "sting</w>": 1895,
    "ague</w>": 1896,
    "ators</w>": 1897,
    "december</w>": 1898,
    "contract</w>": 1899,
    "ston</w>": 1900,
    "100</w>": 1901,
    "mc": 1902,
    "itali": 1903,
    "ath": 1904,
    "sati": 1905,
    "relation": 1906,
    "figh": 1907,
    "decl": 1908,
    "erz": 1909,
    "erzher": 1910,
    "erzherzo": 1911,
    "erzherzog</w>": 1912,
    "ger": 1913,
    "ritu": 1914,
    "amun</w>": 1915,
    "carbon": 1916,
    "scul": 1917,
    "sculp": 1918,
    "ral</w>": 1919,
    "mex": 1920,
    "goat</w>": 1921,
    "republic</w>": 1922,
    "playing</w>": 1923,
    "pit": 1924,
    "ures</w>": 1925,
    "rest</w>": 1926,
    "iso": 1927,
    "elements</w>": 1928,
    "ines</w>": 1929,
    "ple": 1930,
    "ability</w>": 1931,
    "au</w>": 1932,
    "protec": 1933,
    "dg": 1934,
    "list</w>": 1935,
    "full</w>": 1936,
    "ece</w>": 1937,
    "nar": 1938,
    "15": 1939,
    "writer</w>": 1940,
    "search</w>": 1941,
    "instead</w>": 1942,
    "hold</w>": 1943,
    "ssion</w>": 1944,
    "deli": 1945,
    "ord": 1946,
    "int": 1947,
    "various</w>": 1948,
    "river</w>": 1949,
    "cope</w>": 1950,
    "lock": 1951,
    "few</w>": 1952,
    "’</w>": 1953,
    "aim": 1954,
    "dle</w>": 1955,
    "r</w>": 1956,
    "thre": 1957,
    "archi": 1958,
    "start</w>": 1959,
    "44</w>": 1960,
    "mic": 1961,
    "tres</w>": 1962,
    "inch</w>": 1963,
    "2015</w>": 1964,
    "mm</w>": 1965,
    "actre": 1966,
    "performance</w>": 1967,
    "concer": 1968,
    "sym": 1969,
    "bom": 1970,
    "humans</w>": 1971,
    "goddess</w>": 1972,
    "creation</w>": 1973,
    "bodies</w>": 1974,
    "cat": 1975,
    "fruit": 1976,
    "thin": 1977,
    "assassination</w>": 1978,
    "zapata</w>": 1979,
    "cab": 1980,
    "solo</w>": 1981,
    "hur": 1982,
    "black</w>": 1983,
    "ou</w>": 1984,
    "theme</w>": 1985,
    "ales</w>": 1986,
    "western</w>": 1987,
    "episo": 1988,
    "once</w>": 1989,
    "either</w>": 1990,
    "chang": 1991,
    "ribu": 1992,
    "read": 1993,
    "ingly</w>": 1994,
    "stly</w>": 1995,
    "pper</w>": 1996,
    "dence</w>": 1997,
    "upon</w>": 1998,
    "similar</w>": 1999,
    "guitar</w>": 2000,
    "instru": 2001,
    "particular</w>": 2002,
    "23</w>": 2003,
    "ditions</w>": 2004,
    "ama</w>": 2005,
    "illu": 2006,
    "ery</w>": 2007,
    "elec": 2008,
    "authori": 2009,
    "started</w>": 2010,
    "total</w>": 2011,
    "issued</w>": 2012,
    "stitu": 2013,
    "fully</w>": 2014,
    "further</w>": 2015,
    "bul": 2016,
    "indic": 2017,
    "mari": 2018,
    "gir": 2019,
    "aut": 2020,
    "dio</w>": 2021,
    "closed</w>": 2022,
    "plann": 2023,
    "cover</w>": 2024,
    "gambia</w>": 2025,
    "hab": 2026,
    "cm</w>": 2027,
    "below</w>": 2028,
    "person": 2029,
    "versi": 2030,
    "terms</w>": 2031,
    "iled</w>": 2032,
    "represent": 2033,
    "street</w>": 2034,
    "water</w>": 2035,
    "royal</w>": 2036,
    "intro": 2037,
    "horus</w>": 2038,
    "agu": 2039,
    "image</w>": 2040,
    "tour</w>": 2041,
    "ylide</w>": 2042,
    "reagents</w>": 2043,
    "ud": 2044,
    "hurri": 2045,
    "hurrican": 2046,
    "hurricane</w>": 2047,
    "vide": 2048,
    "video</w>": 2049,
    "director</w>": 2050,
    "2014</w>": 2051,
    "ories</w>": 2052,
    "aled</w>": 2053,
    "top</w>": 2054,
    "dict": 2055,
    "ire</w>": 2056,
    "become</w>": 2057,
    "names</w>": 2058,
    "mean": 2059,
    "officer</w>": 2060,
    "sely</w>": 2061,
    "home</w>": 2062,
    "works</w>": 2063,
    "successful</w>": 2064,
    "ep</w>": 2065,
    "fort</w>": 2066,
    "we</w>": 2067,
    "created</w>": 2068,
    "come</w>": 2069,
    "required</w>": 2070,
    "involved</w>": 2071,
    "body</w>": 2072,
    "worked</w>": 2073,
    "piece</w>": 2074,
    "felt</w>": 2075,
    "reve": 2076,
    "issue</w>": 2077,
    "avail": 2078,
    "deta": 2079,
    "ularly</w>": 2080,
    "exten": 2081,
    "road</w>": 2082,
    "muse": 2083,
    "istic</w>": 2084,
    "possi": 2085,
    "commission": 2086,
    "six</w>": 2087,
    "equi": 2088,
    "labor": 2089,
    "aper</w>": 2090,
    "performed</w>": 2091,
    "gun</w>": 2092,
    "born</w>": 2093,
    "larger</w>": 2094,
    "bil": 2095,
    "finally</w>": 2096,
    "died</w>": 2097,
    "ogra": 2098,
    "middle</w>": 2099,
    "level</w>": 2100,
    "conduc": 2101,
    "never</w>": 2102,
    "got</w>": 2103,
    "sac": 2104,
    "gg": 2105,
    "ey": 2106,
    "things</w>": 2107,
    "orial</w>": 2108,
    "beau": 2109,
    "football</w>": 2110,
    "recog": 2111,
    "tour": 2112,
    "cham": 2113,
    "maskra": 2114,
    "base</w>": 2115,
    "range</w>": 2116,
    "sex": 2117,
    "hoc": 2118,
    "deal</w>": 2119,
    "adi": 2120,
    "break</w>": 2121,
    "ti</w>": 2122,
    "lic</w>": 2123,
    "17": 2124,
    "ade</w>": 2125,
    "duced</w>": 2126,
    "damage</w>": 2127,
    "vered</w>": 2128,
    "award</w>": 2129,
    "industry</w>": 2130,
    "reviews</w>": 2131,
    "bes</w>": 2132,
    "ara": 2133,
    "texts</w>": 2134,
    "worship</w>": 2135,
    "creator</w>": 2136,
    "micro": 2137,
    "airspace</w>": 2138,
    "treaty</w>": 2139,
    "ico</w>": 2140,
    "carbonaria</w>": 2141,
    "jew": 2142,
    "sulf": 2143,
    "iii</w>": 2144,
    "adap": 2145,
    "growth</w>": 2146,
    "will</w>": 2147,
    "hap": 2148,
    "acqu": 2149,
    "records</w>": 2150,
    "selves</w>": 2151,
    "ital</w>": 2152,
    "cient</w>": 2153,
    "armed</w>": 2154,
    "eded</w>": 2155,
    "iden": 2156,
    "exclu": 2157,
    "particularly</w>": 2158,
    "generally</w>": 2159,
    "aspects</w>": 2160,
    "val</w>": 2161,
    "ai</w>": 2162,
    "go</w>": 2163,
    "sms</w>": 2164,
    "announ": 2165,
    "goals</w>": 2166,
    "museum</w>": 2167,
    "how</w>": 2168,
    "tele": 2169,
    "inst": 2170,
    "commander</w>": 2171,
    "sim": 2172,
    "hen": 2173,
    "ney</w>": 2174,
    "ered</w>": 2175,
    "confeder": 2176,
    "soon</w>": 2177,
    "ctions</w>": 2178,
    "v</w>": 2179,
    "nav": 2180,
    "ages</w>": 2181,
    "pain": 2182,
    "organi": 2183,
    "mark</w>": 2184,
    "published</w>": 2185,
    "sister</w>": 2186,
    "cot": 2187,
    "won</w>": 2188,
    "competition</w>": 2189,
    "24</w>": 2190,
    "wall</w>": 2191,
    "planning</w>": 2192,
    "geor": 2193,
    "feet</w>": 2194,
    "ples</w>": 2195,
    "sea</w>": 2196,
    "ury</w>": 2197,
    "partici": 2198,
    "particip": 2199,
    "hour": 2200,
    "hours</w>": 2201,
    "nu": 2202,
    "cle": 2203,
    "ual</w>": 2204,
    "league</w>": 2205,
    "tter</w>": 2206,
    "appoin": 2207,
    "italian</w>": 2208,
    "pal": 2209,
    "observatory</w>": 2210,
    "metres</w>": 2211,
    "basi": 2212,
    "physi": 2213,
    "joined</w>": 2214,
    "block": 2215,
    "roles</w>": 2216,
    "mum": 2217,
    "ferdin": 2218,
    "ferdinand</w>": 2219,
    "elephan": 2220,
    "past</w>": 2221,
    "mani": 2222,
    "increas": 2223,
    "aerodrome</w>": 2224,
    "darwin</w>": 2225,
    "franchi": 2226,
    "franchise</w>": 2227,
    "gran": 2228,
    "alter": 2229,
    "distri": 2230,
    "22</w>": 2231,
    "off": 2232,
    "woman</w>": 2233,
    "scen": 2234,
    "toge": 2235,
    "together</w>": 2236,
    "mostly</w>": 2237,
    "ests</w>": 2238,
    "themselves</w>": 2239,
    "house</w>": 2240,
    "staf": 2241,
    "wan": 2242,
    "impro": 2243,
    "mode": 2244,
    "modern</w>": 2245,
    "ly": 2246,
    "appearance</w>": 2247,
    "ils</w>": 2248,
    "official</w>": 2249,
    "sure</w>": 2250,
    "featured</w>": 2251,
    "purch": 2252,
    "announced</w>": 2253,
    "pped</w>": 2254,
    "television</w>": 2255,
    "respec": 2256,
    "illustr": 2257,
    "newly</w>": 2258,
    "1861</w>": 2259,
    "read</w>": 2260,
    "kly</w>": 2261,
    "tee</w>": 2262,
    "situ": 2263,
    "hall</w>": 2264,
    "servic": 2265,
    "osi": 2266,
    "cali": 2267,
    "supp": 2268,
    "tment</w>": 2269,
    "included</w>": 2270,
    "dri": 2271,
    "uses</w>": 2272,
    "mini": 2273,
    "center</w>": 2274,
    "sci": 2275,
    "disco": 2276,
    "goal</w>": 2277,
    "thy</w>": 2278,
    "mun": 2279,
    "ast": 2280,
    "claim": 2281,
    "fair": 2282,
    "wife</w>": 2283,
    "kin": 2284,
    "sometimes</w>": 2285,
    "hill</w>": 2286,
    "ys</w>": 2287,
    "ne</w>": 2288,
    "influence</w>": 2289,
    "aly": 2290,
    "ever": 2291,
    "acting</w>": 2292,
    "pe</w>": 2293,
    "plain</w>": 2294,
    "ats</w>": 2295,
    "northern</w>": 2296,
    "disc</w>": 2297,
    "aten": 2298,
    "onom": 2299,
    "male</w>": 2300,
    "cr": 2301,
    "usu": 2302,
    "ssed</w>": 2303,
    "hockey</w>": 2304,
    "ight</w>": 2305,
    "loss</w>": 2306,
    "free</w>": 2307,
    "ris</w>": 2308,
    "spor": 2309,
    "earlier</w>": 2310,
    "john": 2311,
    "four": 2312,
    "credi": 2313,
    "london</w>": 2314,
    "ome": 2315,
    "88</w>": 2316,
    "ogi": 2317,
    "ational</w>": 2318,
    "vocals</w>": 2319,
    "control": 2320,
    "charles</w>": 2321,
    "actress</w>": 2322,
    "omination</w>": 2323,
    "accep": 2324,
    "busin": 2325,
    "max</w>": 2326,
    "rituals</w>": 2327,
    "maat</w>": 2328,
    "character": 2329,
    "symbo": 2330,
    "imag": 2331,
    "dru": 2332,
    "airports</w>": 2333,
    "fields</w>": 2334,
    "ox": 2335,
    "fungu": 2336,
    "fungus</w>": 2337,
    "mexico</w>": 2338,
    "oroz": 2339,
    "orozco</w>": 2340,
    "elephanta</w>": 2341,
    "nation</w>": 2342,
    "galli": 2343,
    "sun": 2344,
    "progre": 2345,
    "indivi": 2346,
    "individu": 2347,
    "along": 2348,
    "alongside</w>": 2349,
    "specific</w>": 2350,
    "having</w>": 2351,
    "remain</w>": 2352,
    "always</w>": 2353,
    "tar": 2354,
    "weap": 2355,
    "soldi": 2356,
    "experi": 2357,
    "types</w>": 2358,
    "numbers</w>": 2359,
    "upper</w>": 2360,
    "expl": 2361,
    "sible</w>": 2362,
    "tain": 2363,
    "beginning</w>": 2364,
    "gave</w>": 2365,
    "ki</w>": 2366,
    "poly": 2367,
    "identi": 2368,
    "arri": 2369,
    "wat": 2370,
    "noted</w>": 2371,
    "magaz": 2372,
    "non</w>": 2373,
    "review</w>": 2374,
    "iting</w>": 2375,
    "expres": 2376,
    "tled</w>": 2377,
    "twork</w>": 2378,
    "inj": 2379,
    "kar": 2380,
    "town</w>": 2381,
    "quar": 2382,
    "governor</w>": 2383,
    "bert</w>": 2384,
    "rac": 2385,
    "deter": 2386,
    "repor": 2387,
    "alled</w>": 2388,
    "assem": 2389,
    "hands</w>": 2390,
    "smo": 2391,
    "mach": 2392,
    "iri": 2393,
    "owle": 2394,
    "effe": 2395,
    "scope</w>": 2396,
    "open</w>": 2397,
    "aired</w>": 2398,
    "shows</w>": 2399,
    "door</w>": 2400,
    "ads</w>": 2401,
    "demo": 2402,
    "significant</w>": 2403,
    "chur": 2404,
    "taking</w>": 2405,
    "lor": 2406,
    "eight</w>": 2407,
    "end": 2408,
    "servation</w>": 2409,
    "organ": 2410,
    "tioned</w>": 2411,
    "schol": 2412,
    "ss": 2413,
    "ological</w>": 2414,
    "complex</w>": 2415,
    "region</w>": 2416,
    "strea": 2417,
    "debut</w>": 2418,
    "vice</w>": 2419,
    "zation</w>": 2420,
    "eli": 2421,
    "architec": 2422,
    "ica</w>": 2423,
    "roman</w>": 2424,
    "tary</w>": 2425,
    "result</w>": 2426,
    "subsequently</w>": 2427,
    "version</w>": 2428,
    "asa</w>": 2429,
    "carol": 2430,
    "wood</w>": 2431,
    "mi</w>": 2432,
    "light": 2433,
    "business</w>": 2434,
    "cat</w>": 2435,
    "sisters</w>": 2436,
    "fleet</w>": 2437,
    "isis</w>": 2438,
    "cult</w>": 2439,
    "images</w>": 2440,
    "flights</w>": 2441,
    "noise</w>": 2442,
    "feast</w>": 2443,
    "cabral</w>": 2444,
    "fictional</w>": 2445,
    "run": 2446,
    "secre": 2447,
    "features</w>": 2448,
    "making</w>": 2449,
    "giving</w>": 2450,
    "positive</w>": 2451,
    "own": 2452,
    "alized</w>": 2453,
    "revolution</w>": 2454,
    "occur": 2455,
    "mov": 2456,
    "que</w>": 2457,
    "table</w>": 2458,
    "tch</w>": 2459,
    "ared</w>": 2460,
    "regular</w>": 2461,
    "fal": 2462,
    "see": 2463,
    "soldiers</w>": 2464,
    "terri": 2465,
    "certain</w>": 2466,
    "indepen": 2467,
    "proposed</w>": 2468,
    "dah": 2469,
    "serve</w>": 2470,
    "separ": 2471,
    "view</w>": 2472,
    "set": 2473,
    "thought</w>": 2474,
    "seven</w>": 2475,
    "initially</w>": 2476,
    "che": 2477,
    "you</w>": 2478,
    "ought</w>": 2479,
    "available</w>": 2480,
    "lower</w>": 2481,
    "overall</w>": 2482,
    "provided</w>": 2483,
    "issues</w>": 2484,
    "ign</w>": 2485,
    "tures</w>": 2486,
    "real": 2487,
    "turned</w>": 2488,
    "ural</w>": 2489,
    "distin": 2490,
    "ley</w>": 2491,
    "amm": 2492,
    "captain</w>": 2493,
    "wa": 2494,
    "officers</w>": 2495,
    "ction</w>": 2496,
    "ultim": 2497,
    "ens</w>": 2498,
    "after": 2499,
    "thus</w>": 2500,
    "ordn": 2501,
    "ordnance</w>": 2502,
    "prepar": 2503,
    "change</w>": 2504,
    "tured</w>": 2505,
    "&</w>": 2506,
    "prior</w>": 2507,
    "188": 2508,
    "purposes</w>": 2509,
    "conclu": 2510,
    "croy": 2511,
    "croydon</w>": 2512,
    "christi": 2513,
    "augh": 2514,
    "liter": 2515,
    "conducted</w>": 2516,
    "keep": 2517,
    "attack</w>": 2518,
    "favor": 2519,
    "ology</w>": 2520,
    "social</w>": 2521,
    "chapel</w>": 2522,
    "lou": 2523,
    "1998</w>": 2524,
    "ams</w>": 2525,
    "background</w>": 2526,
    "imp": 2527,
    "assist": 2528,
    "maskray</w>": 2529,
    "shap": 2530,
    "econ": 2531,
    "econom": 2532,
    "study</w>": 2533,
    "blo": 2534,
    "variety</w>": 2535,
    "reached</w>": 2536,
    "representative</w>": 2537,
    "break": 2538,
    "haw": 2539,
    "refle": 2540,
    "restri": 2541,
    "bre": 2542,
    "lic": 2543,
    "recording</w>": 2544,
    "heli": 2545,
    "carey</w>": 2546,
    "every": 2547,
    "sav": 2548,
    "inches</w>": 2549,
    "controlled</w>": 2550,
    "ells</w>": 2551,
    "july</w>": 2552,
    "success</w>": 2553,
    "eastern</w>": 2554,
    "croatia</w>": 2555,
    "far</w>": 2556,
    "elled</w>": 2557,
    "groups</w>": 2558,
    "depicted</w>": 2559,
    "perio": 2560,
    "story": 2561,
    "traditional</w>": 2562,
    "specially</w>": 2563,
    "sector</w>": 2564,
    "airfields</w>": 2565,
    "facili": 2566,
    "xis</w>": 2567,
    "1849</w>": 2568,
    "patterson</w>": 2569,
    "tural</w>": 2570,
    "synthesis</w>": 2571,
    "meth": 2572,
    "onium</w>": 2573,
    "jap": 2574,
    "opening</w>": 2575,
    "praised</w>": 2576,
    "critics</w>": 2577,
    "expan": 2578,
    "players</w>": 2579,
    "additional</w>": 2580,
    "related</w>": 2581,
    "help</w>": 2582,
    "boo": 2583,
    "forei": 2584,
    "offici": 2585,
    "destroy": 2586,
    "evi": 2587,
    "ancient</w>": 2588,
    "shortly</w>": 2589,
    "parts</w>": 2590,
    "corpor": 2591,
    "essen": 2592,
    "proble": 2593,
    "bass</w>": 2594,
    "ending</w>": 2595,
    "tra</w>": 2596,
    "pre</w>": 2597,
    "popul": 2598,
    "lish</w>": 2599,
    "magazine</w>": 2600,
    "acy</w>": 2601,
    "planned</w>": 2602,
    "stop": 2603,
    "purpose</w>": 2604,
    "ku": 2605,
    "tan": 2606,
    "eventually</w>": 2607,
    "1997</w>": 2608,
    "189": 2609,
    "dings</w>": 2610,
    "stone</w>": 2611,
    "should</w>": 2612,
    "28</w>": 2613,
    "mitted</w>": 2614,
    "emer": 2615,
    "subjec": 2616,
    "allowed</w>": 2617,
    "board</w>": 2618,
    "tori": 2619,
    "sket": 2620,
    "1862</w>": 2621,
    "nearly</w>": 2622,
    "ols</w>": 2623,
    "attempted</w>": 2624,
    "strong</w>": 2625,
    "let</w>": 2626,
    "naval</w>": 2627,
    "187": 2628,
    "entr": 2629,
    "entrance</w>": 2630,
    "surrounding</w>": 2631,
    "suffered</w>": 2632,
    "places</w>": 2633,
    "thro": 2634,
    "christian</w>": 2635,
    "ate": 2636,
    "accomp": 2637,
    "dents</w>": 2638,
    "southern</w>": 2639,
    "services</w>": 2640,
    "pengu": 2641,
    "dian</w>": 2642,
    "sal": 2643,
    "ere": 2644,
    "pion": 2645,
    "initial</w>": 2646,
    "vill": 2647,
    "na</w>": 2648,
    "estimated</w>": 2649,
    "close</w>": 2650,
    "promin": 2651,
    "least</w>": 2652,
    "thri": 2653,
    "nash</w>": 2654,
    "fifth</w>": 2655,
    "ute</w>": 2656,
    "za</w>": 2657,
    "might</w>": 2658,
    "commit": 2659,
    "deal": 2660,
    "missing</w>": 2661,
    "stage</w>": 2662,
    "40</w>": 2663,
    "gia</w>": 2664,
    "fication</w>": 2665,
    "phic</w>": 2666,
    "historical</w>": 2667,
    "semble</w>": 2668,
    "critical</w>": 2669,
    "fing": 2670,
    "monit": 2671,
    "objec": 2672,
    "connected</w>": 2673,
    "pul": 2674,
    "60</w>": 2675,
    "kan</w>": 2676,
    "escap": 2677,
    "earth</w>": 2678,
    "cer</w>": 2679,
    "awards</w>": 2680,
    "aying</w>": 2681,
    "ici": 2682,
    "lightning</w>": 2683,
    "recogni": 2684,
    "itself</w>": 2685,
    "ean</w>": 2686,
    "phara": 2687,
    "demons</w>": 2688,
    "focus</w>": 2689,
    "broad": 2690,
    "saw</w>": 2691,
    "whole</w>": 2692,
    "refu": 2693,
    "circ": 2694,
    "especially</w>": 2695,
    "2004</w>": 2696,
    "ach": 2697,
    "easa</w>": 2698,
    "gliding</w>": 2699,
    "congre": 2700,
    "kov": 2701,
    "palin</w>": 2702,
    "emmy</w>": 2703,
    "orb": 2704,
    "portic": 2705,
    "portico</w>": 2706,
    "attend": 2707,
    "nameless</w>": 2708,
    "done</w>": 2709,
    "went</w>": 2710,
    "hon": 2711,
    "missions</w>": 2712,
    "approach</w>": 2713,
    "move</w>": 2714,
    "asses</w>": 2715,
    "engin": 2716,
    "does</w>": 2717,
    "distribu": 2718,
    "foreign</w>": 2719,
    "there": 2720,
    "sen</w>": 2721,
    "member</w>": 2722,
    "towards</w>": 2723,
    "lives</w>": 2724,
    "staff</w>": 2725,
    "wanted</w>": 2726,
    "memory</w>": 2727,
    "tings</w>": 2728,
    "taining</w>": 2729,
    "decided</w>": 2730,
    "working</w>": 2731,
    "neg": 2732,
    "dic</w>": 2733,
    "500</w>": 2734,
    "good</w>": 2735,
    "richar": 2736,
    "episode</w>": 2737,
    "31</w>": 2738,
    "possible</w>": 2739,
    "ot": 2740,
    "remaining</w>": 2741,
    "native</w>": 2742,
    "ess": 2743,
    "secu": 2744,
    "yet</w>": 2745,
    "atter": 2746,
    "consisted</w>": 2747,
    "stered</w>": 2748,
    "almost</w>": 2749,
    "lost</w>": 2750,
    "ably</w>": 2751,
    "tin": 2752,
    "rought</w>": 2753,
    "employ": 2754,
    "confederate</w>": 2755,
    "orian</w>": 2756,
    "shot</w>": 2757,
    "vel": 2758,
    "small": 2759,
    "smaller</w>": 2760,
    "member": 2761,
    "hib": 2762,
    "1911</w>": 2763,
    "design": 2764,
    "designated</w>": 2765,
    "commissioned</w>": 2766,
    "visi": 2767,
    "1923</w>": 2768,
    "church</w>": 2769,
    "critic</w>": 2770,
    "1961</w>": 2771,
    "1929</w>": 2772,
    "photo": 2773,
    "memorial</w>": 2774,
    "ghts</w>": 2775,
    "asons</w>": 2776,
    "2005</w>": 2777,
    "mount</w>": 2778,
    "outh</w>": 2779,
    "quali": 2780,
    "ba</w>": 2781,
    "2002</w>": 2782,
    "gence</w>": 2783,
    "meas": 2784,
    "term</w>": 2785,
    "1990</w>": 2786,
    "manag": 2787,
    "fans</w>": 2788,
    "scoring</w>": 2789,
    "penguins</w>": 2790,
    "aver": 2791,
    "met": 2792,
    "winds</w>": 2793,
    "sto": 2794,
    "observations</w>": 2795,
    "appointed</w>": 2796,
    "glo": 2797,
    "forming</w>": 2798,
    "micha": 2799,
    "ony</w>": 2800,
    "savann": 2801,
    "savannah</w>": 2802,
    "crew</w>": 2803,
    "austri": 2804,
    "cut</w>": 2805,
    "means</w>": 2806,
    "difficult</w>": 2807,
    "mir": 2808,
    "viol": 2809,
    "musici": 2810,
    "tv</w>": 2811,
    "relationship</w>": 2812,
    "projects</w>": 2813,
    "defini": 2814,
    "entertain": 2815,
    "cerem": 2816,
    "mental</w>": 2817,
    "brother</w>": 2818,
    "aring</w>": 2819,
    "introduced</w>": 2820,
    "dread": 2821,
    "rar": 2822,
    "operation</w>": 2823,
    "goddesses</w>": 2824,
    "depicts</w>": 2825,
    "dy": 2826,
    "env": 2827,
    "example</w>": 2828,
    "osiris</w>": 2829,
    "manife": 2830,
    "extre": 2831,
    "hair</w>": 2832,
    "america</w>": 2833,
    "fly</w>": 2834,
    "recre": 2835,
    "landing</w>": 2836,
    "europe": 2837,
    "european</w>": 2838,
    "facilities</w>": 2839,
    "fruitbodies</w>": 2840,
    "sco</w>": 2841,
    "sculpture</w>": 2842,
    "corey</w>": 2843,
    "chay": 2844,
    "chaykov": 2845,
    "chaykovsky</w>": 2846,
    "dutch</w>": 2847,
    "emplo": 2848,
    "game": 2849,
    "gameplay</w>": 2850,
    "unit</w>": 2851,
    "multiple</w>": 2852,
    "down": 2853,
    "return</w>": 2854,
    "gradu": 2855,
    "route</w>": 2856,
    "minor</w>": 2857,
    "movement</w>": 2858,
    "nine</w>": 2859,
    "mission</w>": 2860,
    "get</w>": 2861,
    "great": 2862,
    "attribu": 2863,
    "entire</w>": 2864,
    "whose</w>": 2865,
    "mili": 2866,
    "advan": 2867,
    "territory</w>": 2868,
    "post</w>": 2869,
    "combined</w>": 2870,
    "approxim": 2871,
    "true</w>": 2872,
    "amoun": 2873,
    "majority</w>": 2874,
    "need</w>": 2875,
    "musical</w>": 2876,
    "instruments</w>": 2877,
    "revealed</w>": 2878,
    "fam": 2879,
    "plans</w>": 2880,
    "press</w>": 2881,
    "latter</w>": 2882,
    "critici": 2883,
    "ength</w>": 2884,
    "tations</w>": 2885,
    "taken</w>": 2886,
    "network</w>": 2887,
    "mer</w>": 2888,
    "title</w>": 2889,
    "enced</w>": 2890,
    "cast</w>": 2891,
    "arth": 2892,
    "arthur</w>": 2893,
    "pass": 2894,
    "legis": 2895,
    "completed</w>": 2896,
    "reported</w>": 2897,
    "assemb": 2898,
    "fact</w>": 2899,
    "forced</w>": 2900,
    "rah": 2901,
    "leaving</w>": 2902,
    "except</w>": 2903,
    "assi": 2904,
    "rifles</w>": 2905,
    "van</w>": 2906,
    "dor": 2907,
    "accoun": 2908,
    "department</w>": 2909,
    "owledge</w>": 2910,
    "nei": 2911,
    "don": 2912,
    "brought</w>": 2913,
    "doc": 2914,
    "activity</w>": 2915,
    "build</w>": 2916,
    "sanford</w>": 2917,
    "cing</w>": 2918,
    "floor</w>": 2919,
    "depl": 2920,
    "larg": 2921,
    "largely</w>": 2922,
    "bill</w>": 2923,
    "1994</w>": 2924,
    "spring</w>": 2925,
    "marked</w>": 2926,
    "poe": 2927,
    "1918</w>": 2928,
    "studio</w>": 2929,
    "andre": 2930,
    "here</w>": 2931,
    "division</w>": 2932,
    "mel": 2933,
    "sor": 2934,
    "vey</w>": 2935,
    "ws</w>": 2936,
    "ld": 2937,
    "foun": 2938,
    "tax": 2939,
    "becoming</w>": 2940,
    "survi": 2941,
    "defen": 2942,
    "strugg": 2943,
    "streak</w>": 2944,
    "tied</w>": 2945,
    "shoo": 2946,
    "going</w>": 2947,
    "double</w>": 2948,
    "ena</w>": 2949,
    "johnson</w>": 2950,
    "fourth</w>": 2951,
    "anch": 2952,
    "regulation</w>": 2953,
    "lies</w>": 2954,
    "universi": 2955,
    "2003</w>": 2956,
    "ana</w>": 2957,
    "80</w>": 2958,
    "dial</w>": 2959,
    "committee</w>": 2960,
    "flan": 2961,
    "ig": 2962,
    "remains</w>": 2963,
    "ologi": 2964,
    "emo": 2965,
    "hil": 2966,
    "storm</w>": 2967,
    "mixed</w>": 2968,
    "ering</w>": 2969,
    "aim</w>": 2970,
    "followed</w>": 2971,
    "dance</w>": 2972,
    "says</w>": 2973,
    "cting</w>": 2974,
    "fingal</w>": 2975,
    "cy": 2976,
    "speed</w>": 2977,
    "carolina</w>": 2978,
    "satis": 2979,
    "du</w>": 2980,
    "hard</w>": 2981,
    "sri</w>": 2982,
    "universe</w>": 2983,
    "scent</w>": 2984,
    "sar": 2985,
    "guest</w>": 2986,
    "bing</w>": 2987,
    "supported</w>": 2988,
    "elephant</w>": 2989,
    "ia</w>": 2990,
    "cancer</w>": 2991,
    "see</w>": 2992,
    "dreadn": 2993,
    "ancon": 2994,
    "ancona</w>": 2995,
    "allied</w>": 2996,
    "pharao": 2997,
    "characteris": 2998,
    "characteristics</w>": 2999,
    "myths</w>": 3000,
    "scholars</w>": 3001,
    "argu": 3002,
    "tradition</w>": 3003,
    "where": 3004,
    "seated</w>": 3005,
    "lied</w>": 3006,
    "environ": 3007,
    "independent</w>": 3008,
    "represent</w>": 3009,
    "physical</w>": 3010,
    "categ": 3011,
    "aries</w>": 3012,
    "reign</w>": 3013,
    "extreme</w>": 3014,
    "dress</w>": 3015,
    "basic</w>": 3016,
    "acts</w>": 3017,
    "intel": 3018,
    "soun": 3019,
    "gol": 3020,
    "licence</w>": 3021,
    "standards</w>": 3022,
    "touring</w>": 3023,
    "denomination</w>": 3024,
    "franci": 3025,
    "francisco</w>": 3026,
    "depre": 3027,
    "deprec": 3028,
    "oselec": 3029,
    "substitu": 3030,
    "methy": 3031,
    "enanti": 3032,
    "dictator</w>": 3033,
    "narr": 3034,
    "agust": 3035,
    "ligence</w>": 3036,
    "portu": 3037,
    "nbc</w>": 3038,
    "update</w>": 3039,
    "murti</w>": 3040,
    "ravan": 3041,
    "carved</w>": 3042,
    "referred</w>": 3043,
    "media</w>": 3044,
    "met</w>": 3045,
    "enem": 3046,
    "portra": 3047,
    "units</w>": 3048,
    "turn</w>": 3049,
    "poten": 3050,
    "divi": 3051,
    "inv": 3052,
    "awarded</w>": 3053,
    "feature</w>": 3054,
    "tas": 3055,
    "cause</w>": 3056,
    "effort</w>": 3057,
    "empire</w>": 3058,
    "short</w>": 3059,
    "maxim": 3060,
    "chance</w>": 3061,
    "peace</w>": 3062,
    "killed</w>": 3063,
    "approximately</w>": 3064,
    "response</w>": 3065,
    "revolution": 3066,
    "essential</w>": 3067,
    "fy</w>": 3068,
    "expec": 3069,
    "ro</w>": 3070,
    "preci": 3071,
    "lyric": 3072,
    "lyrics</w>": 3073,
    "ashi": 3074,
    "itable</w>": 3075,
    "owned</w>": 3076,
    "english</w>": 3077,
    "cited</w>": 3078,
    "highly</w>": 3079,
    "repe": 3080,
    "park</w>": 3081,
    "2001</w>": 3082,
    "bir": 3083,
    "increased</w>": 3084,
    "ior</w>": 3085,
    "six": 3086,
    "transferred</w>": 3087,
    "rein": 3088,
    "indian</w>": 3089,
    "rich": 3090,
    "lines</w>": 3091,
    "quic": 3092,
    "quickly</w>": 3093,
    "necess": 3094,
    "authorities</w>": 3095,
    "morning</w>": 3096,
    "manu": 3097,
    "cussion</w>": 3098,
    "conver": 3099,
    "gen</w>": 3100,
    "camp": 3101,
    "ga": 3102,
    "knowledge</w>": 3103,
    "paper</w>": 3104,
    "dun": 3105,
    "ironcl": 3106,
    "eman</w>": 3107,
    "repaired</w>": 3108,
    "police</w>": 3109,
    "36</w>": 3110,
    "continue</w>": 3111,
    "chief</w>": 3112,
    "freder": 3113,
    "frederick</w>": 3114,
    "loy": 3115,
    "room</w>": 3116,
    "pression</w>": 3117,
    "profe": 3118,
    "professi": 3119,
    "cards</w>": 3120,
    "collabor": 3121,
    "pha": 3122,
    "ography</w>": 3123,
    "england</w>": 3124,
    "epi": 3125,
    "spent</w>": 3126,
    "herself</w>": 3127,
    "cott</w>": 3128,
    "190": 3129,
    "post": 3130,
    "teen</w>": 3131,
    "da</w>": 3132,
    "row</w>": 3133,
    "sacred</w>": 3134,
    "coast</w>": 3135,
    "give</w>": 3136,
    "tech": 3137,
    "influenced</w>": 3138,
    "ny</w>": 3139,
    "ues</w>": 3140,
    "ency</w>": 3141,
    "photogra": 3142,
    "rol": 3143,
    "treas": 3144,
    "yo": 3145,
    "panel</w>": 3146,
    "fifa</w>": 3147,
    "regional</w>": 3148,
    "participated</w>": 3149,
    "champion": 3150,
    "fying</w>": 3151,
    "scored</w>": 3152,
    "access</w>": 3153,
    "laun": 3154,
    "astic</w>": 3155,
    "dedic": 3156,
    "shaped</w>": 3157,
    "economic</w>": 3158,
    "tom</w>": 3159,
    "industri": 3160,
    "willi": 3161,
    "tains</w>": 3162,
    "usually</w>": 3163,
    "45</w>": 3164,
    "lands</w>": 3165,
    "shore</w>": 3166,
    "antly</w>": 3167,
    "sexual</w>": 3168,
    "coach</w>": 3169,
    "carter</w>": 3170,
    "sta": 3171,
    "clock</w>": 3172,
    "goal": 3173,
    "goalten": 3174,
    "mason</w>": 3175,
    "losing</w>": 3176,
    "ake</w>": 3177,
    "tch": 3178,
    "fr": 3179,
    "discu": 3180,
    "view": 3181,
    "involving</w>": 3182,
    "shu": 3183,
    "university</w>": 3184,
    "greg": 3185,
    "credited</w>": 3186,
    "pope</w>": 3187,
    "ssive</w>": 3188,
    "ty": 3189,
    "communic": 3190,
    "ban</w>": 3191,
    "ophi": 3192,
    "fixed</w>": 3193,
    "inspir": 3194,
    "write</w>": 3195,
    "step": 3196,
    "mix</w>": 3197,
    "hs</w>": 3198,
    "georgia</w>": 3199,
    "monitors</w>": 3200,
    "supporting</w>": 3201,
    "slow": 3202,
    "ented</w>": 3203,
    "valent</w>": 3204,
    "lation</w>": 3205,
    "nal</w>": 3206,
    "arrived</w>": 3207,
    "demon": 3208,
    "demonstr": 3209,
    "murder</w>": 3210,
    "accepted</w>": 3211,
    "ky</w>": 3212,
    "definition</w>": 3213,
    "whom</w>": 3214,
    "acted</w>": 3215,
    "mumba": 3216,
    "mumbai</w>": 3217,
    "1996</w>": 3218,
    "cruis": 3219,
    "heavi": 3220,
    "efs</w>": 3221,
    "theistic</w>": 3222,
    "whereas</w>": 3223,
    "divin": 3224,
    "ideas</w>": 3225,
    "myth</w>": 3226,
    "myth": 3227,
    "dyn": 3228,
    "grew</w>": 3229,
    "ception</w>": 3230,
    "process</w>": 3231,
    "monum": 3232,
    "prac": 3233,
    "blood</w>": 3234,
    "observed</w>": 3235,
    "label</w>": 3236,
    "gliders</w>": 3237,
    "aerial</w>": 3238,
    "engaged</w>": 3239,
    "glider</w>": 3240,
    "plane</w>": 3241,
    "recreational</w>": 3242,
    "geop": 3243,
    "geopy": 3244,
    "geopyxis</w>": 3245,
    "180": 3246,
    "bran": 3247,
    "square</w>": 3248,
    "engra": 3249,
    "liber": 3250,
    "mck": 3251,
    "mckay</w>": 3252,
    "eag": 3253,
    "annular</w>": 3254,
    "epo": 3255,
    "epoxi": 3256,
    "intelligence</w>": 3257,
    "portugu": 3258,
    "portuguese</w>": 3259,
    "planet</w>": 3260,
    "hindu</w>": 3261,
    "trimurti</w>": 3262,
    "ravana</w>": 3263,
    "riding</w>": 3264,
    "vai</w>": 3265,
    "zil": 3266,
    "zilto": 3267,
    "ziltoid</w>": 3268,
    "playstation</w>": 3269,
    "perform</w>": 3270,
    "standard</w>": 3271,
    "edition</w>": 3272,
    "told</w>": 3273,
    "selected</w>": 3274,
    "higher</w>": 3275,
    "difficulty</w>": 3276,
    "person</w>": 3277,
    "turns</w>": 3278,
    "expen": 3279,
    "getting</w>": 3280,
    "lear": 3281,
    "direct</w>": 3282,
    "armor": 3283,
    "plot</w>": 3284,
    "composed</w>": 3285,
    "ordered</w>": 3286,
    "meaning</w>": 3287,
    "ready</w>": 3288,
    "accu": 3289,
    "weapons</w>": 3290,
    "alist</w>": 3291,
    "destroyed</w>": 3292,
    "fellow</w>": 3293,
    "tage</w>": 3294,
    "becomes</w>": 3295,
    "presence</w>": 3296,
    "offered</w>": 3297,
    "separate</w>": 3298,
    "structure</w>": 3299,
    "incorpor": 3300,
    "faced</w>": 3301,
    "themes</w>": 3302,
    "hop": 3303,
    "web": 3304,
    "jour": 3305,
    "details</w>": 3306,
    "oil</w>": 3307,
    "sold</w>": 3308,
    "79</w>": 3309,
    "coming</w>": 3310,
    "pac": 3311,
    "emed</w>": 3312,
    "problems</w>": 3313,
    "representing</w>": 3314,
    "29</w>": 3315,
    "appearan": 3316,
    "appearances</w>": 3317,
    "prot": 3318,
    "macarthur</w>": 3319,
    "natural</w>": 3320,
    "1942</w>": 3321,
    "distinct</w>": 3322,
    "expe": 3323,
    "super": 3324,
    "perman": 3325,
    "vention</w>": 3326,
    "authority</w>": 3327,
    "disp": 3328,
    "rumor": 3329,
    "rumors</w>": 3330,
    "intended</w>": 3331,
    "news</w>": 3332,
    "interpre": 3333,
    "necessary</w>": 3334,
    "assembled</w>": 3335,
    "zens</w>": 3336,
    "civili": 3337,
    "situation</w>": 3338,
    "surren": 3339,
    "assum": 3340,
    "therefore</w>": 3341,
    "proper": 3342,
    "list": 3343,
    "manufac": 3344,
    "caliber</w>": 3345,
    "cav": 3346,
    "opened</w>": 3347,
    "iron</w>": 3348,
    "miles</w>": 3349,
    "ases</w>": 3350,
    "purchased</w>": 3351,
    "inder</w>": 3352,
    "lieu": 3353,
    "lieuten": 3354,
    "pon": 3355,
    "office</w>": 3356,
    "int</w>": 3357,
    "poun": 3358,
    "scale</w>": 3359,
    "tically</w>": 3360,
    "deploy": 3361,
    "sively</w>": 3362,
    "devo": 3363,
    "raised</w>": 3364,
    "money</w>": 3365,
    "ago</w>": 3366,
    "sites</w>": 3367,
    "cock</w>": 3368,
    "depicting</w>": 3369,
    "correspon": 3370,
    "professional</w>": 3371,
    "books</w>": 3372,
    "themed</w>": 3373,
    "stained</w>": 3374,
    "queen</w>": 3375,
    "influences</w>": 3376,
    "claimed</w>": 3377,
    "stic</w>": 3378,
    "daugh": 3379,
    "scho": 3380,
    "house": 3381,
    "j</w>": 3382,
    "tou": 3383,
    "friends</w>": 3384,
    "victori": 3385,
    "relati": 3386,
    "twi": 3387,
    "white</w>": 3388,
    "indicated</w>": 3389,
    "eye</w>": 3390,
    "sw": 3391,
    "resc": 3392,
    "ton": 3393,
    "ken": 3394,
    "hibi": 3395,
    "dated</w>": 3396,
    "trees</w>": 3397,
    "louis</w>": 3398,
    "treasury</w>": 3399,
    "makes</w>": 3400,
    "find</w>": 3401,
    "tam": 3402,
    "europe</w>": 3403,
    "launched</w>": 3404,
    "pattern</w>": 3405,
    "mainly</w>": 3406,
    "less": 3407,
    "via</w>": 3408,
    "value</w>": 3409,
    "acles</w>": 3410,
    "prominent</w>": 3411,
    "substr": 3412,
    "si</w>": 3413,
    "resulted</w>": 3414,
    "worst</w>": 3415,
    "lot": 3416,
    "pick</w>": 3417,
    "eff</w>": 3418,
    "ested</w>": 3419,
    "los</w>": 3420,
    "allowing</w>": 3421,
    "hour</w>": 3422,
    "failed</w>": 3423,
    "goaltender</w>": 3424,
    "steve</w>": 3425,
    "dition": 3426,
    "ditionally</w>": 3427,
    "bs</w>": 3428,
    "im</w>": 3429,
    "organization</w>": 3430,
    "astr": 3431,
    "astronom": 3432,
    "av</w>": 3433,
    "villa</w>": 3434,
    "85</w>": 3435,
    "flanked</w>": 3436,
    "sat": 3437,
    "stars</w>": 3438,
    "tices</w>": 3439,
    "san</w>": 3440,
    "vin": 3441,
    "yl</w>": 3442,
    "enty</w>": 3443,
    "aska</w>": 3444,
    "highway</w>": 3445,
    "dge": 3446,
    "blockade</w>": 3447,
    "bullo": 3448,
    "primary</w>": 3449,
    "bah": 3450,
    "attempt</w>": 3451,
    "coal</w>": 3452,
    "armor</w>": 3453,
    "kg</w>": 3454,
    "vir": 3455,
    "attack": 3456,
    "assa": 3457,
    "aggre": 3458,
    "rag": 3459,
    "bay</w>": 3460,
    "gho": 3461,
    "ssing</w>": 3462,
    "olly": 3463,
    "ollywood</w>": 3464,
    "ya</w>": 3465,
    "opposi": 3466,
    "opposite</w>": 3467,
    "bh": 3468,
    "ff</w>": 3469,
    "riage</w>": 3470,
    "fits</w>": 3471,
    "ership</w>": 3472,
    "lized</w>": 3473,
    "outstanding</w>": 3474,
    "whe": 3475,
    "belief</w>": 3476,
    "bombar": 3477,
    "bombard": 3478,
    "bombardment</w>": 3479,
    "stations</w>": 3480,
    "battleships</w>": 3481,
    "offer": 3482,
    "offerings</w>": 3483,
    "relationships</w>": 3484,
    "hier": 3485,
    "combin": 3486,
    "combinations</w>": 3487,
    "aten</w>": 3488,
    "counter": 3489,
    "erated</w>": 3490,
    "court</w>": 3491,
    "chaos</w>": 3492,
    "beh": 3493,
    "behavi": 3494,
    "rule</w>": 3495,
    "includes</w>": 3496,
    "lap": 3497,
    "13": 3498,
    "increasingly</w>": 3499,
    "examples</w>": 3500,
    "festi": 3501,
    "gui": 3502,
    "pet": 3503,
    "guil": 3504,
    "rebel": 3505,
    "lets</w>": 3506,
    "certi": 3507,
    "tus</w>": 3508,
    "cross</w>": 3509,
    "anger</w>": 3510,
    "helicop": 3511,
    "arm</w>": 3512,
    "ctive</w>": 3513,
    "concluded</w>": 3514,
    "us": 3515,
    "areas</w>": 3516,
    "bon</w>": 3517,
    "duce</w>": 3518,
    "sulfur": 3519,
    "sulfur</w>": 3520,
    "congress</w>": 3521,
    "jewel": 3522,
    "cultural</w>": 3523,
    "premi": 3524,
    "reactions</w>": 3525,
    "sulfonium</w>": 3526,
    "reagent</w>": 3527,
    "assassins</w>": 3528,
    "conspir": 3529,
    "machi": 3530,
    "machism": 3531,
    "machismo</w>": 3532,
    "ín</w>": 3533,
    "week": 3534,
    "weekend</w>": 3535,
    "poeh": 3536,
    "poehler</w>": 3537,
    "kail": 3538,
    "kailash</w>": 3539,
    "vish": 3540,
    "vishn": 3541,
    "vishnu</w>": 3542,
    "vara</w>": 3543,
    "ling": 3544,
    "linga</w>": 3545,
    "lit</w>": 3546,
    "battlefield</w>": 3547,
    "rying</w>": 3548,
    "scrip": 3549,
    "adapted</w>": 3550,
    "spea": 3551,
    "line": 3552,
    "individual</w>": 3553,
    "squad</w>": 3554,
    "love</w>": 3555,
    "assigned</w>": 3556,
    "heal": 3557,
    "kno": 3558,
    "skill": 3559,
    "inci": 3560,
    "ca</w>": 3561,
    "fect</w>": 3562,
    "gallian</w>": 3563,
    "tia</w>": 3564,
    "ious</w>": 3565,
    "cts</w>": 3566,
    "capital</w>": 3567,
    "evidence</w>": 3568,
    "formal</w>": 3569,
    "creating</w>": 3570,
    "wrec": 3571,
    "alle": 3572,
    "finished</w>": 3573,
    "idea</w>": 3574,
    "entry</w>": 3575,
    "interview</w>": 3576,
    "amount</w>": 3577,
    "err": 3578,
    "needed</w>": 3579,
    "eding</w>": 3580,
    "sense</w>": 3581,
    "engine</w>": 3582,
    "reason</w>": 3583,
    "flu": 3584,
    "27</w>": 3585,
    "transfer</w>": 3586,
    "unlike</w>": 3587,
    "noting</w>": 3588,
    "eling</w>": 3589,
    "life": 3590,
    "occa": 3591,
    "iling</w>": 3592,
    "kon": 3593,
    "princi": 3594,
    "refer": 3595,
    "research</w>": 3596,
    "eline</w>": 3597,
    "tom": 3598,
    "flowers</w>": 3599,
    "sho": 3600,
    "quarters</w>": 3601,
    "æs": 3602,
    "æsthe": 3603,
    "æsthetic</w>": 3604,
    "sides</w>": 3605,
    "starting</w>": 3606,
    "thirty</w>": 3607,
    "ade": 3608,
    "bud": 3609,
    "permanent</w>": 3610,
    "ammuni": 3611,
    "ammunition</w>": 3612,
    "alls</w>": 3613,
    "totten</w>": 3614,
    "determin": 3615,
    "atch</w>": 3616,
    "smi": 3617,
    "guar": 3618,
    "citi": 3619,
    "ades</w>": 3620,
    "prev": 3621,
    "charge</w>": 3622,
    "subject</w>": 3623,
    "perhap": 3624,
    "perhaps</w>": 3625,
    "aug": 3626,
    "saf": 3627,
    "classi": 3628,
    "dges</w>": 3629,
    "tely</w>": 3630,
    "equip": 3631,
    "equipment</w>": 3632,
    "campai": 3633,
    "valu": 3634,
    "ient</w>": 3635,
    "dly</w>": 3636,
    "tiful</w>": 3637,
    "docum": 3638,
    "libr": 3639,
    "remainder</w>": 3640,
    "shment</w>": 3641,
    "looking</w>": 3642,
    "lieutenant</w>": 3643,
    "dunn": 3644,
    "dunnington</w>": 3645,
    "boat</w>": 3646,
    "rounds</w>": 3647,
    "week</w>": 3648,
    "amed</w>": 3649,
    "married</w>": 3650,
    "bas": 3651,
    "today</w>": 3652,
    "must</w>": 3653,
    "traded</w>": 3654,
    "condition</w>": 3655,
    "chic": 3656,
    "chicago</w>": 3657,
    "finan": 3658,
    "gest</w>": 3659,
    "historic</w>": 3660,
    "educ": 3661,
    "struction</w>": 3662,
    "collaboration</w>": 3663,
    "doro": 3664,
    "dorothy</w>": 3665,
    "green": 3666,
    "fairy</w>": 3667,
    "1985</w>": 3668,
    "amate": 3669,
    "amateur</w>": 3670,
    "wings</w>": 3671,
    "seven": 3672,
    "ature</w>": 3673,
    "australian</w>": 3674,
    "enou": 3675,
    "enough</w>": 3676,
    "recomm": 3677,
    "sex</w>": 3678,
    "reti": 3679,
    "funer": 3680,
    "comes</w>": 3681,
    "woo": 3682,
    "1915</w>": 3683,
    "girl</w>": 3684,
    "1920</w>": 3685,
    "rhy": 3686,
    "ck": 3687,
    "agency</w>": 3688,
    "1988</w>": 3689,
    "respectively</w>": 3690,
    "girls</w>": 3691,
    "picture</w>": 3692,
    "words</w>": 3693,
    "teams</w>": 3694,
    "ranked</w>": 3695,
    "sanc": 3696,
    "active</w>": 3697,
    "ray</w>": 3698,
    "not": 3699,
    "bot": 3700,
    "diam": 3701,
    "yi": 3702,
    "bands</w>": 3703,
    "chae": 3704,
    "producing</w>": 3705,
    "stand</w>": 3706,
    "conservation</w>": 3707,
    "threaten": 3708,
    "occurred</w>": 3709,
    "ma</w>": 3710,
    "changes</w>": 3711,
    "mouth</w>": 3712,
    "reports</w>": 3713,
    "deep</w>": 3714,
    "func": 3715,
    "maximum</w>": 3716,
    "ically</w>": 3717,
    "missed</w>": 3718,
    "fired</w>": 3719,
    "replaced</w>": 3720,
    "dd</w>": 3721,
    "jeff</w>": 3722,
    "rick</w>": 3723,
    "howson</w>": 3724,
    "management</w>": 3725,
    "wis": 3726,
    "ski</w>": 3727,
    "highest</w>": 3728,
    "minu": 3729,
    "rain</w>": 3730,
    "additionally</w>": 3731,
    "injury</w>": 3732,
    "helped</w>": 3733,
    "hitch": 3734,
    "hitchcock</w>": 3735,
    "playoff</w>": 3736,
    "dead": 3737,
    "tun": 3738,
    "host</w>": 3739,
    "%</w>": 3740,
    "weeks</w>": 3741,
    "ceeded</w>": 3742,
    "alty</w>": 3743,
    "shing</w>": 3744,
    "48</w>": 3745,
    "pa</w>": 3746,
    "vatican</w>": 3747,
    "suggested</w>": 3748,
    "anti</w>": 3749,
    "300</w>": 3750,
    "subsequent</w>": 3751,
    "race</w>": 3752,
    "oms</w>": 3753,
    "thi": 3754,
    "curr": 3755,
    "cosmo": 3756,
    "height</w>": 3757,
    "contrast</w>": 3758,
    "exist": 3759,
    "existence</w>": 3760,
    "rafa": 3761,
    "rafael</w>": 3762,
    "performing</w>": 3763,
    "ensemble</w>": 3764,
    "steps</w>": 3765,
    "vocal</w>": 3766,
    "71</w>": 3767,
    "1986</w>": 3768,
    "curren": 3769,
    "run</w>": 3770,
    "bulloch</w>": 3771,
    "cargo</w>": 3772,
    "passen": 3773,
    "richmon": 3774,
    "richmond</w>": 3775,
    "chann": 3776,
    "contribu": 3777,
    "pound</w>": 3778,
    "circulation</w>": 3779,
    "nall</w>": 3780,
    "passed</w>": 3781,
    "yer</w>": 3782,
    "appar": 3783,
    "mass</w>": 3784,
    "ller</w>": 3785,
    "scre": 3786,
    "musician</w>": 3787,
    "hosted</w>": 3788,
    "movi": 3789,
    "ballo": 3790,
    "hann": 3791,
    "emerged</w>": 3792,
    "starred</w>": 3793,
    "gives</w>": 3794,
    "fear</w>": 3795,
    "era</w>": 3796,
    "prece": 3797,
    "chose</w>": 3798,
    "offer</w>": 3799,
    "1995</w>": 3800,
    "mediate</w>": 3801,
    "fighting</w>": 3802,
    "german</w>": 3803,
    "arch": 3804,
    "karl</w>": 3805,
    "rarely</w>": 3806,
    "surrounded</w>": 3807,
    "worshi": 3808,
    "beliefs</w>": 3809,
    "diverse</w>": 3810,
    "atenism</w>": 3811,
    "capable</w>": 3812,
    "beings</w>": 3813,
    "disting": 3814,
    "distingu": 3815,
    "distingui": 3816,
    "personi": 3817,
    "animal</w>": 3818,
    "regarded</w>": 3819,
    "adop": 3820,
    "ruption</w>": 3821,
    "disorder</w>": 3822,
    "divinities</w>": 3823,
    "hosti": 3824,
    "demon</w>": 3825,
    "renew": 3826,
    "statues</w>": 3827,
    "datory</w>": 3828,
    "widesp": 3829,
    "widespread</w>": 3830,
    "hath": 3831,
    "hathor</w>": 3832,
    "periods</w>": 3833,
    "cally</w>": 3834,
    "rules</w>": 3835,
    "relief</w>": 3836,
    "suici": 3837,
    "suicide</w>": 3838,
    "cool</w>": 3839,
    "surve": 3840,
    "achu": 3841,
    "registered</w>": 3842,
    "safe": 3843,
    "safety</w>": 3844,
    "airwor": 3845,
    "airworthin": 3846,
    "airworthiness</w>": 3847,
    "airport</w>": 3848,
    "licensed</w>": 3849,
    "impact</w>": 3850,
    "croatian</w>": 3851,
    "1853</w>": 3852,
    "moderate</w>": 3853,
    "liberty</w>": 3854,
    "mints</w>": 3855,
    "eagle</w>": 3856,
    "lition</w>": 3857,
    "tivity</w>": 3858,
    "ylides</w>": 3859,
    "cataly": 3860,
    "ciud": 3861,
    "ciudad</w>": 3862,
    "áre": 3863,
    "árez</w>": 3864,
    "cuaut": 3865,
    "cuautla</w>": 3866,
    "golden</w>": 3867,
    "conspirators</w>": 3868,
    "marriage</w>": 3869,
    "ocean</w>": 3870,
    "nomin": 3871,
    "herit": 3872,
    "heritage</w>": 3873,
    "carving</w>": 3874,
    "praš": 3875,
    "praška</w>": 3876,
    "ō</w>": 3877,
    "japan": 3878,
    "japanese</w>": 3879,
    "serving</w>": 3880,
    "gallia</w>": 3881,
    "calam": 3882,
    "sak": 3883,
    "awa</w>": 3884,
    "location</w>": 3885,
    "perspec": 3886,
    "something</w>": 3887,
    "happen": 3888,
    "skills</w>": 3889,
    "unique</w>": 3890,
    "divided</w>": 3891,
    "wise</w>": 3892,
    "grant</w>": 3893,
    "empor": 3894,
    "armored</w>": 3895,
    "victory</w>": 3896,
    "metho": 3897,
    "takes</w>": 3898,
    "officially</w>": 3899,
    "theless</w>": 3900,
    "ha</w>": 3901,
    "shes</w>": 3902,
    "cel": 3903,
    "consisting</w>": 3904,
    "raged</w>": 3905,
    "defe": 3906,
    "leader</w>": 3907,
    "continues</w>": 3908,
    "kep": 3909,
    "kept</w>": 3910,
    "pose</w>": 3911,
    "partly</w>": 3912,
    "fers</w>": 3913,
    "rather</w>": 3914,
    "ony": 3915,
    "mechan": 3916,
    "ko": 3917,
    "sei": 3918,
    "cs</w>": 3919,
    "lay": 3920,
    "compon": 3921,
    "ems</w>": 3922,
    "anime</w>": 3923,
    "tone</w>": 3924,
    "chestr": 3925,
    "seg": 3926,
    "fan": 3927,
    "constructed</w>": 3928,
    "tracks</w>": 3929,
    "aun": 3930,
    "listed</w>": 3931,
    "gs</w>": 3932,
    "demo</w>": 3933,
    "data</w>": 3934,
    "poor</w>": 3935,
    "recep": 3936,
    "yed</w>": 3937,
    "returning</w>": 3938,
    "titled</w>": 3939,
    "sco": 3940,
    "ences</w>": 3941,
    "buildings</w>": 3942,
    "dougl": 3943,
    "douglas</w>": 3944,
    "paci": 3945,
    "pacific</w>": 3946,
    "expedition</w>": 3947,
    "passing</w>": 3948,
    "robert</w>": 3949,
    "previously</w>": 3950,
    "proved</w>": 3951,
    "store</w>": 3952,
    "cession</w>": 3953,
    "permitted</w>": 3954,
    "posse": 3955,
    "ultimately</w>": 3956,
    "let": 3957,
    "recently</w>": 3958,
    "asked</w>": 3959,
    "ultimate</w>": 3960,
    "simp": 3961,
    "citizens</w>": 3962,
    "rity</w>": 3963,
    "assumed</w>": 3964,
    "prevent</w>": 3965,
    "agreed</w>": 3966,
    "forts</w>": 3967,
    "47</w>": 3968,
    "percussion</w>": 3969,
    "batter": 3970,
    "flint": 3971,
    "lock</w>": 3972,
    "600</w>": 3973,
    "note</w>": 3974,
    "supply</w>": 3975,
    "probably</w>": 3976,
    "sbur": 3977,
    "campaign</w>": 3978,
    "1863</w>": 3979,
    "chem": 3980,
    "spiri": 3981,
    "account</w>": 3982,
    "cured</w>": 3983,
    "library</w>": 3984,
    "employed</w>": 3985,
    "ironclad</w>": 3986,
    "captured</w>": 3987,
    "26</w>": 3988,
    "pair</w>": 3989,
    "travel": 3990,
    "bly</w>": 3991,
    "months</w>": 3992,
    "brief": 3993,
    "briefly</w>": 3994,
    "added</w>": 3995,
    "log": 3996,
    "zations</w>": 3997,
    "bian</w>": 3998,
    "occu": 3999,
    "tric</w>": 4000,
    "attended</w>": 4001,
    "shell</w>": 4002,
    "discovery</w>": 4003,
    "education</w>": 4004,
    "hood</w>": 4005,
    "hym": 4006,
    "edmun": 4007,
    "edmund</w>": 4008,
    "kate</w>": 4009,
    "pal</w>": 4010,
    "ctively</w>": 4011,
    "wad": 4012,
    "onged</w>": 4013,
    "prize</w>": 4014,
    "annu": 4015,
    "kinder": 4016,
    "kindergar": 4017,
    "kindergarten</w>": 4018,
    "schools</w>": 4019,
    "peter</w>": 4020,
    "1920": 4021,
    "1920s</w>": 4022,
    "£</w>": 4023,
    "1925</w>": 4024,
    "andrew</w>": 4025,
    "pill": 4026,
    "ran</w>": 4027,
    "mosp": 4028,
    "olved</w>": 4029,
    "warne</w>": 4030,
    "attention</w>": 4031,
    "stal": 4032,
    "mill": 4033,
    "vers</w>": 4034,
    "aside</w>": 4035,
    "lord</w>": 4036,
    "aces</w>": 4037,
    "1943</w>": 4038,
    "pag": 4039,
    "sand</w>": 4040,
    "wales</w>": 4041,
    "1941</w>": 4042,
    "preservation</w>": 4043,
    "1921</w>": 4044,
    "beautiful</w>": 4045,
    "1937</w>": 4046,
    "yers</w>": 4047,
    "erry</w>": 4048,
    "represents</w>": 4049,
    "drew</w>": 4050,
    "chall": 4051,
    "unity</w>": 4052,
    "course</w>": 4053,
    "levels</w>": 4054,
    "try": 4055,
    "ae</w>": 4056,
    "habit": 4057,
    "fin</w>": 4058,
    "skin</w>": 4059,
    "dark</w>": 4060,
    "eyes</w>": 4061,
    "threatened</w>": 4062,
    "scienti": 4063,
    "industrial</w>": 4064,
    "william</w>": 4065,
    "elev": 4066,
    "event</w>": 4067,
    "sal</w>": 4068,
    "closely</w>": 4069,
    "timor</w>": 4070,
    "apu": 4071,
    "compar": 4072,
    "factors</w>": 4073,
    "personn": 4074,
    "personnel</w>": 4075,
    "forward</w>": 4076,
    "angel": 4077,
    "angeles</w>": 4078,
    "winning</w>": 4079,
    "managed</w>": 4080,
    "ping</w>": 4081,
    "finish</w>": 4082,
    "trophy</w>": 4083,
    "minutes</w>": 4084,
    "tis</w>": 4085,
    "boston</w>": 4086,
    "tout</w>": 4087,
    "average</w>": 4088,
    "cks</w>": 4089,
    "willing</w>": 4090,
    "wai": 4091,
    "approa": 4092,
    "specul": 4093,
    "stating</w>": 4094,
    "nation": 4095,
    "calling</w>": 4096,
    "lom": 4097,
    "lombar": 4098,
    "di</w>": 4099,
    "onto</w>": 4100,
    "posted</w>": 4101,
    "stati": 4102,
    "wick</w>": 4103,
    "gregorian</w>": 4104,
    "ano</w>": 4105,
    "reform</w>": 4106,
    "exper": 4107,
    "centu": 4108,
    "centuries</w>": 4109,
    "vi</w>": 4110,
    "mented</w>": 4111,
    "norm": 4112,
    "transi": 4113,
    "jupit": 4114,
    "400</w>": 4115,
    "langu": 4116,
    "1889</w>": 4117,
    "ism": 4118,
    "notes</w>": 4119,
    "current</w>": 4120,
    "inspiration</w>": 4121,
    "cases</w>": 4122,
    "sound</w>": 4123,
    "davi": 4124,
    "david</w>": 4125,
    "ak</w>": 4126,
    "dai": 4127,
    "daily</w>": 4128,
    "newsp": 4129,
    "nebr": 4130,
    "nebraska</w>": 4131,
    "bridge": 4132,
    "creek</w>": 4133,
    "expressed</w>": 4134,
    "traf": 4135,
    "traffic</w>": 4136,
    "86</w>": 4137,
    "casem": 4138,
    "navi": 4139,
    "blockad": 4140,
    "aground</w>": 4141,
    "tons</w>": 4142,
    "engines</w>": 4143,
    "mph</w>": 4144,
    "gers</w>": 4145,
    "any": 4146,
    "mall": 4147,
    "mallory</w>": 4148,
    "secretary</w>": 4149,
    "every</w>": 4150,
    "ull</w>": 4151,
    "bow</w>": 4152,
    "equivalent</w>": 4153,
    "torpe": 4154,
    "significantly</w>": 4155,
    "tatt": 4156,
    "tattnall</w>": 4157,
    "tide</w>": 4158,
    "lack</w>": 4159,
    "broke</w>": 4160,
    "admir": 4161,
    "weehaw": 4162,
    "weehawken</w>": 4163,
    "frag": 4164,
    "bad": 4165,
    "lanka</w>": 4166,
    "degre": 4167,
    "degree</w>": 4168,
    "drama</w>": 4169,
    "thriller</w>": 4170,
    "box</w>": 4171,
    "films</w>": 4172,
    "roy</w>": 4173,
    "escape</w>": 4174,
    "movie</w>": 4175,
    "roman": 4176,
    "ane</w>": 4177,
    "khan</w>": 4178,
    "sha</w>": 4179,
    "ja</w>": 4180,
    "plays</w>": 4181,
    "seeing</w>": 4182,
    "entertainment</w>": 4183,
    "bin</w>": 4184,
    "party</w>": 4185,
    "animals</w>": 4186,
    "drawn</w>": 4187,
    "sanctu": 4188,
    "cele": 4189,
    "hart": 4190,
    "hartford</w>": 4191,
    "ihl</w>": 4192,
    "ene</w>": 4193,
    "declined</w>": 4194,
    "1991</w>": 4195,
    "stood</w>": 4196,
    "dreadnought</w>": 4197,
    "pola</w>": 4198,
    "assaul": 4199,
    "objects</w>": 4200,
    "distinguished</w>": 4201,
    "applied</w>": 4202,
    "mentioned</w>": 4203,
    "realm</w>": 4204,
    "maintained</w>": 4205,
    "dynastic</w>": 4206,
    "instance</w>": 4207,
    "frank": 4208,
    "step</w>": 4209,
    "greek</w>": 4210,
    "patron</w>": 4211,
    "trou": 4212,
    "promoted</w>": 4213,
    "cities</w>": 4214,
    "importance</w>": 4215,
    "epithe": 4216,
    "power": 4217,
    "powerful</w>": 4218,
    "circum": 4219,
    "manifestations</w>": 4220,
    "syncre": 4221,
    "tism</w>": 4222,
    "mono": 4223,
    "case</w>": 4224,
    "vere</w>": 4225,
    "fit</w>": 4226,
    "mummi": 4227,
    "interaction</w>": 4228,
    "statue</w>": 4229,
    "practices</w>": 4230,
    "banks</w>": 4231,
    "architecture</w>": 4232,
    "mandatory</w>": 4233,
    "adri": 4234,
    "hanneman</w>": 4235,
    "ocal": 4236,
    "ocalyp": 4237,
    "really</w>": 4238,
    "associated</w>": 4239,
    "microlights</w>": 4240,
    "licensing</w>": 4241,
    "microlight</w>": 4242,
    "survey</w>": 4243,
    "increase</w>": 4244,
    "ire": 4245,
    "experienced</w>": 4246,
    "radio</w>": 4247,
    "conditions</w>": 4248,
    "corresponding</w>": 4249,
    "primari": 4250,
    "primarily</w>": 4251,
    "wea": 4252,
    "prohib": 4253,
    "refused</w>": 4254,
    "ć</w>": 4255,
    "engraver</w>": 4256,
    "branch</w>": 4257,
    "wrea": 4258,
    "wreath</w>": 4259,
    "wit": 4260,
    "dahlon": 4261,
    "dahloneg": 4262,
    "dahlonega</w>": 4263,
    "petti": 4264,
    "pettit</w>": 4265,
    "resem": 4266,
    "epoxides</w>": 4267,
    "aziri": 4268,
    "discovered</w>": 4269,
    "alde": 4270,
    "aldehy": 4271,
    "oselective</w>": 4272,
    "ard": 4273,
    "methyl": 4274,
    "reversi": 4275,
    "reversibility</w>": 4276,
    "beta": 4277,
    "betaine</w>": 4278,
    "juárez</w>": 4279,
    "porfi": 4280,
    "porfiri": 4281,
    "barra</w>": 4282,
    "narrative</w>": 4283,
    "agustín</w>": 4284,
    "holds</w>": 4285,
    "fighters</w>": 4286,
    "globe</w>": 4287,
    "guild</w>": 4288,
    "44": 4289,
    "44b</w>": 4290,
    "maur": 4291,
    "maury": 4292,
    "konkan</w>": 4293,
    "shvara</w>": 4294,
    "holding</w>": 4295,
    "attendants</w>": 4296,
    "garud": 4297,
    "garuda</w>": 4298,
    "crescent</w>": 4299,
    "newsted</w>": 4300,
    "machine</w>": 4301,
    "japan</w>": 4302,
    "prede": 4303,
    "predecess": 4304,
    "pan</w>": 4305,
    "secret</w>": 4306,
    "imper": 4307,
    "portion</w>": 4308,
    "ita</w>": 4309,
    "shi</w>": 4310,
    "hand": 4311,
    "expanded</w>": 4312,
    "enemy</w>": 4313,
    "stories</w>": 4314,
    "maps</w>": 4315,
    "episodes</w>": 4316,
    "simul": 4317,
    "moves</w>": 4318,
    "distance</w>": 4319,
    "attacks</w>": 4320,
    "sters</w>": 4321,
    "special</w>": 4322,
    "shift</w>": 4323,
    "weapon</w>": 4324,
    "classes</w>": 4325,
    "experience</w>": 4326,
    "erous</w>": 4327,
    "reven": 4328,
    "fight</w>": 4329,
    "myster": 4330,
    "concept</w>": 4331,
    "deni": 4332,
    "orders</w>": 4333,
    "2n": 4334,
    "2nd</w>": 4335,
    "aband": 4336,
    "atta": 4337,
    "attached</w>": 4338,
    "commanding</w>": 4339,
    "losses</w>": 4340,
    "lived</w>": 4341,
    "look</w>": 4342,
    "fine</w>": 4343,
    "ics</w>": 4344,
    "shou": 4345,
    "incorporated</w>": 4346,
    "designs</w>": 4347,
    "color</w>": 4348,
    "expected</w>": 4349,
    "rejec": 4350,
    "asse": 4351,
    "sized</w>": 4352,
    "kim": 4353,
    "responsi": 4354,
    "responsibility</w>": 4355,
    "featuring</w>": 4356,
    "pack": 4357,
    "chosen</w>": 4358,
    "reception</w>": 4359,
    "charts</w>": 4360,
    "10": 4361,
    "enjo": 4362,
    "yc": 4363,
    "na": 4364,
    "test</w>": 4365,
    "richard</w>": 4366,
    "ocity</w>": 4367,
    "extended</w>": 4368,
    "summer</w>": 4369,
    "dv": 4370,
    "purchase</w>": 4371,
    "vals</w>": 4372,
    "directed</w>": 4373,
    "gi</w>": 4374,
    "extensive</w>": 4375,
    "cles</w>": 4376,
    "illustrated</w>": 4377,
    "fate</w>": 4378,
    "headquarters</w>": 4379,
    "com</w>": 4380,
    "cei": 4381,
    "91</w>": 4382,
    "company</w>": 4383,
    "ll": 4384,
    "mine</w>": 4385,
    "henry</w>": 4386,
    "connection</w>": 4387,
    "wide": 4388,
    "widely</w>": 4389,
    "spread</w>": 4390,
    "recalled</w>": 4391,
    "interpreted</w>": 4392,
    "demand</w>": 4393,
    "pted</w>": 4394,
    "muni": 4395,
    "authorized</w>": 4396,
    "exec": 4397,
    "your</w>": 4398,
    "delivery</w>": 4399,
    "4th</w>": 4400,
    "abrah": 4401,
    "abraham</w>": 4402,
    "withdra": 4403,
    "property</w>": 4404,
    "placing</w>": 4405,
    "ayed</w>": 4406,
    "substan": 4407,
    "airs</w>": 4408,
    "cartri": 4409,
    "m18": 4410,
    "smoo": 4411,
    "64</w>": 4412,
    "5th</w>": 4413,
    "regim": 4414,
    "prising</w>": 4415,
    "completely</w>": 4416,
    "machin": 4417,
    "machinery</w>": 4418,
    "apo": 4419,
    "successfully</w>": 4420,
    "operated</w>": 4421,
    "valuable</w>": 4422,
    "thered</w>": 4423,
    "piec": 4424,
    "procured</w>": 4425,
    "prepared</w>": 4426,
    "fit": 4427,
    "establishment</w>": 4428,
    "train</w>": 4429,
    "painted</w>": 4430,
    "broo": 4431,
    "renamed</w>": 4432,
    "barr": 4433,
    "station": 4434,
    "rail": 4435,
    "word</w>": 4436,
    "oned</w>": 4437,
    "exclusively</w>": 4438,
    "meet</w>": 4439,
    "veter": 4440,
    "fo": 4441,
    "admini": 4442,
    "stration</w>": 4443,
    "arts</w>": 4444,
    "land": 4445,
    "decades</w>": 4446,
    "hymns</w>": 4447,
    "wind": 4448,
    "window</w>": 4449,
    "lake</w>": 4450,
    "rapha": 4451,
    "biography</w>": 4452,
    "daughter</w>": 4453,
    "elder</w>": 4454,
    "evening</w>": 4455,
    "literature</w>": 4456,
    "releases</w>": 4457,
    "public": 4458,
    "alties</w>": 4459,
    "qui": 4460,
    "pillars</w>": 4461,
    "atmosp": 4462,
    "provide</w>": 4463,
    "recommended</w>": 4464,
    "unable</w>": 4465,
    "tent</w>": 4466,
    "restor": 4467,
    "friend</w>": 4468,
    "favorite</w>": 4469,
    "techn": 4470,
    "analy": 4471,
    "round": 4472,
    "christ": 4473,
    "produces</w>": 4474,
    "bap": 4475,
    "bapti": 4476,
    "mon</w>": 4477,
    "thoughts</w>": 4478,
    "seasons</w>": 4479,
    "ques": 4480,
    "med": 4481,
    "match</w>": 4482,
    "faces</w>": 4483,
    "world": 4484,
    "worldwide</w>": 4485,
    "championship</w>": 4486,
    "jan</w>": 4487,
    "founded</w>": 4488,
    "brown</w>": 4489,
    "allow</w>": 4490,
    "tail</w>": 4491,
    "thor": 4492,
    "lesser</w>": 4493,
    "females</w>": 4494,
    "description</w>": 4495,
    "1987</w>": 4496,
    "latin</w>": 4497,
    "basis</w>": 4498,
    "nucle": 4499,
    "lik": 4500,
    "likely</w>": 4501,
    "pin": 4502,
    "inhab": 4503,
    "ental</w>": 4504,
    "ine": 4505,
    "62</w>": 4506,
    "substrate</w>": 4507,
    "compared</w>": 4508,
    "tap": 4509,
    "caused</w>": 4510,
    "rate</w>": 4511,
    "scott</w>": 4512,
    "richards</w>": 4513,
    "seconds</w>": 4514,
    "changed</w>": 4515,
    "moving</w>": 4516,
    "seman</w>": 4517,
    "wa</w>": 4518,
    "sign</w>": 4519,
    "injured</w>": 4520,
    "chal": 4521,
    "mom": 4522,
    "coa": 4523,
    "hit</w>": 4524,
    "vancou": 4525,
    "vancouver</w>": 4526,
    "better</w>": 4527,
    "deadline</w>": 4528,
    "sitting</w>": 4529,
    "interim</w>": 4530,
    "letter</w>": 4531,
    "rect</w>": 4532,
    "mal": 4533,
    "tal": 4534,
    "sam": 4535,
    "elimin": 4536,
    "kill</w>": 4537,
    "fting</w>": 4538,
    "results</w>": 4539,
    "listing</w>": 4540,
    "awn</w>": 4541,
    "hunwick</w>": 4542,
    "worn</w>": 4543,
    "departed</w>": 4544,
    "xiii</w>": 4545,
    "gated</w>": 4546,
    "astronomical</w>": 4547,
    "sundial</w>": 4548,
    "juli": 4549,
    "stic": 4550,
    "greatest</w>": 4551,
    "courty": 4552,
    "fall": 4553,
    "meri": 4554,
    "circular</w>": 4555,
    "mete": 4556,
    "meteor": 4557,
    "strat": 4558,
    "strateg": 4559,
    "locations</w>": 4560,
    "language</w>": 4561,
    "twice</w>": 4562,
    "preserved</w>": 4563,
    "decision</w>": 4564,
    "urban</w>": 4565,
    "pau": 4566,
    "paul</w>": 4567,
    "li</w>": 4568,
    "catho": 4569,
    "strength</w>": 4570,
    "hills</w>": 4571,
    "panthe": 4572,
    "michael</w>": 4573,
    "oler": 4574,
    "twenty</w>": 4575,
    "gan": 4576,
    "wy": 4577,
    "bridgeport</w>": 4578,
    "intersec": 4579,
    "92</w>": 4580,
    "farm": 4581,
    "annual</w>": 4582,
    "passengers</w>": 4583,
    "slowly</w>": 4584,
    "anchor</w>": 4585,
    "charg": 4586,
    "channel</w>": 4587,
    "brothers</w>": 4588,
    "inner</w>": 4589,
    "pounds</w>": 4590,
    "800</w>": 4591,
    "torpedo</w>": 4592,
    "reduced</w>": 4593,
    "commented</w>": 4594,
    "webb</w>": 4595,
    "70</w>": 4596,
    "pene": 4597,
    "fragments</w>": 4598,
    "easi": 4599,
    "syd": 4600,
    "sydney</w>": 4601,
    "model</w>": 4602,
    "miss</w>": 4603,
    "communication</w>": 4604,
    "if": 4605,
    "princess</w>": 4606,
    "fiction</w>": 4607,
    "gets</w>": 4608,
    "appear</w>": 4609,
    "eget": 4610,
    "satur": 4611,
    "saturday</w>": 4612,
    "consul": 4613,
    "ceremon": 4614,
    "spo": 4615,
    "desi": 4616,
    "sab": 4617,
    "diag": 4618,
    "diagno": 4619,
    "dealership</w>": 4620,
    "neck</w>": 4621,
    "minim": 4622,
    "mario</w>": 4623,
    "concerned</w>": 4624,
    "concerns</w>": 4625,
    "1993</w>": 4626,
    "ac</w>": 4627,
    "contact</w>": 4628,
    "99</w>": 4629,
    "austria</w>": 4630,
    "1999</w>": 4631,
    "saying</w>": 4632,
    "progra": 4633,
    "program</w>": 4634,
    "advanced</w>": 4635,
    "covered</w>": 4636,
    "1910</w>": 4637,
    "outbreak</w>": 4638,
    "lighter</w>": 4639,
    "worshipped</w>": 4640,
    "phen": 4641,
    "phenom": 4642,
    "phenomena</w>": 4643,
    "writings</w>": 4644,
    "reasons</w>": 4645,
    "estimates</w>": 4646,
    "nṯ": 4647,
    "birth</w>": 4648,
    "personified</w>": 4649,
    "whether</w>": 4650,
    "icon": 4651,
    "ographi": 4652,
    "sieg": 4653,
    "strong": 4654,
    "regions</w>": 4655,
    "culture</w>": 4656,
    "pharaohs</w>": 4657,
    "eration</w>": 4658,
    "adopted</w>": 4659,
    "cults</w>": 4660,
    "priests</w>": 4661,
    "elite</w>": 4662,
    "living</w>": 4663,
    "atum</w>": 4664,
    "khe": 4665,
    "ambi": 4666,
    "cosmos</w>": 4667,
    "nis": 4668,
    "suggest</w>": 4669,
    "duat</w>": 4670,
    "funerary</w>": 4671,
    "thr": 4672,
    "surrec": 4673,
    "establish</w>": 4674,
    "meant</w>": 4675,
    "theism</w>": 4676,
    "monuments</w>": 4677,
    "existing</w>": 4678,
    "views</w>": 4679,
    "reader</w>": 4680,
    "recognized</w>": 4681,
    "oring</w>": 4682,
    "headed</w>": 4683,
    "intermediate</w>": 4684,
    "similarly</w>": 4685,
    "styles</w>": 4686,
    "unusu": 4687,
    "unusual</w>": 4688,
    "festival</w>": 4689,
    "cessions</w>": 4690,
    "rebellion</w>": 4691,
    "producer</w>": 4692,
    "rubin</w>": 4693,
    "lombardo</w>": 4694,
    "das</w>": 4695,
    "heavily</w>": 4696,
    "omer</w>": 4697,
    "tribu": 4698,
    "2000</w>": 4699,
    "drums</w>": 4700,
    "remun": 4701,
    "piston</w>": 4702,
    "35</w>": 4703,
    "flown</w>": 4704,
    "strips</w>": 4705,
    "regulated</w>": 4706,
    "regulatory</w>": 4707,
    "environmental</w>": 4708,
    "sched": 4709,
    "schedul": 4710,
    "moth</w>": 4711,
    "1972</w>": 4712,
    "hang</w>": 4713,
    "fall</w>": 4714,
    "severe</w>": 4715,
    "fore": 4716,
    "restrictions</w>": 4717,
    "ham": 4718,
    "require": 4719,
    "decline</w>": 4720,
    "legislation</w>": 4721,
    "typically</w>": 4722,
    "expensive</w>": 4723,
    "consider": 4724,
    "hot</w>": 4725,
    "marine</w>": 4726,
    "90</w>": 4727,
    "inet</w>": 4728,
    "monten": 4729,
    "monteneg": 4730,
    "opposed</w>": 4731,
    "yu": 4732,
    "yugo": 4733,
    "yugosl": 4734,
    "burned</w>": 4735,
    "trophic</w>": 4736,
    "organic</w>": 4737,
    "sligh": 4738,
    "slightly</w>": 4739,
    "commerce</w>": 4740,
    "circulate</w>": 4741,
    "facing</w>": 4742,
    "weekly</w>": 4743,
    "q</w>": 4744,
    "proof</w>": 4745,
    "1854</w>": 4746,
    "flow</w>": 4747,
    "bling</w>": 4748,
    "display</w>": 4749,
    "produce</w>": 4750,
    "ornam": 4751,
    "aziridin": 4752,
    "aziridines</w>": 4753,
    "stere": 4754,
    "serves</w>": 4755,
    "enantioselective</w>": 4756,
    "substituted</w>": 4757,
    "alky": 4758,
    "sulfi": 4759,
    "presiden": 4760,
    "é</w>": 4761,
    "liman": 4762,
    "limantour</w>": 4763,
    "pris": 4764,
    "agr": 4765,
    "agrarian</w>": 4766,
    "morel": 4767,
    "morelos</w>": 4768,
    "añ": 4769,
    "añol</w>": 4770,
    "vo</w>": 4771,
    "recoun": 4772,
    "corruption</w>": 4773,
    "remember": 4774,
    "entary</w>": 4775,
    "aging</w>": 4776,
    "storyline</w>": 4777,
    "torture</w>": 4778,
    "ant": 4779,
    "turk</w>": 4780,
    "histori": 4781,
    "historians</w>": 4782,
    "1931</w>": 4783,
    "1945</w>": 4784,
    "koo": 4785,
    "kook": 4786,
    "kookab": 4787,
    "kookabur": 4788,
    "kookaburra</w>": 4789,
    "impression</w>": 4790,
    "sketch</w>": 4791,
    "sarah</w>": 4792,
    "broadway</w>": 4793,
    "amy</w>": 4794,
    "humor</w>": 4795,
    "ceremony</w>": 4796,
    "michaels</w>": 4797,
    "explained</w>": 4798,
    "trade": 4799,
    "trademark</w>": 4800,
    "deprecating</w>": 4801,
    "ghar": 4802,
    "gharapu": 4803,
    "gharapuri</w>": 4804,
    "budd": 4805,
    "sculptures</w>": 4806,
    "unes": 4807,
    "unesco</w>": 4808,
    "stup": 4809,
    "stupa</w>": 4810,
    "mauryas</w>": 4811,
    "gang": 4812,
    "andh": 4813,
    "andhak": 4814,
    "attendant</w>": 4815,
    "keepers</w>": 4816,
    "infin": 4817,
    "infinity</w>": 4818,
    "mates</w>": 4819,
    "biome": 4820,
    "biomech</w>": 4821,
    "1806</w>": 4822,
    "rainf": 4823,
    "rainfall</w>": 4824,
    "senj": 4825,
    "senjō</w>": 4826,
    "commonly</w>": 4827,
    "sega</w>": 4828,
    "employing</w>": 4829,
    "imperial</w>": 4830,
    "raven</w>": 4831,
    "carrying</w>": 4832,
    "retained</w>": 4833,
    "compos": 4834,
    "saki": 4835,
    "sakimo": 4836,
    "sakimoto</w>": 4837,
    "load": 4838,
    "content</w>": 4839,
    "transl": 4840,
    "comic</w>": 4841,
    "panels</w>": 4842,
    "animated</w>": 4843,
    "speaking</w>": 4844,
    "partially</w>": 4845,
    "bles</w>": 4846,
    "locked</w>": 4847,
    "camp</w>": 4848,
    "cust": 4849,
    "relating</w>": 4850,
    "directly</w>": 4851,
    "perspective</w>": 4852,
    "granted</w>": 4853,
    "call</w>": 4854,
    "health</w>": 4855,
    "other": 4856,
    "otherwise</w>": 4857,
    "gri": 4858,
    "emporary</w>": 4859,
    "kur": 4860,
    "kurt</w>": 4861,
    "engine": 4862,
    "greatly</w>": 4863,
    "distributed</w>": 4864,
    "method</w>": 4865,
    "deser": 4866,
    "dang": 4867,
    "militia</w>": 4868,
    "never": 4869,
    "nevertheless</w>": 4870,
    "accused</w>": 4871,
    "mysterious</w>": 4872,
    "calamity</w>": 4873,
    "exist</w>": 4874,
    "chel": 4875,
    "protect</w>": 4876,
    "keep</w>": 4877,
    "sey</w>": 4878,
    "bene": 4879,
    "none</w>": 4880,
    "confron": 4881,
    "revolutionary</w>": 4882,
    "sequel</w>": 4883,
    "plat": 4884,
    "platform</w>": 4885,
    "uki</w>": 4886,
    "ko</w>": 4887,
    "improv": 4888,
    "improvements</w>": 4889,
    "gon</w>": 4890,
    "achi": 4891,
    "eve</w>": 4892,
    "removed</w>": 4893,
    "appeal</w>": 4894,
    "syst": 4895,
    "create</w>": 4896,
    "maintaining</w>": 4897,
    "heard</w>": 4898,
    "chestra</w>": 4899,
    "arran": 4900,
    "singer</w>": 4901,
    "ib": 4902,
    "alists</w>": 4903,
    "promote</w>": 4904,
    "visu": 4905,
    "extra</w>": 4906,
    "versions</w>": 4907,
    "arity</w>": 4908,
    "load</w>": 4909,
    "feeling</w>": 4910,
    "closure</w>": 4911,
    "hind": 4912,
    "hindman</w>": 4913,
    "scene</w>": 4914,
    "ry": 4915,
    "improved</w>": 4916,
    "length</w>": 4917,
    "dvd</w>": 4918,
    "insp": 4919,
    "inspired</w>": 4920,
    "bin": 4921,
    "consequ": 4922,
    "happened</w>": 4923,
    "adaptation</w>": 4924,
    "artists</w>": 4925,
    "umes</w>": 4926,
    "supre": 4927,
    "supreme</w>": 4928,
    "camden</w>": 4929,
    "appropri": 4930,
    "foot</w>": 4931,
    "ette</w>": 4932,
    "spl": 4933,
    "1860</w>": 4934,
    "consider</w>": 4935,
    "wait</w>": 4936,
    "rector</w>": 4937,
    "teleg": 4938,
    "reinfor": 4939,
    "mess": 4940,
    "confir": 4941,
    "med</w>": 4942,
    "smith</w>": 4943,
    "exp": 4944,
    "deemed</w>": 4945,
    "denied</w>": 4946,
    "munitions</w>": 4947,
    "aspect</w>": 4948,
    "execu": 4949,
    "instruc": 4950,
    "superi": 4951,
    "direction</w>": 4952,
    "fab": 4953,
    "fabric": 4954,
    "nor</w>": 4955,
    "cartridges</w>": 4956,
    "fell</w>": 4957,
    "efforts</w>": 4958,
    "inside</w>": 4959,
    "musk": 4960,
    "69</w>": 4961,
    "flintlock</w>": 4962,
    "rifle</w>": 4963,
    "54</w>": 4964,
    "7th</w>": 4965,
    "8th</w>": 4966,
    "mounted</w>": 4967,
    "thom": 4968,
    "arka": 4969,
    "arkadelphia</w>": 4970,
    "armam": 4971,
    "quanti": 4972,
    "spirits</w>": 4973,
    "75</w>": 4974,
    "sort</w>": 4975,
    "neither</w>": 4976,
    "ficient</w>": 4977,
    "inity</w>": 4978,
    "obtained</w>": 4979,
    "row": 4980,
    "49</w>": 4981,
    "zes</w>": 4982,
    "predomin": 4983,
    "sixth</w>": 4984,
    "1864</w>": 4985,
    "jose": 4986,
    "joseph</w>": 4987,
    "barracks</w>": 4988,
    "famili": 4989,
    "north": 4990,
    "stationed</w>": 4991,
    "favor</w>": 4992,
    "wash": 4993,
    "²</w>": 4994,
    "big</w>": 4995,
    "roots</w>": 4996,
    "lished</w>": 4997,
    "organizations</w>": 4998,
    "fair</w>": 4999,
    "occupi": 5000,
    "occupied</w>": 5001,
    "20th</w>": 5002,
    "longer</w>": 5003,
    "progress</w>": 5004,
    "decommissioned</w>": 5005,
    "mark": 5006,
    "commem": 5007,
    "commemor": 5008,
    "earliest</w>": 5009,
    "pitlake</w>": 5010,
    "water": 5011,
    "greenaway</w>": 5012,
    "wasn</w>": 5013,
    "part": 5014,
    "artist</w>": 5015,
    "belonged</w>": 5016,
    "1919</w>": 5017,
    "entered</w>": 5018,
    "sons</w>": 5019,
    "bought</w>": 5020,
    "ser</w>": 5021,
    "free": 5022,
    "promi": 5023,
    "promise</w>": 5024,
    "paintings</w>": 5025,
    "author</w>": 5026,
    "ght": 5027,
    "rose</w>": 5028,
    "trun": 5029,
    "receiving</w>": 5030,
    "heart</w>": 5031,
    "devolved</w>": 5032,
    "edi": 5033,
    "resi": 5034,
    "hosp": 5035,
    "ashes</w>": 5036,
    "acquired</w>": 5037,
    "tried</w>": 5038,
    "fon": 5039,
    "jones</w>": 5040,
    "covers</w>": 5041,
    "rhymes</w>": 5042,
    "1938</w>": 5043,
    "bank</w>": 5044,
    "ground": 5045,
    "tells</w>": 5046,
    "suggests</w>": 5047,
    "sian</w>": 5048,
    "consci": 5049,
    "simon</w>": 5050,
    "guardian</w>": 5051,
    "1933</w>": 5052,
    "thousand</w>": 5053,
    "1948</w>": 5054,
    "installed</w>": 5055,
    "bet</w>": 5056,
    "polis</w>": 5057,
    "bann": 5058,
    "banner</w>": 5059,
    "rica</w>": 5060,
    "sia</w>": 5061,
    "dedicated</w>": 5062,
    "sting": 5063,
    "genus</w>": 5064,
    "caught</w>": 5065,
    "bottom</w>": 5066,
    "distribution</w>": 5067,
    "victoria</w>": 5068,
    "atus</w>": 5069,
    "lii</w>": 5070,
    "gene": 5071,
    "individuals</w>": 5072,
    "population</w>": 5073,
    "coast": 5074,
    "broad</w>": 5075,
    "ap</w>": 5076,
    "ki": 5077,
    "islands</w>": 5078,
    "consists</w>": 5079,
    "rays</w>": 5080,
    "jon": 5081,
    "sustained</w>": 5082,
    "measure</w>": 5083,
    "gear</w>": 5084,
    "tery</w>": 5085,
    "assistant</w>": 5086,
    "todd</w>": 5087,
    "eigh": 5088,
    "nego": 5089,
    "negoti": 5090,
    "wisni": 5091,
    "wisniew": 5092,
    "wisniewski</w>": 5093,
    "canadi": 5094,
    "defenseman</w>": 5095,
    "33</w>": 5096,
    "curtis</w>": 5097,
    "string</w>": 5098,
    "ring": 5099,
    "entering</w>": 5100,
    "struggle</w>": 5101,
    "ssel": 5102,
    "blues</w>": 5103,
    "suffer": 5104,
    "suffering</w>": 5105,
    "attributed</w>": 5106,
    "sports</w>": 5107,
    "happ": 5108,
    "speculation</w>": 5109,
    "phoen": 5110,
    "phoeni": 5111,
    "phoenix</w>": 5112,
    "coyo": 5113,
    "coyotes</w>": 5114,
    "understanding</w>": 5115,
    "dged</w>": 5116,
    "stopped</w>": 5117,
    "toronto</w>": 5118,
    "propos": 5119,
    "combination</w>": 5120,
    "immedi": 5121,
    "immediately</w>": 5122,
    "eliminated</w>": 5123,
    "mike</w>": 5124,
    "wei": 5125,
    "weigh": 5126,
    "confer": 5127,
    "conference</w>": 5128,
    "ille</w>": 5129,
    "statis": 5130,
    "statistics</w>": 5131,
    "plus</w>": 5132,
    "+</w>": 5133,
    "joining</w>": 5134,
    "mid</w>": 5135,
    "commo": 5136,
    "rade": 5137,
    "tt</w>": 5138,
    "calend": 5139,
    "calendar</w>": 5140,
    "promul": 5141,
    "82</w>": 5142,
    "progressive</w>": 5143,
    "fice</w>": 5144,
    "ut</w>": 5145,
    "72</w>": 5146,
    "christop": 5147,
    "240</w>": 5148,
    "mentation</w>": 5149,
    "centre</w>": 5150,
    "gy": 5151,
    "ada</w>": 5152,
    "meteorological</w>": 5153,
    "jupiter</w>": 5154,
    "dom": 5155,
    "strategic</w>": 5156,
    "atorial</w>": 5157,
    "border</w>": 5158,
    "diame": 5159,
    "diameter</w>": 5160,
    "bear</w>": 5161,
    "ologist</w>": 5162,
    "bridge</w>": 5163,
    "aca": 5164,
    "academ": 5165,
    "fted</w>": 5166,
    "enclosed</w>": 5167,
    "matt": 5168,
    "sophi": 5169,
    "running</w>": 5170,
    "mechanism</w>": 5171,
    "wind</w>": 5172,
    "pop</w>": 5173,
    "nered</w>": 5174,
    "boards</w>": 5175,
    "rich</w>": 5176,
    "jam": 5177,
    "mix": 5178,
    "begins</w>": 5179,
    "ldn</w>": 5180,
    "accept</w>": 5181,
    "aware</w>": 5182,
    "mes": 5183,
    "bill": 5184,
    "billboard</w>": 5185,
    "rical</w>": 5186,
    "wooden</w>": 5187,
    "hang": 5188,
    "crow": 5189,
    "alternative</w>": 5190,
    "northe": 5191,
    "northeast</w>": 5192,
    "32</w>": 5193,
    "toward</w>": 5194,
    "nd": 5195,
    "identified</w>": 5196,
    "legal</w>": 5197,
    "gn": 5198,
    "casemate</w>": 5199,
    "py": 5200,
    "700</w>": 5201,
    "knots</w>": 5202,
    "britain</w>": 5203,
    "supplies</w>": 5204,
    "41</w>": 5205,
    "59</w>": 5206,
    "amid": 5207,
    "bol": 5208,
    "110</w>": 5209,
    "shells</w>": 5210,
    "soli": 5211,
    "pole</w>": 5212,
    "!</w>": 5213,
    "charle": 5214,
    "charleston</w>": 5215,
    "demonstrated</w>": 5216,
    "admiral</w>": 5217,
    "nah": 5218,
    "nahant</w>": 5219,
    "landed</w>": 5220,
    "penetr": 5221,
    "gren</w>": 5222,
    "badly</w>": 5223,
    "150</w>": 5224,
    "atives</w>": 5225,
    "law": 5226,
    "syl": 5227,
    "sylv": 5228,
    "vani": 5229,
    "apparently</w>": 5230,
    "cape</w>": 5231,
    "jacqu": 5232,
    "jacqueline</w>": 5233,
    "page": 5234,
    "pageant</w>": 5235,
    "amor": 5236,
    "housefull</w>": 5237,
    "nomination</w>": 5238,
    "kick</w>": 5239,
    "bollywood</w>": 5240,
    "screen</w>": 5241,
    "grand": 5242,
    "fren": 5243,
    "french</w>": 5244,
    "theat": 5245,
    "interest</w>": 5246,
    "romantic</w>": 5247,
    "violent</w>": 5248,
    "balloon</w>": 5249,
    "billion</w>": 5250,
    "negative</w>": 5251,
    "pleas": 5252,
    "esha</w>": 5253,
    "ze": 5254,
    "promis": 5255,
    "tiger</w>": 5256,
    "mits</w>": 5257,
    "responsible</w>": 5258,
    "wed": 5259,
    "tual</w>": 5260,
    "advoc": 5261,
    "protection</w>": 5262,
    "fashi": 5263,
    "clim": 5264,
    "accord": 5265,
    "accordingly</w>": 5266,
    "seventh</w>": 5267,
    "whal": 5268,
    "whalers</w>": 5269,
    "sabres</w>": 5270,
    "comeback</w>": 5271,
    "master": 5272,
    "car</w>": 5273,
    "brian</w>": 5274,
    "gat": 5275,
    "appearing</w>": 5276,
    "94</w>": 5277,
    "1992</w>": 5278,
    "cells</w>": 5279,
    "spend</w>": 5280,
    "battleship</w>": 5281,
    "til": 5282,
    "cruisers</w>": 5283,
    "catt": 5284,
    "otran": 5285,
    "otranto</w>": 5286,
    "ist": 5287,
    "án</w>": 5288,
    "meter</w>": 5289,
    "twin</w>": 5290,
    "center": 5291,
    "velocity</w>": 5292,
    "ital": 5293,
    "italy</w>": 5294,
    "assault</w>": 5295,
    "raid</w>": 5296,
    "pharaoh</w>": 5297,
    "allu": 5298,
    "symboli": 5299,
    "solar</w>": 5300,
    "egypt": 5301,
    "traits</w>": 5302,
    "remin": 5303,
    "cob": 5304,
    "cobra</w>": 5305,
    "reflecting</w>": 5306,
    "depict</w>": 5307,
    "concep": 5308,
    "concepts</w>": 5309,
    "ritual</w>": 5310,
    "devotion</w>": 5311,
    "predynastic</w>": 5312,
    "resemble</w>": 5313,
    "anthro": 5314,
    "envi": 5315,
    "environment</w>": 5316,
    "strongly</w>": 5317,
    "towns</w>": 5318,
    "pantheon</w>": 5319,
    "communities</w>": 5320,
    "ordin": 5321,
    "dea": 5322,
    "deaths</w>": 5323,
    "traditions</w>": 5324,
    "nile</w>": 5325,
    "ferti": 5326,
    "omnis": 5327,
    "scap": 5328,
    "behavior</w>": 5329,
    "contain</w>": 5330,
    "feel</w>": 5331,
    "aggressive</w>": 5332,
    "linked</w>": 5333,
    "55</w>": 5334,
    "keeping</w>": 5335,
    "know</w>": 5336,
    "tit": 5337,
    "circumstan": 5338,
    "circumstances</w>": 5339,
    "enne": 5340,
    "older</w>": 5341,
    "frequ": 5342,
    "rise</w>": 5343,
    "cloth": 5344,
    "practi": 5345,
    "practice</w>": 5346,
    "ackn": 5347,
    "nun": 5348,
    "allows</w>": 5349,
    "equated</w>": 5350,
    "counter</w>": 5351,
    "heads</w>": 5352,
    "headdress</w>": 5353,
    "yel": 5354,
    "ruled</w>": 5355,
    "agree</w>": 5356,
    "processions</w>": 5357,
    "intervention</w>": 5358,
    "lot</w>": 5359,
    "decisions</w>": 5360,
    "puni": 5361,
    "rescue</w>": 5362,
    "benef": 5363,
    "benefit</w>": 5364,
    "evol": 5365,
    "information</w>": 5366,
    "performer</w>": 5367,
    "meanwhile</w>": 5368,
    "emper": 5369,
    "thrash</w>": 5370,
    "reviewer</w>": 5371,
    "drum": 5372,
    "think</w>": 5373,
    "sound": 5374,
    "soundtrack</w>": 5375,
    "apocalyp": 5376,
    "tz": 5377,
    "oid</w>": 5378,
    "sacri": 5379,
    "kind</w>": 5380,
    "tribute</w>": 5381,
    "crown</w>": 5382,
    "follow</w>": 5383,
    "decade</w>": 5384,
    "wants</w>": 5385,
    "jets</w>": 5386,
    "racing</w>": 5387,
    "aerob": 5388,
    "annually</w>": 5389,
    "helicopters</w>": 5390,
    "spectru": 5391,
    "spectrum</w>": 5392,
    "mit</w>": 5393,
    "cil</w>": 5394,
    "scheduled</w>": 5395,
    "duction</w>": 5396,
    "dh</w>": 5397,
    "cessna</w>": 5398,
    "resulting</w>": 5399,
    "airline</w>": 5400,
    "rely</w>": 5401,
    "claim</w>": 5402,
    "factory</w>": 5403,
    "recent</w>": 5404,
    "normally</w>": 5405,
    "france</w>": 5406,
    "powered</w>": 5407,
    "wider</w>": 5408,
    "gas": 5409,
    "gasar</w>": 5410,
    "joint</w>": 5411,
    "requirements</w>": 5412,
    "prised</w>": 5413,
    "ghly</w>": 5414,
    "segment</w>": 5415,
    "fram": 5416,
    "ppl</w>": 5417,
    "absen": 5418,
    "absence</w>": 5419,
    "acci": 5420,
    "opini": 5421,
    "compl": 5422,
    "cht": 5423,
    "stabili": 5424,
    "hungary</w>": 5425,
    "accompani": 5426,
    "accompanied</w>": 5427,
    "destruction</w>": 5428,
    "collap": 5429,
    "avia</w>": 5430,
    "ala": 5431,
    "simultan": 5432,
    "simultane": 5433,
    "dwar": 5434,
    "spores</w>": 5435,
    "ange</w>": 5436,
    "oxi": 5437,
    "circulated</w>": 5438,
    "jewelry</w>": 5439,
    "pieces</w>": 5440,
    "strike</w>": 5441,
    "persu": 5442,
    "gobre": 5443,
    "gobrech": 5444,
    "gobrecht</w>": 5445,
    "circle</w>": 5446,
    "newspaper</w>": 5447,
    "renewed</w>": 5448,
    "successor</w>": 5449,
    "attacked</w>": 5450,
    "reverse</w>": 5451,
    "charlot": 5452,
    "charlotte</w>": 5453,
    "numism": 5454,
    "candi": 5455,
    "candidate</w>": 5456,
    "dia": 5457,
    "diastere": 5458,
    "nucleophi": 5459,
    "stability</w>": 5460,
    "carbon</w>": 5461,
    "sulfox": 5462,
    "sulfoxonium</w>": 5463,
    "prohibi": 5464,
    "yiel": 5465,
    "eric</w>": 5466,
    "ometric</w>": 5467,
    "catalytic</w>": 5468,
    "tuning</w>": 5469,
    "mexican</w>": 5470,
    "ón</w>": 5471,
    "presidential</w>": 5472,
    "elections</w>": 5473,
    "ía</w>": 5474,
    "tioni": 5475,
    "escaped</w>": 5476,
    "í</w>": 5477,
    "near": 5478,
    "minister</w>": 5479,
    "cabinet</w>": 5480,
    "estañol</w>": 5481,
    "declared</w>": 5482,
    "recon": 5483,
    "generation</w>": 5484,
    "storylines</w>": 5485,
    "wards</w>": 5486,
    "kal": 5487,
    "documentary</w>": 5488,
    "sexu": 5489,
    "triana</w>": 5490,
    "1930</w>": 5491,
    "corps</w>": 5492,
    "grace</w>": 5493,
    "balagu": 5494,
    "balaguer</w>": 5495,
    "loyal</w>": 5496,
    "antoni": 5497,
    "antonio</w>": 5498,
    "catholic</w>": 5499,
    "rice</w>": 5500,
    "laver": 5501,
    "laverton</w>": 5502,
    "crash</w>": 5503,
    "tenn": 5504,
    "tina</w>": 5505,
    "baby</w>": 5506,
    "mama</w>": 5507,
    "ind</w>": 5508,
    "actors</w>": 5509,
    "nominated</w>": 5510,
    "dratch</w>": 5511,
    "category</w>": 5512,
    "oted</w>": 5513,
    "metalli": 5514,
    "buddhi": 5515,
    "buddhist</w>": 5516,
    "archae": 5517,
    "archaeological</w>": 5518,
    "bunder</w>": 5519,
    "sq</w>": 5520,
    "excav": 5521,
    "chalu": 5522,
    "chaluky": 5523,
    "brah": 5524,
    "brahma</w>": 5525,
    "chambers</w>": 5526,
    "carv": 5527,
    "carvings</w>": 5528,
    "dra</w>": 5529,
    "yog": 5530,
    "waist</w>": 5531,
    "draped</w>": 5532,
    "ambient</w>": 5533,
    "lineup</w>": 5534,
    "noi": 5535,
    "band": 5536,
    "bandmates</w>": 5537,
    "cist</w>": 5538,
    "alien</w>": 5539,
    "casu": 5540,
    "casualties</w>": 5541,
    "ghost</w>": 5542,
    "reconstruction</w>": 5543,
    "jews</w>": 5544,
    "demolition</w>": 5545,
    "illance</w>": 5546,
    "戦場": 5547,
    "戦場の": 5548,
    "戦場のヴ": 5549,
    "戦場のヴァ": 5550,
    "戦場のヴァル": 5551,
    "戦場のヴァルキ": 5552,
    "戦場のヴァルキュ": 5553,
    "戦場のヴァルキュリ": 5554,
    "戦場のヴァルキュリア": 5555,
    "portable</w>": 5556,
    "predecessors</w>": 5557,
    "follows</w>": 5558,
    "tries</w>": 5559,
    "writers</w>": 5560,
    "script</w>": 5561,
    "sung</w>": 5562,
    "sales</w>": 5563,
    "compati": 5564,
    "compatible</w>": 5565,
    "voic": 5566,
    "text</w>": 5567,
    "map</w>": 5568,
    "varies</w>": 5569,
    "litz</w>": 5570,
    "gau": 5571,
    "potential</w>": 5572,
    "inn": 5573,
    "altered</w>": 5574,
    "unless</w>": 5575,
    "grown</w>": 5576,
    "acquire</w>": 5577,
    "abilities</w>": 5578,
    "swi": 5579,
    "changing</w>": 5580,
    "shared</w>": 5581,
    "offen": 5582,
    "em</w>": 5583,
    "darc": 5584,
    "darcsen</w>": 5585,
    "revenge</w>": 5586,
    "ela</w>": 5587,
    "lis</w>": 5588,
    "lose</w>": 5589,
    "42": 5590,
    "dahau</w>": 5591,
    "allies</w>": 5592,
    "enemies</w>": 5593,
    "nations</w>": 5594,
    "asking</w>": 5595,
    "rant</w>": 5596,
    "ario</w>": 5597,
    "fuj": 5598,
    "ichi": 5599,
    "components</w>": 5600,
    "systems</w>": 5601,
    "problem</w>": 5602,
    "rejected</w>": 5603,
    "doing</w>": 5604,
    "tune</w>": 5605,
    "fantas": 5606,
    "fantasy</w>": 5607,
    "arranged</w>": 5608,
    "precious</w>": 5609,
    "duty</w>": 5610,
    "su</w>": 5611,
    "detail</w>": 5612,
    "visual</w>": 5613,
    "recru": 5614,
    "price</w>": 5615,
    "bonus</w>": 5616,
    "save</w>": 5617,
    "patch</w>": 5618,
    "top": 5619,
    "wii</w>": 5620,
    "pleased</w>": 5621,
    "watch</w>": 5622,
    "putting</w>": 5623,
    "limit": 5624,
    "positively</w>": 5625,
    "quality</w>": 5626,
    "criticism</w>": 5627,
    "affe": 5628,
    "affected</w>": 5629,
    "prais": 5630,
    "criticized</w>": 5631,
    "scenes</w>": 5632,
    "ryan</w>": 5633,
    "repeti": 5634,
    "legacy</w>": 5635,
    "adaptations</w>": 5636,
    "availability</w>": 5637,
    "principle</w>": 5638,
    "seri": 5639,
    "commissioning</w>": 5640,
    "birth": 5641,
    "attr": 5642,
    "request</w>": 5643,
    "percei": 5644,
    "fronti": 5645,
    "acres</w>": 5646,
    "adequ": 5647,
    "adequate</w>": 5648,
    "exter": 5649,
    "walls</w>": 5650,
    "specimen</w>": 5651,
    "pot</w>": 5652,
    "determine</w>": 5653,
    "possession</w>": 5654,
    "determined</w>": 5655,
    "responded</w>": 5656,
    "telling</w>": 5657,
    "reinforc": 5658,
    "reinforcements</w>": 5659,
    "already</w>": 5660,
    "telegra": 5661,
    "span</w>": 5662,
    "rel</w>": 5663,
    "winter</w>": 5664,
    "garri": 5665,
    "garrison</w>": 5666,
    "deposi": 5667,
    "stores</w>": 5668,
    "supposed</w>": 5669,
    "destination</w>": 5670,
    "simply</w>": 5671,
    "situations</w>": 5672,
    "order": 5673,
    "conf": 5674,
    "civilian</w>": 5675,
    "surrender</w>": 5676,
    "prom": 5677,
    "prompted</w>": 5678,
    "security</w>": 5679,
    "inaug": 5680,
    "passage</w>": 5681,
    "agreement</w>": 5682,
    "officials</w>": 5683,
    "listen</w>": 5684,
    "crisis</w>": 5685,
    "manufacture</w>": 5686,
    "inven": 5687,
    "m1822</w>": 5688,
    "57</w>": 5689,
    "1855</w>": 5690,
    "missi": 5691,
    "mississi": 5692,
    "mississipp": 5693,
    "mississippi</w>": 5694,
    "locks</w>": 5695,
    "1st</w>": 5696,
    "hau": 5697,
    "thomas</w>": 5698,
    "district</w>": 5699,
    "manufactur": 5700,
    "chemical</w>": 5701,
    "laboratory</w>": 5702,
    "tools</w>": 5703,
    "gathered</w>": 5704,
    "else</w>": 5705,
    "labor</w>": 5706,
    "vicinity</w>": 5707,
    "pressed</w>": 5708,
    "shot": 5709,
    "shotguns</w>": 5710,
    "suitable</w>": 5711,
    "lt</w>": 5712,
    "gunboat</w>": 5713,
    "pay</w>": 5714,
    "functions</w>": 5715,
    "returns</w>": 5716,
    "bel</w>": 5717,
    "crucial</w>": 5718,
    "green</w>": 5719,
    "enlisted</w>": 5720,
    "buck</w>": 5721,
    "guard</w>": 5722,
    "duties</w>": 5723,
    "summary</w>": 5724,
    "flint</w>": 5725,
    "130</w>": 5726,
    "pist": 5727,
    "pace</w>": 5728,
    "marks</w>": 5729,
    "surrendered</w>": 5730,
    "1873</w>": 5731,
    "families</w>": 5732,
    "renov": 5733,
    "interior</w>": 5734,
    "deployment</w>": 5735,
    "abandoned</w>": 5736,
    "membership</w>": 5737,
    "exhib": 5738,
    "oration</w>": 5739,
    "financial</w>": 5740,
    "paid</w>": 5741,
    "1912</w>": 5742,
    "1917</w>": 5743,
    "gone</w>": 5744,
    "1936</w>": 5745,
    "administration</w>": 5746,
    "1970</w>": 5747,
    "honor</w>": 5748,
    "science</w>": 5749,
    "market</w>": 5750,
    "1895</w>": 5751,
    "1973</w>": 5752,
    "illustrator</w>": 5753,
    "gree": 5754,
    "ile</w>": 5755,
    "leade": 5756,
    "leadeth</w>": 5757,
    "glass</w>": 5758,
    "darling</w>": 5759,
    "theories</w>": 5760,
    "autum": 5761,
    "autumn</w>": 5762,
    "youngest</w>": 5763,
    "walter</w>": 5764,
    "care</w>": 5765,
    "prep": 5766,
    "prepare</w>": 5767,
    "hired</w>": 5768,
    "raphael</w>": 5769,
    "postcards</w>": 5770,
    "adver": 5771,
    "adverti": 5772,
    "submitted</w>": 5773,
    "verses</w>": 5774,
    "waldr": 5775,
    "waldrons</w>": 5776,
    "semi</w>": 5777,
    "garden</w>": 5778,
    "oners</w>": 5779,
    "1940</w>": 5780,
    "bark": 5781,
    "dily</w>": 5782,
    "cost": 5783,
    "doub": 5784,
    "storr": 5785,
    "storrington</w>": 5786,
    "extent</w>": 5787,
    "hospital</w>": 5788,
    "77</w>": 5789,
    "esting</w>": 5790,
    "alice</w>": 5791,
    "sketches</w>": 5792,
    "institu": 5793,
    "spon": 5794,
    "shak": 5795,
    "critically</w>": 5796,
    "grounds": 5797,
    "groundsel</w>": 5798,
    "neck": 5799,
    "neckl": 5800,
    "jen": 5801,
    "pover": 5802,
    "poverty</w>": 5803,
    "ousness</w>": 5804,
    "swan</w>": 5805,
    "46</w>": 5806,
    "feeding</w>": 5807,
    "george</w>": 5808,
    "disappeared</w>": 5809,
    "baptism": 5810,
    "baptismal</w>": 5811,
    "font</w>": 5812,
    "rolls</w>": 5813,
    "1962</w>": 5814,
    "bury</w>": 5815,
    "1930s</w>": 5816,
    "west": 5817,
    "1944</w>": 5818,
    "dos</w>": 5819,
    "recogn": 5820,
    "recognised</w>": 5821,
    "organised</w>": 5822,
    "youth</w>": 5823,
    "withdrew</w>": 5824,
    "challeng": 5825,
    "africa</w>": 5826,
    "afri": 5827,
    "african</w>": 5828,
    "qualified</w>": 5829,
    "among": 5830,
    "amongst</w>": 5831,
    "enge</w>": 5832,
    "leave</w>": 5833,
    "opport": 5834,
    "1952</w>": 5835,
    "annot": 5836,
    "habitats</w>": 5837,
    "ond</w>": 5838,
    "altern": 5839,
    "thorns</w>": 5840,
    "smooth</w>": 5841,
    "maskrays</w>": 5842,
    "eds</w>": 5843,
    "traw": 5844,
    "taxonom": 5845,
    "organis": 5846,
    "elevated</w>": 5847,
    "thin</w>": 5848,
    "pap": 5849,
    "sli": 5850,
    "pel": 5851,
    "barely</w>": 5852,
    "elf</w>": 5853,
    "que": 5854,
    "ulf</w>": 5855,
    "guine": 5856,
    "guinea</w>": 5857,
    "39</w>": 5858,
    "far": 5859,
    "surface</w>": 5860,
    "consu": 5861,
    "relatively</w>": 5862,
    "asi": 5863,
    "tized</w>": 5864,
    "functional</w>": 5865,
    "reach</w>": 5866,
    "interactions</w>": 5867,
    "operates</w>": 5868,
    "cate</w>": 5869,
    "lers</w>": 5870,
    "pled</w>": 5871,
    "straight</w>": 5872,
    "playoff": 5873,
    "playoffs</w>": 5874,
    "receive</w>": 5875,
    "lottery</w>": 5876,
    "ilers</w>": 5877,
    "arni": 5878,
    "arniel</w>": 5879,
    "prospec": 5880,
    "oming</w>": 5881,
    "staples</w>": 5882,
    "score</w>": 5883,
    "eighth</w>": 5884,
    "exchange</w>": 5885,
    "51</w>": 5886,
    "stro": 5887,
    "ov</w>": 5888,
    "veteran</w>": 5889,
    "winner</w>": 5890,
    "allen</w>": 5891,
    "minute</w>": 5892,
    "ore</w>": 5893,
    "assists</w>": 5894,
    "clubs</w>": 5895,
    "slow</w>": 5896,
    "permission</w>": 5897,
    "coaching</w>": 5898,
    "shootout</w>": 5899,
    "38</w>": 5900,
    "numerous</w>": 5901,
    "breaking</w>": 5902,
    "trading</w>": 5903,
    "picked</w>": 5904,
    "rook": 5905,
    "rookie</w>": 5906,
    "dying</w>": 5907,
    "deliber": 5908,
    "delay</w>": 5909,
    "gation</w>": 5910,
    "flexi": 5911,
    "inging</w>": 5912,
    "defeated</w>": 5913,
    "saves</w>": 5914,
    "shots</w>": 5915,
    "earned</w>": 5916,
    "expansion</w>": 5917,
    "ville</w>": 5918,
    "sche": 5919,
    "schedu": 5920,
    "schedule</w>": 5921,
    "effect</w>": 5922,
    "otes</w>": 5923,
    "reflect</w>": 5924,
    "gan</w>": 5925,
    "shawn</w>": 5926,
    "chart</w>": 5927,
    "00": 5928,
    "restricted</w>": 5929,
    "agents</w>": 5930,
    "promulgated</w>": 5931,
    "leo</w>": 5932,
    "college</w>": 5933,
    "instrumentation</w>": 5934,
    "observation</w>": 5935,
    "meridian</w>": 5936,
    "lica</w>": 5937,
    "pius</w>": 5938,
    "imple": 5939,
    "mogra": 5940,
    "transit</w>": 5941,
    "teles": 5942,
    "telescope</w>": 5943,
    "revival</w>": 5944,
    "autom": 5945,
    "56</w>": 5946,
    "seat</w>": 5947,
    "camer": 5948,
    "fications</w>": 5949,
    "graphic</w>": 5950,
    "famous</w>": 5951,
    "decor": 5952,
    "sophistic": 5953,
    "sophisticated</w>": 5954,
    "sour": 5955,
    "ming</w>": 5956,
    "forth</w>": 5957,
    "columbia</w>": 5958,
    "wake</w>": 5959,
    "elle</w>": 5960,
    "key": 5961,
    "keyboards</w>": 5962,
    "toler": 5963,
    "couldn</w>": 5964,
    "zing</w>": 5965,
    "lips</w>": 5966,
    "hanging</w>": 5967,
    "chor": 5968,
    "everyone</w>": 5969,
    "151</w>": 5970,
    "trav": 5971,
    "385</w>": 5972,
    "mile</w>": 5973,
    "farmland</w>": 5974,
    "currency</w>": 5975,
    "kin</w>": 5976,
    "thouse</w>": 5977,
    "economy</w>": 5978,
    "uss</w>": 5979,
    "runner</w>": 5980,
    "deployed</w>": 5981,
    "1865</w>": 5982,
    "hai": 5983,
    "tman</w>": 5984,
    "beam</w>": 5985,
    "vertical</w>": 5986,
    "stea": 5987,
    "cotton</w>": 5988,
    "layer</w>": 5989,
    "pier": 5990,
    "protected</w>": 5991,
    "mounts</w>": 5992,
    "16": 5993,
    "weighed</w>": 5994,
    "solid</w>": 5995,
    "weight</w>": 5996,
    "aked</w>": 5997,
    "virtually</w>": 5998,
    "intense</w>": 5999,
    "flag": 6000,
    "blockading</w>": 6001,
    "clear</w>": 6002,
    "actually</w>": 6003,
    "obstruc": 6004,
    "attacking</w>": 6005,
    "augmented</w>": 6006,
    "complete</w>": 6007,
    "atlantic</w>": 6008,
    "solute</w>": 6009,
    "pushed</w>": 6010,
    "200</w>": 6011,
    "easily</w>": 6012,
    "sign": 6013,
    "representatives</w>": 6014,
    "penn": 6015,
    "pennsylv": 6016,
    "pennsylvania</w>": 6017,
    "vanished</w>": 6018,
    "lankan</w>": 6019,
    "graduated</w>": 6020,
    "reporter</w>": 6021,
    "audi": 6022,
    "psy": 6023,
    "iif": 6024,
    "iifa</w>": 6025,
    "saj": 6026,
    "sajid</w>": 6027,
    "grossing</w>": 6028,
    "actresses</w>": 6029,
    "modeling</w>": 6030,
    "bahrain</w>": 6031,
    "canadian</w>": 6032,
    "fourteen</w>": 6033,
    "spani": 6034,
    "spanish</w>": 6035,
    "hollywood</w>": 6036,
    "confi": 6037,
    "kh</w>": 6038,
    "ja": 6039,
    "ather": 6040,
    "atics</w>": 6041,
    "voice</w>": 6042,
    "starring</w>": 6043,
    "departure</w>": 6044,
    "convin": 6045,
    "bond</w>": 6046,
    "holy</w>": 6047,
    "cover": 6048,
    "sanctuary</w>": 6049,
    "fast</w>": 6050,
    "2016</w>": 6051,
    "ceremonies</w>": 6052,
    "ador</w>": 6053,
    "ranking</w>": 6054,
    "teen": 6055,
    "preceding</w>": 6056,
    "celebri": 6057,
    "tampa</w>": 6058,
    "buf": 6059,
    "diagnosed</w>": 6060,
    "mph": 6061,
    "retiring</w>": 6062,
    "etta</w>": 6063,
    "sured</w>": 6064,
    "sought</w>": 6065,
    "bu</w>": 6066,
    "loud</w>": 6067,
    "eland</w>": 6068,
    "valer": 6069,
    "kor": 6070,
    "awar": 6071,
    "awaren": 6072,
    "awareness</w>": 6073,
    "future</w>": 6074,
    "1914</w>": 6075,
    "flotil": 6076,
    "flotilla</w>": 6077,
    "bresl": 6078,
    "breslau</w>": 6079,
    "mediter": 6080,
    "mediterran": 6081,
    "mediterranean</w>": 6082,
    "brindi": 6083,
    "brindisi</w>": 6084,
    "sole</w>": 6085,
    "combat</w>": 6086,
    "tiny</w>": 6087,
    "armament</w>": 6088,
    "centi": 6089,
    "turre": 6090,
    "turrets</w>": 6091,
    "airship</w>": 6092,
    "37</w>": 6093,
    "bilized</w>": 6094,
    "turkey</w>": 6095,
    "succeeded</w>": 6096,
    "ais": 6097,
    "teget": 6098,
    "tegetth": 6099,
    "tegetthoff</w>": 6100,
    "core</w>": 6101,
    "argued</w>": 6102,
    "polytheistic</w>": 6103,
    "shrines</w>": 6104,
    "fundam": 6105,
    "fundamental</w>": 6106,
    "eled</w>": 6107,
    "egyptologist</w>": 6108,
    "nṯr</w>": 6109,
    "femin": 6110,
    "posing</w>": 6111,
    "hierog": 6112,
    "hierogl": 6113,
    "hieroglyp": 6114,
    "trances</w>": 6115,
    "reminis": 6116,
    "reminiscent</w>": 6117,
    "ceased</w>": 6118,
    "mann</w>": 6119,
    "mythology</w>": 6120,
    "artwork</w>": 6121,
    "envision": 6122,
    "nubia</w>": 6123,
    "cana": 6124,
    "absor": 6125,
    "absorbed</w>": 6126,
    "populace</w>": 6127,
    "knew</w>": 6128,
    "understood</w>": 6129,
    "mist": 6130,
    "mistak": 6131,
    "symbolic</w>": 6132,
    "perception</w>": 6133,
    "univer": 6134,
    "universal</w>": 6135,
    "bow": 6136,
    "omniscient</w>": 6137,
    "wer</w>": 6138,
    "hostile</w>": 6139,
    "causing</w>": 6140,
    "dead</w>": 6141,
    "powers</w>": 6142,
    "archy</w>": 6143,
    "enacted</w>": 6144,
    "understand</w>": 6145,
    "contra": 6146,
    "licity</w>": 6147,
    "moti": 6148,
    "pta": 6149,
    "ptah</w>": 6150,
    "setting</w>": 6151,
    "alling</w>": 6152,
    "resurrec": 6153,
    "ruler</w>": 6154,
    "journey</w>": 6155,
    "existed</w>": 6156,
    "dwell</w>": 6157,
    "earth": 6158,
    "acces": 6159,
    "accessible</w>": 6160,
    "presided</w>": 6161,
    "thebes</w>": 6162,
    "epithets</w>": 6163,
    "refer</w>": 6164,
    "sk</w>": 6165,
    "reveals</w>": 6166,
    "apping</w>": 6167,
    "sets</w>": 6168,
    "product</w>": 6169,
    "ex</w>": 6170,
    "soul</w>": 6171,
    "depiction</w>": 6172,
    "kas</w>": 6173,
    "everything</w>": 6174,
    "clothes</w>": 6175,
    "oracles</w>": 6176,
    "vul": 6177,
    "rare</w>": 6178,
    "acknowle": 6179,
    "anu": 6180,
    "akhen": 6181,
    "akhenaten</w>": 6182,
    "rated</w>": 6183,
    "sisted</w>": 6184,
    "excluded</w>": 6185,
    "deb": 6186,
    "unified</w>": 6187,
    "credit</w>": 6188,
    "hornun": 6189,
    "hornung</w>": 6190,
    "concludes</w>": 6191,
    "descrip": 6192,
    "descriptions</w>": 6193,
    "flesh</w>": 6194,
    "lying</w>": 6195,
    "mummies</w>": 6196,
    "soil</w>": 6197,
    "symbol</w>": 6198,
    "vine</w>": 6199,
    "anthropo": 6200,
    "identity</w>": 6201,
    "fs</w>": 6202,
    "ideology</w>": 6203,
    "bull</w>": 6204,
    "filled</w>": 6205,
    "governed</w>": 6206,
    "morality</w>": 6207,
    "ignor": 6208,
    "angry</w>": 6209,
    "cies</w>": 6210,
    "faith</w>": 6211,
    "hoped</w>": 6212,
    "aining</w>": 6213,
    "presented</w>": 6214,
    "encou": 6215,
    "dation</w>": 6216,
    "invo": 6217,
    "stel": 6218,
    "ported</w>": 6219,
    "def</w>": 6220,
    "recordings</w>": 6221,
    "guitars</w>": 6222,
    "califor": 6223,
    "californi": 6224,
    "california</w>": 6225,
    "matters</w>": 6226,
    "dave</w>": 6227,
    "kerry</w>": 6228,
    "did": 6229,
    "didn</w>": 6230,
    "aray": 6231,
    "araya</w>": 6232,
    "distur": 6233,
    "sacrifice</w>": 6234,
    "experim": 6235,
    "sounding</w>": 6236,
    "rolling</w>": 6237,
    "johnny</w>": 6238,
    "collected</w>": 6239,
    "pun": 6240,
    "maniac": 6241,
    "maniacs</w>": 6242,
    "operating</w>": 6243,
    "ica": 6244,
    "icao</w>": 6245,
    "jet</w>": 6246,
    "corporate</w>": 6247,
    "surveying</w>": 6248,
    "vint": 6249,
    "vintage</w>": 6250,
    "licences</w>": 6251,
    "cous": 6252,
    "increasing</w>": 6253,
    "significance</w>": 6254,
    "defin": 6255,
    "patro": 6256,
    "aeroplane</w>": 6257,
    "helicopter</w>": 6258,
    "council</w>": 6259,
    "introduction</w>": 6260,
    "trained</w>": 6261,
    "rog": 6262,
    "1950s</w>": 6263,
    "1970s</w>": 6264,
    "airships</w>": 6265,
    "agli": 6266,
    "broadly</w>": 6267,
    "employe": 6268,
    "championships</w>": 6269,
    "driven</w>": 6270,
    "reper": 6271,
    "parach": 6272,
    "parachute</w>": 6273,
    "accur": 6274,
    "smalle": 6275,
    "smallest</w>": 6276,
    "operate</w>": 6277,
    "airstrips</w>": 6278,
    "fring": 6279,
    "tenance</w>": 6280,
    "satisfy</w>": 6281,
    "acceptable</w>": 6282,
    "excep": 6283,
    "guide</w>": 6284,
    "lists</w>": 6285,
    "roughly</w>": 6286,
    "sectors</w>": 6287,
    "severely</w>": 6288,
    "sation</w>": 6289,
    "appropriate</w>": 6290,
    "frame": 6291,
    "framework</w>": 6292,
    "jar</w>": 6293,
    "fically</w>": 6294,
    "accidents</w>": 6295,
    "increases</w>": 6296,
    "charges</w>": 6297,
    "ald</w>": 6298,
    "brist": 6299,
    "bristol</w>": 6300,
    "ourse</w>": 6301,
    "incidents</w>": 6302,
    "radetz": 6303,
    "radetzky</w>": 6304,
    "dreadnou": 6305,
    "dreadnoughts</w>": 6306,
    "adriatic</w>": 6307,
    "submarine</w>": 6308,
    "montenegro</w>": 6309,
    "vien": 6310,
    "vienna</w>": 6311,
    "whar": 6312,
    "wharves</w>": 6313,
    "collapsed</w>": 6314,
    "yugoslavia</w>": 6315,
    "spala": 6316,
    "spalato</w>": 6317,
    "simultaneously</w>": 6318,
    "charcoal</w>": 6319,
    "whitish</w>": 6320,
    "spru": 6321,
    "spruce</w>": 6322,
    "fungi</w>": 6323,
    "deri": 6324,
    "approved</w>": 6325,
    "bearing</w>": 6326,
    "µm</w>": 6327,
    "orange</w>": 6328,
    "forest</w>": 6329,
    "fruiting</w>": 6330,
    "tree</w>": 6331,
    "hyp": 6332,
    "burning</w>": 6333,
    "sporadi": 6334,
    "sporadic</w>": 6335,
    "coin": 6336,
    "christopher</w>": 6337,
    "becht": 6338,
    "mountains</w>": 6339,
    "conven": 6340,
    "finance</w>": 6341,
    "ssm": 6342,
    "whig</w>": 6343,
    "difference</w>": 6344,
    "preparation</w>": 6345,
    "perfect</w>": 6346,
    "mint": 6347,
    "surviving</w>": 6348,
    "accel": 6349,
    "accelerated</w>": 6350,
    "guthri": 6351,
    "guthrie</w>": 6352,
    "replac": 6353,
    "replacement</w>": 6354,
    "concerning</w>": 6355,
    "techni": 6356,
    "historian</w>": 6357,
    "folk</w>": 6358,
    "anything</w>": 6359,
    "beauty</w>": 6360,
    "mintage</w>": 6361,
    "specie</w>": 6362,
    "aldehyde</w>": 6363,
    "methylene</w>": 6364,
    "notable</w>": 6365,
    "variants</w>": 6366,
    "benz": 6367,
    "oxide</w>": 6368,
    "nucleophilic</w>": 6369,
    "oselectivity</w>": 6370,
    "selectivity</w>": 6371,
    "applic": 6372,
    "profi": 6373,
    "profile</w>": 6374,
    "sulfide</w>": 6375,
    "porfirio</w>": 6376,
    "corral</w>": 6377,
    "amne": 6378,
    "amnest": 6379,
    "amnesty</w>": 6380,
    "resigned</w>": 6381,
    "violence</w>": 6382,
    "supporters</w>": 6383,
    "chihu": 6384,
    "chihua": 6385,
    "chihuahu": 6386,
    "possibility</w>": 6387,
    "sit": 6388,
    "kill": 6389,
    "killing</w>": 6390,
    "nearby</w>": 6391,
    "revolutionaries</w>": 6392,
    "ministers</w>": 6393,
    "jor": 6394,
    "jorge</w>": 6395,
    "afterma": 6396,
    "aftermath</w>": 6397,
    "ador": 6398,
    "chivo</w>": 6399,
    "focuses</w>": 6400,
    "akes</w>": 6401,
    "remembering</w>": 6402,
    "brut": 6403,
    "brutality</w>": 6404,
    "sexuality</w>": 6405,
    "meren": 6406,
    "merengue</w>": 6407,
    "agustin</w>": 6408,
    "aqu": 6409,
    "abbes</w>": 6410,
    "sim</w>": 6411,
    "sect</w>": 6412,
    "finding</w>": 6413,
    "fiction": 6414,
    "fictionalized</w>": 6415,
    "crimes</w>": 6416,
    "brutal</w>": 6417,
    "cruel": 6418,
    "cruelty</w>": 6419,
    "ark</w>": 6420,
    "ramf": 6421,
    "ramfis</w>": 6422,
    "imbert</w>": 6423,
    "wears</w>": 6424,
    "sad": 6425,
    "amadi": 6426,
    "amadito</w>": 6427,
    "humili": 6428,
    "expression</w>": 6429,
    "prohibited</w>": 6430,
    "kir": 6431,
    "kirn</w>": 6432,
    "atmospher": 6433,
    "chelor</w>": 6434,
    "bombers</w>": 6435,
    "tennant</w>": 6436,
    "kilome": 6437,
    "rings</w>": 6438,
    "searching</w>": 6439,
    "wir": 6440,
    "wirra": 6441,
    "coastal</w>": 6442,
    "mitch": 6443,
    "ves": 6444,
    "vessel": 6445,
    "vessels</w>": 6446,
    "comedian</w>": 6447,
    "unbreak": 6448,
    "unbreakable</w>": 6449,
    "kimmy</w>": 6450,
    "schmid": 6451,
    "schmidt</w>": 6452,
    "mean</w>": 6453,
    "rat": 6454,
    "darby</w>": 6455,
    "dians</w>": 6456,
    "hara</w>": 6457,
    "column</w>": 6458,
    "paro": 6459,
    "jokes</w>": 6460,
    "liz</w>": 6461,
    "lemon</w>": 6462,
    "premiere</w>": 6463,
    "glasses</w>": 6464,
    "tape</w>": 6465,
    "comedic</w>": 6466,
    "deprecation</w>": 6467,
    "orbit</w>": 6468,
    "planets</w>": 6469,
    "harb": 6470,
    "m2</w>": 6471,
    "excavation</w>": 6472,
    "rash": 6473,
    "rashtra": 6474,
    "rashtraku": 6475,
    "natara": 6476,
    "nataraja</w>": 6477,
    "ardhan": 6478,
    "monument</w>": 6479,
    "columns</w>": 6480,
    "axis</w>": 6481,
    "yogi": 6482,
    "yogishvara</w>": 6483,
    "andhaka</w>": 6484,
    "fat</w>": 6485,
    "headgear</w>": 6486,
    "discer": 6487,
    "ava</w>": 6488,
    "touri": 6489,
    "shoul": 6490,
    "indra</w>": 6491,
    "armlets</w>": 6492,
    "ruined</w>": 6493,
    "forehead</w>": 6494,
    "tar</w>": 6495,
    "musicians</w>": 6496,
    "noise": 6497,
    "noisescap": 6498,
    "noisescapes</w>": 6499,
    "metallica</w>": 6500,
    "ir8</w>": 6501,
    "hogl": 6502,
    "hoglan</w>": 6503,
    "physicist</w>": 6504,
    "ution</w>": 6505,
    "addic": 6506,
    "cop</w>": 6507,
    "parc": 6508,
    "parcel</w>": 6509,
    "či": 6510,
    "čić</w>": 6511,
    "photograph": 6512,
    "isra": 6513,
    "israel</w>": 6514,
    "offshore</w>": 6515,
    "surveillance</w>": 6516,
    "戦場のヴァルキュリア3</w>": 6517,
    "tac": 6518,
    "tactical</w>": 6519,
    "underwent</w>": 6520,
    "adju": 6521,
    "newcom": 6522,
    "newcomers</w>": 6523,
    "honj": 6524,
    "honjou</w>": 6525,
    "composer</w>": 6526,
    "oz": 6527,
    "ozawa</w>": 6528,
    "fan</w>": 6529,
    "translation</w>": 6530,
    "azure</w>": 6531,
    "voiced</w>": 6532,
    "spee": 6533,
    "gradually</w>": 6534,
    "unlocked</w>": 6535,
    "freely</w>": 6536,
    "depending</w>": 6537,
    "option</w>": 6538,
    "hero": 6539,
    "potenti": 6540,
    "potentials</w>": 6541,
    "skil": 6542,
    "link</w>": 6543,
    "imca</w>": 6544,
    "gained</w>": 6545,
    "attributes</w>": 6546,
    "task</w>": 6547,
    "riela</w>": 6548,
    "seem": 6549,
    "seemingly</w>": 6550,
    "know": 6551,
    "422nd</w>": 6552,
    "ranks</w>": 6553,
    "independence</w>": 6554,
    "ounded</w>": 6555,
    "arrest</w>": 6556,
    "escor": 6557,
    "onym": 6558,
    "ilian</w>": 6559,
    "valkyri": 6560,
    "factor</w>": 6561,
    "prove</w>": 6562,
    "mp</w>": 6563,
    "card</w>": 6564,
    "wreck</w>": 6565,
    "goes</w>": 6566,
    "begin</w>": 6567,
    "upgra": 6568,
    "achieve</w>": 6569,
    "reality</w>": 6570,
    "zer</w>": 6571,
    "website</w>": 6572,
    "arriving</w>": 6573,
    "journ": 6574,
    "journalists</w>": 6575,
    "reveal</w>": 6576,
    "dl": 6577,
    "dlc</w>": 6578,
    "popularity</w>": 6579,
    "apply</w>": 6580,
    "exclusive</w>": 6581,
    "multi</w>": 6582,
    "enjoyed</w>": 6583,
    "atively</w>": 6584,
    "recyc": 6585,
    "recycled</w>": 6586,
    "spi": 6587,
    "net</w>": 6588,
    "artic": 6589,
    "article</w>": 6590,
    "limitations</w>": 6591,
    "urring</w>": 6592,
    "moral</w>": 6593,
    "balance</w>": 6594,
    "seemed</w>": 6595,
    "sional</w>": 6596,
    "excited</w>": 6597,
    "expressing</w>": 6598,
    "zone</w>": 6599,
    "develo": 6600,
    "develop</w>": 6601,
    "page</w>": 6602,
    "pictures</w>": 6603,
    "focused</w>": 6604,
    "realistic</w>": 6605,
    "vehi": 6606,
    "vehicles</w>": 6607,
    "bi</w>": 6608,
    "bloo": 6609,
    "bloom</w>": 6610,
    "ami</w>": 6611,
    "ome</w>": 6612,
    "ume</w>": 6613,
    "housed</w>": 6614,
    "antiqu": 6615,
    "antiquities</w>": 6616,
    "besides</w>": 6617,
    "dangers</w>": 6618,
    "frontier</w>": 6619,
    "skir": 6620,
    "supervi": 6621,
    "thick</w>": 6622,
    "mason": 6623,
    "masonry</w>": 6624,
    "depot</w>": 6625,
    "hori": 6626,
    "horiz": 6627,
    "artill": 6628,
    "artillery</w>": 6629,
    "sixty</w>": 6630,
    "legislat": 6631,
    "convention</w>": 6632,
    "informed</w>": 6633,
    "futi": 6634,
    "rams</w>": 6635,
    "telegraph</w>": 6636,
    "memp": 6637,
    "memphis</w>": 6638,
    "harrel</w>": 6639,
    "message</w>": 6640,
    "reinforce</w>": 6641,
    "posts</w>": 6642,
    "tories</w>": 6643,
    "hem": 6644,
    "believ": 6645,
    "sus</w>": 6646,
    "emergen": 6647,
    "emergency</w>": 6648,
    "colli": 6649,
    "safe</w>": 6650,
    "conqu": 6651,
    "noon</w>": 6652,
    "zen</w>": 6653,
    "stayed</w>": 6654,
    "substantial</w>": 6655,
    "caps</w>": 6656,
    "battery</w>": 6657,
    "converted</w>": 6658,
    "m184": 6659,
    "bore</w>": 6660,
    "900</w>": 6661,
    "26": 6662,
    "somewhat</w>": 6663,
    "6th</w>": 6664,
    "infan": 6665,
    "infantry</w>": 6666,
    "caval": 6667,
    "cavalry</w>": 6668,
    "regiment</w>": 6669,
    "comprising</w>": 6670,
    "dorn</w>": 6671,
    "jun": 6672,
    "sburg</w>": 6673,
    "destitu": 6674,
    "lent</w>": 6675,
    "medic": 6676,
    "prise</w>": 6677,
    "engage</w>": 6678,
    "rapi": 6679,
    "inspec": 6680,
    "effected</w>": 6681,
    "reacti": 6682,
    "rowed</w>": 6683,
    "draw</w>": 6684,
    "colon": 6685,
    "colonel</w>": 6686,
    "chapter</w>": 6687,
    "shop": 6688,
    "etc</w>": 6689,
    "laborers</w>": 6690,
    "cler": 6691,
    "airing</w>": 6692,
    "box": 6693,
    "mou": 6694,
    "faul": 6695,
    "faulkn": 6696,
    "faulkner</w>": 6697,
    "pounder</w>": 6698,
    "96</w>": 6699,
    "indicating</w>": 6700,
    "brooks</w>": 6701,
    "1874</w>": 6702,
    "rear</w>": 6703,
    "hoi": 6704,
    "floors</w>": 6705,
    "quick</w>": 6706,
    "forever</w>": 6707,
    "eties</w>": 6708,
    "nish</w>": 6709,
    "facts</w>": 6710,
    "deteri": 6711,
    "largest</w>": 6712,
    "visitors</w>": 6713,
    "icely</w>": 6714,
    "girl": 6715,
    "devout</w>": 6716,
    "painting</w>": 6717,
    "christ</w>": 6718,
    "equally</w>": 6719,
    "ink</w>": 6720,
    "lites</w>": 6721,
    "artistic</w>": 6722,
    "posth": 6723,
    "posthum": 6724,
    "posthumously</w>": 6725,
    "swal": 6726,
    "66</w>": 6727,
    "waddon</w>": 6728,
    "parents</w>": 6729,
    "calde": 6730,
    "caldecott</w>": 6731,
    "1908</w>": 6732,
    "1940s</w>": 6733,
    "tuck</w>": 6734,
    "drawings</w>": 6735,
    "afterward</w>": 6736,
    "elected</w>": 6737,
    "remarked</w>": 6738,
    "freedom</w>": 6739,
    "tau": 6740,
    "taught</w>": 6741,
    "household</w>": 6742,
    "accompan": 6743,
    "accompanying</w>": 6744,
    "clay": 6745,
    "clayton</w>": 6746,
    "calthro": 6747,
    "calthrop</w>": 6748,
    "tast": 6749,
    "taste</w>": 6750,
    "ram</w>": 6751,
    "relatives</w>": 6752,
    "keeper</w>": 6753,
    "readily</w>": 6754,
    "costumes</w>": 6755,
    "trunk</w>": 6756,
    "illustration</w>": 6757,
    "solely</w>": 6758,
    "cular</w>": 6759,
    "corn": 6760,
    "visited</w>": 6761,
    "shire</w>": 6762,
    "retired</w>": 6763,
    "1954</w>": 6764,
    "pursu": 6765,
    "1960</w>": 6766,
    "ison": 6767,
    "orate</w>": 6768,
    "homes</w>": 6769,
    "tended</w>": 6770,
    "scatter": 6771,
    "scattered</w>": 6772,
    "yard</w>": 6773,
    "1983</w>": 6774,
    "subjects</w>": 6775,
    "flat</w>": 6776,
    "studied</w>": 6777,
    "wood": 6778,
    "choice</w>": 6779,
    "matter</w>": 6780,
    "dness</w>": 6781,
    "edward</w>": 6782,
    "depictions</w>": 6783,
    "holi": 6784,
    "shake": 6785,
    "shakespe": 6786,
    "shakespeare</w>": 6787,
    "boy</w>": 6788,
    "1928</w>": 6789,
    "rushi": 6790,
    "rushie</w>": 6791,
    "1800</w>": 6792,
    "necklaces</w>": 6793,
    "consciousness</w>": 6794,
    "angel</w>": 6795,
    "promoting</w>": 6796,
    "1916</w>": 6797,
    "christm": 6798,
    "christmas</w>": 6799,
    "1926</w>": 6800,
    "gosp": 6801,
    "gospel</w>": 6802,
    "exhibi": 6803,
    "exhibition</w>": 6804,
    "tript": 6805,
    "tripty": 6806,
    "1946</w>": 6807,
    "wash</w>": 6808,
    "disci": 6809,
    "1950</w>": 6810,
    "lively</w>": 6811,
    "macmill": 6812,
    "macmillan</w>": 6813,
    "prayers</w>": 6814,
    "cra": 6815,
    "roll</w>": 6816,
    "eth</w>": 6817,
    "competed</w>": 6818,
    "qualifi": 6819,
    "qualifiers</w>": 6820,
    "countries</w>": 6821,
    "tournam": 6822,
    "erb": 6823,
    "village</w>": 6824,
    "beat</w>": 6825,
    "tuni": 6826,
    "tunisia</w>": 6827,
    "abu": 6828,
    "targe": 6829,
    "funding</w>": 6830,
    "associations</w>": 6831,
    "challenge</w>": 6832,
    "seek</w>": 6833,
    "opportunity</w>": 6834,
    "fili": 6835,
    "charter</w>": 6836,
    "stingray</w>": 6837,
    "neo": 6838,
    "neotry": 6839,
    "neotrygon</w>": 6840,
    "annotata</w>": 6841,
    "das": 6842,
    "dasy": 6843,
    "dasyati": 6844,
    "wid": 6845,
    "grayi": 6846,
    "grayish</w>": 6847,
    "alternating</w>": 6848,
    "rows</w>": 6849,
    "mask</w>": 6850,
    "polychae": 6851,
    "polychaete</w>": 6852,
    "worms</w>": 6853,
    "nou": 6854,
    "nouri": 6855,
    "uter": 6856,
    "lacks</w>": 6857,
    "tally</w>": 6858,
    "fec": 6859,
    "undi": 6860,
    "phylo": 6861,
    "scientific</w>": 6862,
    "cher</w>": 6863,
    "esp": 6864,
    "otted</w>": 6865,
    "analysis</w>": 6866,
    "diver": 6867,
    "further": 6868,
    "furthermore</w>": 6869,
    "tative</w>": 6870,
    "ance": 6871,
    "margin": 6872,
    "margins</w>": 6873,
    "spiracles</w>": 6874,
    "contains</w>": 6875,
    "pairs</w>": 6876,
    "gil": 6877,
    "ceeding</w>": 6878,
    "flatten": 6879,
    "stings</w>": 6880,
    "fold</w>": 6881,
    "shape</w>": 6882,
    "tches</w>": 6883,
    "grows</w>": 6884,
    "queen": 6885,
    "queens": 6886,
    "queensland</w>": 6887,
    "apar": 6888,
    "ura</w>": 6889,
    "extends</w>": 6890,
    "colog": 6891,
    "gging</w>": 6892,
    "predominantly</w>": 6893,
    "developing</w>": 6894,
    "threat</w>": 6895,
    "delicate</w>": 6896,
    "chin": 6897,
    "1959</w>": 6898,
    "coupled</w>": 6899,
    "selection</w>": 6900,
    "edmon": 6901,
    "edmonton</w>": 6902,
    "oilers</w>": 6903,
    "requested</w>": 6904,
    "overtime</w>": 6905,
    "65</w>": 6906,
    "manager</w>": 6907,
    "acqui": 6908,
    "acquisi": 6909,
    "acquisition</w>": 6910,
    "orac": 6911,
    "flyers</w>": 6912,
    "agent</w>": 6913,
    "tobi": 6914,
    "signing</w>": 6915,
    "nik": 6916,
    "senators</w>": 6917,
    "expectations</w>": 6918,
    "struggled</w>": 6919,
    "consecu": 6920,
    "consecutive</w>": 6921,
    "falcon": 6922,
    "falcons</w>": 6923,
    "jason</w>": 6924,
    "detro": 6925,
    "detroit</w>": 6926,
    "mile": 6927,
    "johans": 6928,
    "johansen</w>": 6929,
    "shake</w>": 6930,
    "roster</w>": 6931,
    "pitt": 6932,
    "pittsbur": 6933,
    "pittsburgh</w>": 6934,
    "russel": 6935,
    "russell</w>": 6936,
    "hire</w>": 6937,
    "percen": 6938,
    "percentage</w>": 6939,
    "starts</w>": 6940,
    "concussion</w>": 6941,
    "canu": 6942,
    "canucks</w>": 6943,
    "arily</w>": 6944,
    "ssions</w>": 6945,
    "publicly</w>": 6946,
    "intention</w>": 6947,
    "happy</w>": 6948,
    "deman": 6949,
    "trying</w>": 6950,
    "wins</w>": 6951,
    "disappoin": 6952,
    "than": 6953,
    "dedication</w>": 6954,
    "consistently</w>": 6955,
    "stanley</w>": 6956,
    "upset</w>": 6957,
    "judged</w>": 6958,
    "iring</w>": 6959,
    "correct</w>": 6960,
    "deliberate</w>": 6961,
    "senior</w>": 6962,
    "bell</w>": 6963,
    "wr": 6964,
    "proven</w>": 6965,
    "picks</w>": 6966,
    "samu": 6967,
    "bringing</w>": 6968,
    "personally</w>": 6969,
    "shutout</w>": 6970,
    "ado</w>": 6971,
    "proceeded</w>": 6972,
    "clin": 6973,
    "0th</w>": 6974,
    "lowest</w>": 6975,
    "penalty</w>": 6976,
    "76</w>": 6977,
    "finishing</w>": 6978,
    "dropped</w>": 6979,
    "indicates</w>": 6980,
    "collectively</w>": 6981,
    "minus</w>": 6982,
    "denotes</w>": 6983,
    "dep": 6984,
    "depth</w>": 6985,
    "teamm": 6986,
    "teammates</w>": 6987,
    "nin": 6988,
    "ninth</w>": 6989,
    "conversely</w>": 6990,
    "parted</w>": 6991,
    "commodor": 6992,
    "commodore</w>": 6993,
    "offers</w>": 6994,
    "martin": 6995,
    "torre</w>": 6996,
    "ino</w>": 6997,
    "stages</w>": 6998,
    "julian</w>": 6999,
    "tu</w>": 7000,
    "reforms</w>": 7001,
    "fr</w>": 7002,
    "courtyards</w>": 7003,
    "naz": 7004,
    "io</w>": 7005,
    "marble</w>": 7006,
    "gilii</w>": 7007,
    "97</w>": 7008,
    "lip": 7009,
    "forti": 7010,
    "respected</w>": 7011,
    "1821</w>": 7012,
    "progr": 7013,
    "initi": 7014,
    "paris</w>": 7015,
    "equatorial</w>": 7016,
    "instrument</w>": 7017,
    "communicating</w>": 7018,
    "carry</w>": 7019,
    "83</w>": 7020,
    "erec": 7021,
    "modi": 7022,
    "rooms</w>": 7023,
    "zz": 7024,
    "decorated</w>": 7025,
    "ceiling</w>": 7026,
    "function": 7027,
    "functioning</w>": 7028,
    "source</w>": 7029,
    "country": 7030,
    "countryside</w>": 7031,
    "songwriter</w>": 7032,
    "mariah</w>": 7033,
    "composition</w>": 7034,
    "asp": 7035,
    "garnered</w>": 7036,
    "appears</w>": 7037,
    "bob</w>": 7038,
    "studi": 7039,
    "studios</w>": 7040,
    "assisted</w>": 7041,
    "rhyth": 7042,
    "rhythm</w>": 7043,
    "joe</w>": 7044,
    "cd</w>": 7045,
    "lifting</w>": 7046,
    "bra": 7047,
    "testim": 7048,
    "testimony</w>": 7049,
    "talent</w>": 7050,
    "derson</w>": 7051,
    "melo": 7052,
    "poor": 7053,
    "fun</w>": 7054,
    "aning</w>": 7055,
    "choir</w>": 7056,
    "grounds</w>": 7057,
    "wyoming</w>": 7058,
    "wyo</w>": 7059,
    "county</w>": 7060,
    "intersects</w>": 7061,
    "concurrency</w>": 7062,
    "enters</w>": 7063,
    "crosses</w>": 7064,
    "visible</w>": 7065,
    "railroad</w>": 7066,
    "traveling</w>": 7067,
    "connecting</w>": 7068,
    "define</w>": 7069,
    "bered</w>": 7070,
    "navies</w>": 7071,
    "scot": 7072,
    "confederacy</w>": 7073,
    "attempts</w>": 7074,
    "reserve</w>": 7075,
    "haiti</w>": 7076,
    "1869</w>": 7077,
    "cylin": 7078,
    "cylinder</w>": 7079,
    "steam</w>": 7080,
    "stroke</w>": 7081,
    "nass": 7082,
    "nassau</w>": 7083,
    "baham": 7084,
    "bahamas</w>": 7085,
    "loaded</w>": 7086,
    "austrian</w>": 7087,
    "brig</w>": 7088,
    "steam": 7089,
    "steamer</w>": 7090,
    "owners</w>": 7091,
    "anyone</w>": 7092,
    "join</w>": 7093,
    "safely</w>": 7094,
    "steph": 7095,
    "endor": 7096,
    "pation</w>": 7097,
    "financed</w>": 7098,
    "hull</w>": 7099,
    "displaced</w>": 7100,
    "°</w>": 7101,
    "layers</w>": 7102,
    "180</w>": 7103,
    "pine</w>": 7104,
    "08</w>": 7105,
    "tang": 7106,
    "narrow</w>": 7107,
    "banded</w>": 7108,
    "brooke</w>": 7109,
    "report</w>": 7110,
    "diary</w>": 7111,
    "comfor": 7112,
    "flagship</w>": 7113,
    "fla": 7114,
    "defenses</w>": 7115,
    "pressure</w>": 7116,
    "ironclads</w>": 7117,
    "non": 7118,
    "pass</w>": 7119,
    "obstructions</w>": 7120,
    "preven": 7121,
    "tat": 7122,
    "treat</w>": 7123,
    "dissatis": 7124,
    "sorti": 7125,
    "sortie</w>": 7126,
    "wilm": 7127,
    "wilmington</w>": 7128,
    "aling</w>": 7129,
    "conce": 7130,
    "concealed</w>": 7131,
    "bar</w>": 7132,
    "backing</w>": 7133,
    "penetrate</w>": 7134,
    "dahl": 7135,
    "dahlgren</w>": 7136,
    "pulled</w>": 7137,
    "crews</w>": 7138,
    "parro": 7139,
    "parrott</w>": 7140,
    "currently</w>": 7141,
    "defend</w>": 7142,
    "delivered</w>": 7143,
    "lawyer</w>": 7144,
    "vance</w>": 7145,
    "sailed</w>": 7146,
    "prince</w>": 7147,
    "chest": 7148,
    "chester</w>": 7149,
    "joy</w>": 7150,
    "psych": 7151,
    "psychological</w>": 7152,
    "glamor": 7153,
    "glamorous</w>": 7154,
    "lad": 7155,
    "nadi": 7156,
    "nadiad": 7157,
    "nadiadwal": 7158,
    "nadiadwala</w>": 7159,
    "descent</w>": 7160,
    "1980s</w>": 7161,
    "unrest</w>": 7162,
    "barry</w>": 7163,
    "chop": 7164,
    "chopra</w>": 7165,
    "ndtv</w>": 7166,
    "raje": 7167,
    "rajeev": 7168,
    "rajeev</w>": 7169,
    "masand</w>": 7170,
    "fail": 7171,
    "failure</w>": 7172,
    "venus</w>": 7173,
    "redif": 7174,
    "rediff</w>": 7175,
    "rang": 7176,
    "dan": 7177,
    "mahe": 7178,
    "confu": 7179,
    "ini</w>": 7180,
    "aksh": 7181,
    "kum": 7182,
    "kumar</w>": 7183,
    "₹</w>": 7184,
    "looks</w>": 7185,
    "bo</w>": 7186,
    "pad": 7187,
    "uk": 7188,
    "cin": 7189,
    "fat": 7190,
    "bal</w>": 7191,
    "decked</w>": 7192,
    "student</w>": 7193,
    "franc": 7194,
    "francis</w>": 7195,
    "magic</w>": 7196,
    "boring</w>": 7197,
    "gist": 7198,
    "dhar": 7199,
    "fighter</w>": 7200,
    "contained</w>": 7201,
    "dhaw": 7202,
    "dhawan</w>": 7203,
    "everyday</w>": 7204,
    "reali": 7205,
    "myself</w>": 7206,
    "sday</w>": 7207,
    "dating</w>": 7208,
    "wedding</w>": 7209,
    "organisations</w>": 7210,
    "treatment</w>": 7211,
    "munici": 7212,
    "municipal</w>": 7213,
    "horse</w>": 7214,
    "colom": 7215,
    "may": 7216,
    "concert</w>": 7217,
    "ker": 7218,
    "contemporary</w>": 7219,
    "amb": 7220,
    "ambass": 7221,
    "ambassador</w>": 7222,
    "fashion</w>": 7223,
    "sper": 7224,
    "climbing</w>": 7225,
    "twel": 7226,
    "teenth</w>": 7227,
    "dressed</w>": 7228,
    "forbes</w>": 7229,
    "filmogra": 7230,
    "filmography</w>": 7231,
    "1964</w>": 7232,
    "leaf": 7233,
    "leafs</w>": 7234,
    "buffal": 7235,
    "buffalo</w>": 7236,
    "supple": 7237,
    "lymph": 7238,
    "lymphom": 7239,
    "lymphoma</w>": 7240,
    "brief</w>": 7241,
    "pressured</w>": 7242,
    "terry</w>": 7243,
    "choo": 7244,
    "convinced</w>": 7245,
    "84</w>": 7246,
    "anni": 7247,
    "sary</w>": 7248,
    "minimum</w>": 7249,
    "superior</w>": 7250,
    "89</w>": 7251,
    "eux</w>": 7252,
    "canada</w>": 7253,
    "offensive</w>": 7254,
    "needs</w>": 7255,
    "phil</w>": 7256,
    "bour": 7257,
    "overcome</w>": 7258,
    "participate</w>": 7259,
    "worth</w>": 7260,
    "spot</w>": 7261,
    "train": 7262,
    "illness</w>": 7263,
    "chest</w>": 7264,
    "uniform</w>": 7265,
    "clev": 7266,
    "cleveland</w>": 7267,
    "wol": 7268,
    "recognition</w>": 7269,
    "daughters</w>": 7270,
    "kenne": 7271,
    "kennedy</w>": 7272,
    "settled</w>": 7273,
    "dealer</w>": 7274,
    "fights</w>": 7275,
    "goe": 7276,
    "goeb": 7277,
    "goeben</w>": 7278,
    "mutiny</w>": 7279,
    "cattar": 7280,
    "cattaro</w>": 7281,
    "rage</w>": 7282,
    "sz": 7283,
    "szent</w>": 7284,
    "istv": 7285,
    "istván</w>": 7286,
    "triple</w>": 7287,
    "centimeter</w>": 7288,
    "rup": 7289,
    "dary</w>": 7290,
    "42</w>": 7291,
    "boats</w>": 7292,
    "mobilized</w>": 7293,
    "74</w>": 7294,
    "batteries</w>": 7295,
    "restoration</w>": 7296,
    "horthy</w>": 7297,
    "ara</w>": 7298,
    "strait</w>": 7299,
    "destroy</w>": 7300,
    "heavier</w>": 7301,
    "element</w>": 7302,
    "slo": 7303,
    "sloven": 7304,
    "slovenes</w>": 7305,
    "croats</w>": 7306,
    "serbs</w>": 7307,
    "scra": 7308,
    "scrap</w>": 7309,
    "3100</w>": 7310,
    "intri": 7311,
    "hierarchi": 7312,
    "eras</w>": 7313,
    "recognize</w>": 7314,
    "rites</w>": 7315,
    "advice</w>": 7316,
    "relations</w>": 7317,
    "unknown</w>": 7318,
    "vague</w>": 7319,
    "indirect</w>": 7320,
    "itz</w>": 7321,
    "thousan": 7322,
    "thousands</w>": 7323,
    "feminine</w>": 7324,
    "ologies</w>": 7325,
    "tance</w>": 7326,
    "hieroglyphs</w>": 7327,
    "signs</w>": 7328,
    "entrances</w>": 7329,
    "falc": 7330,
    "falcon</w>": 7331,
    "sphere</w>": 7332,
    "deceased</w>": 7333,
    "assmann</w>": 7334,
    "mee": 7335,
    "emin": 7336,
    "origins</w>": 7337,
    "clear": 7338,
    "iconographi": 7339,
    "iconographies</w>": 7340,
    "crossed</w>": 7341,
    "envisioned</w>": 7342,
    "rulers</w>": 7343,
    "interact</w>": 7344,
    "sud": 7345,
    "architects</w>": 7346,
    "neigh": 7347,
    "commoners</w>": 7348,
    "differed</w>": 7349,
    "mistaken</w>": 7350,
    "dei": 7351,
    "notion</w>": 7352,
    "flood</w>": 7353,
    "outgrowth</w>": 7354,
    "prominently</w>": 7355,
    "constan": 7356,
    "constantly</w>": 7357,
    "argues</w>": 7358,
    "specialized</w>": 7359,
    "firm</w>": 7360,
    "harv": 7361,
    "tet</w>": 7362,
    "protective</w>": 7363,
    "advi": 7364,
    "wer": 7365,
    "heka</w>": 7366,
    "periodic</w>": 7367,
    "mythic</w>": 7368,
    "succession</w>": 7369,
    "cannot</w>": 7370,
    "contradic": 7371,
    "multip": 7372,
    "multiplicity</w>": 7373,
    "approaches</w>": 7374,
    "emotion</w>": 7375,
    "die</w>": 7376,
    "thoth</w>": 7377,
    "elab": 7378,
    "withdrawing</w>": 7379,
    "maintain</w>": 7380,
    "grow</w>": 7381,
    "periodic": 7382,
    "periodically</w>": 7383,
    "cle</w>": 7384,
    "amid</w>": 7385,
    "wal</w>": 7386,
    "treated</w>": 7387,
    "ficial</w>": 7388,
    "humanity</w>": 7389,
    "realms</w>": 7390,
    "centered</w>": 7391,
    "express</w>": 7392,
    "relate</w>": 7393,
    "devi": 7394,
    "kar</w>": 7395,
    "describe</w>": 7396,
    "titles</w>": 7397,
    "epithet</w>": 7398,
    "arious</w>": 7399,
    "centers</w>": 7400,
    "alog": 7401,
    "change": 7402,
    "changeable</w>": 7403,
    "fertility</w>": 7404,
    "provin": 7405,
    "merge</w>": 7406,
    "dynast": 7407,
    "dynasty</w>": 7408,
    "empha": 7409,
    "tude</w>": 7410,
    "ennead</w>": 7411,
    "desc": 7412,
    "pto": 7413,
    "ptole": 7414,
    "ptolema": 7415,
    "ptolemaic</w>": 7416,
    "component</w>": 7417,
    "vess": 7418,
    "vessel</w>": 7419,
    "bas</w>": 7420,
    "khenty</w>": 7421,
    "consulted</w>": 7422,
    "judg": 7423,
    "iconography</w>": 7424,
    "syncretism</w>": 7425,
    "syncretized</w>": 7426,
    "separately</w>": 7427,
    "cow</w>": 7428,
    "anub": 7429,
    "anubis</w>": 7430,
    "monotheism</w>": 7431,
    "apparent</w>": 7432,
    "tolerance</w>": 7433,
    "successors</w>": 7434,
    "deep": 7435,
    "debate</w>": 7436,
    "dency</w>": 7437,
    "wisdom</w>": 7438,
    "monotheistic</w>": 7439,
    "describes</w>": 7440,
    "moment</w>": 7441,
    "dismissed</w>": 7442,
    "dominant</w>": 7443,
    "ordinary</w>": 7444,
    "underlying</w>": 7445,
    "buried</w>": 7446,
    "alludes</w>": 7447,
    "resurrection</w>": 7448,
    "anthropomor": 7449,
    "horn</w>": 7450,
    "alone</w>": 7451,
    "use": 7452,
    "tend</w>": 7453,
    "rus</w>": 7454,
    "disagree</w>": 7455,
    "apis</w>": 7456,
    "venue</w>": 7457,
    "sanctuaries</w>": 7458,
    "exception</w>": 7459,
    "prayer</w>": 7460,
    "door": 7461,
    "commands</w>": 7462,
    "uph": 7463,
    "inno": 7464,
    "bring</w>": 7465,
    "asters</w>": 7466,
    "pa": 7467,
    "evil</w>": 7468,
    "misery</w>": 7469,
    "gaining</w>": 7470,
    "festivals</w>": 7471,
    "celebr": 7472,
    "encouraged</w>": 7473,
    "effects</w>": 7474,
    "crops</w>": 7475,
    "invoked</w>": 7476,
    "figur": 7477,
    "canaan</w>": 7478,
    "onic</w>": 7479,
    "exported</w>": 7480,
    "legen": 7481,
    "tris": 7482,
    "persisted</w>": 7483,
    "jam</w>": 7484,
    "certification</w>": 7485,
    "slowed</w>": 7486,
    "uti": 7487,
    "storted</w>": 7488,
    "popmatters</w>": 7489,
    "adrien</w>": 7490,
    "begr": 7491,
    "begrand</w>": 7492,
    "guitari": 7493,
    "guitarist</w>": 7494,
    "discussed</w>": 7495,
    "describing</w>": 7496,
    "dry</w>": 7497,
    "gon": 7498,
    "vocalist</w>": 7499,
    "drummer</w>": 7500,
    "priest</w>": 7501,
    "dissi": 7502,
    "horri": 7503,
    "riff</w>": 7504,
    "ala</w>": 7505,
    "section</w>": 7506,
    "apocalypse</w>": 7507,
    "promotional</w>": 7508,
    "musically</w>": 7509,
    "remembers</w>": 7510,
    "silent</w>": 7511,
    "screa": 7512,
    "scream</w>": 7513,
    "ble": 7514,
    "anic</w>": 7515,
    "lud": 7516,
    "slaugh": 7517,
    "slaughter</w>": 7518,
    "cem": 7519,
    "oked</w>": 7520,
    "pro</w>": 7521,
    "capit": 7522,
    "performances</w>": 7523,
    "ortho": 7524,
    "orthodo": 7525,
    "orthodox</w>": 7526,
    "‘</w>": 7527,
    "groo": 7528,
    "shoot</w>": 7529,
    "isn</w>": 7530,
    "seriously</w>": 7531,
    "replied</w>": 7532,
    "commen": 7533,
    "commenting</w>": 7534,
    "remunerated</w>": 7535,
    "craft</w>": 7536,
    "engined</w>": 7537,
    "taxi</w>": 7538,
    "contribution</w>": 7539,
    "aerobatics</w>": 7540,
    "planes</w>": 7541,
    "farm</w>": 7542,
    "employs</w>": 7543,
    "objective</w>": 7544,
    "prof": 7545,
    "profitable</w>": 7546,
    "arding</w>": 7547,
    "remuneration</w>": 7548,
    "agri": 7549,
    "patrol</w>": 7550,
    "advertise": 7551,
    "advertisement</w>": 7552,
    "restrictive</w>": 7553,
    "aero</w>": 7554,
    "hav": 7555,
    "havill": 7556,
    "havilland</w>": 7557,
    "schem": 7558,
    "1939</w>": 7559,
    "tments</w>": 7560,
    "infra": 7561,
    "infrastructure</w>": 7562,
    "selling</w>": 7563,
    "balloons</w>": 7564,
    "paragli": 7565,
    "alig": 7566,
    "aligned</w>": 7567,
    "involves</w>": 7568,
    "rented</w>": 7569,
    "movements</w>": 7570,
    "visits</w>": 7571,
    "ero": 7572,
    "cost</w>": 7573,
    "cheaper</w>": 7574,
    "wwii</w>": 7575,
    "displays</w>": 7576,
    "competitions</w>": 7577,
    "races</w>": 7578,
    "handi": 7579,
    "handicap": 7580,
    "handicapped</w>": 7581,
    "wing": 7582,
    "slower</w>": 7583,
    "diving</w>": 7584,
    "unlimited</w>": 7585,
    "accuracy</w>": 7586,
    "sky": 7587,
    "airfield</w>": 7588,
    "stock</w>": 7589,
    "actual</w>": 7590,
    "criter": 7591,
    "criteria</w>": 7592,
    "runways</w>": 7593,
    "navigation</w>": 7594,
    "rur": 7595,
    "fuel</w>": 7596,
    "maintenance</w>": 7597,
    "basically</w>": 7598,
    "effective</w>": 7599,
    "unlicensed</w>": 7600,
    "lifted</w>": 7601,
    "ole": 7602,
    "growing</w>": 7603,
    "eu</w>": 7604,
    "specifically</w>": 7605,
    "laa</w>": 7606,
    "nppl</w>": 7607,
    "permits</w>": 7608,
    "bure": 7609,
    "cratic</w>": 7610,
    "respect</w>": 7611,
    "handling</w>": 7612,
    "claiming</w>": 7613,
    "autonom": 7614,
    "mixing</w>": 7615,
    "concentr": 7616,
    "commerci": 7617,
    "discou": 7618,
    "referring</w>": 7619,
    "conc": 7620,
    "concern</w>": 7621,
    "viable</w>": 7622,
    "opinion</w>": 7623,
    "complain": 7624,
    "complaints</w>": 7625,
    "dropping</w>": 7626,
    "drop</w>": 7627,
    "austrians</w>": 7628,
    "sain": 7629,
    "saint</w>": 7630,
    "abroad</w>": 7631,
    "cruiser</w>": 7632,
    "hostili": 7633,
    "hostilities</w>": 7634,
    "wars</w>": 7635,
    "siege</w>": 7636,
    "houses</w>": 7637,
    "slav": 7638,
    "split</w>": 7639,
    "haz": 7640,
    "gged</w>": 7641,
    "gale</w>": 7642,
    "dwarf</w>": 7643,
    "acor": 7644,
    "acorn</w>": 7645,
    "pix": 7646,
    "pixie</w>": 7647,
    "sapro": 7648,
    "saprotrophic</w>": 7649,
    "bio": 7650,
    "biotrophic</w>": 7651,
    "norway</w>": 7652,
    "pez": 7653,
    "pezi": 7654,
    "peziza</w>": 7655,
    "ci</w>": 7656,
    "1879</w>": 7657,
    "gor": 7658,
    "onym</w>": 7659,
    "donald</w>": 7660,
    "ium</w>": 7661,
    "brick</w>": 7662,
    "ules</w>": 7663,
    "scop": 7664,
    "scopic</w>": 7665,
    "parap": 7666,
    "irregular</w>": 7667,
    "od": 7668,
    "characteristic</w>": 7669,
    "substrates</w>": 7670,
    "duff</w>": 7671,
    "obia</w>": 7672,
    "reduc": 7673,
    "enz": 7674,
    "tig</w>": 7675,
    "gal</w>": 7676,
    "minted</w>": 7677,
    "gal": 7678,
    "rush</w>": 7679,
    "coinage</w>": 7680,
    "bechtler</w>": 7681,
    "convenient</w>": 7682,
    "amounts</w>": 7683,
    "va": 7684,
    "quantities</w>": 7685,
    "discussion</w>": 7686,
    "proposal</w>": 7687,
    "hole</w>": 7688,
    "senate</w>": 7689,
    "congressm": 7690,
    "counterfe": 7691,
    "mass": 7692,
    "massachu": 7693,
    "massachuset": 7694,
    "massachusetts</w>": 7695,
    "claims</w>": 7696,
    "exag": 7697,
    "exagger": 7698,
    "exaggerated</w>": 7699,
    "minimal</w>": 7700,
    "law</w>": 7701,
    "frankl": 7702,
    "franklin</w>": 7703,
    "assist</w>": 7704,
    "employee</w>": 7705,
    "favorable</w>": 7706,
    "salt</w>": 7707,
    "numismatic</w>": 7708,
    "orle": 7709,
    "orleans</w>": 7710,
    "1850</w>": 7711,
    "quarter</w>": 7712,
    "provo": 7713,
    "ensure</w>": 7714,
    "advocated</w>": 7715,
    "stalled</w>": 7716,
    "striking</w>": 7717,
    "trouble</w>": 7718,
    "detailed</w>": 7719,
    "fea": 7720,
    "resembling</w>": 7721,
    "blending</w>": 7722,
    "1850s</w>": 7723,
    "mintages</w>": 7724,
    "voted</w>": 7725,
    "survived</w>": 7726,
    "commission</w>": 7727,
    "premium</w>": 7728,
    "abolition</w>": 7729,
    "collecting</w>": 7730,
    "strikes</w>": 7731,
    "sumption</w>": 7732,
    "limiting</w>": 7733,
    "chemi": 7734,
    "chemistry</w>": 7735,
    "cyclo": 7736,
    "ket": 7737,
    "favoring</w>": 7738,
    "substitution</w>": 7739,
    "syntheses</w>": 7740,
    "fluor": 7741,
    "aldehydes</w>": 7742,
    "phosp": 7743,
    "sulfani": 7744,
    "sulfanium": 7745,
    "sulfaniumyl</w>": 7746,
    "methani": 7747,
    "methanide</w>": 7748,
    "diastereoselectivity</w>": 7749,
    "rotation</w>": 7750,
    "vation</w>": 7751,
    "application</w>": 7752,
    "weaker</w>": 7753,
    "alkyl": 7754,
    "stabilized</w>": 7755,
    "esters</w>": 7756,
    "variations</w>": 7757,
    "icyc": 7758,
    "carben": 7759,
    "carbenoid</w>": 7760,
    "enantiom": 7761,
    "ee</w>": 7762,
    "academic</w>": 7763,
    "stoichi": 7764,
    "stoichiometric</w>": 7765,
    "erg": 7766,
    "ramón</w>": 7767,
    "bent</w>": 7768,
    "jos": 7769,
    "josé</w>": 7770,
    "occasions</w>": 7771,
    "judges</w>": 7772,
    "tionist</w>": 7773,
    "election</w>": 7774,
    "luis</w>": 7775,
    "guerr": 7776,
    "guerrer": 7777,
    "guerrero</w>": 7778,
    "chihuahua</w>": 7779,
    "pascu": 7780,
    "pascual</w>": 7781,
    "upris": 7782,
    "uprisings</w>": 7783,
    "ignored</w>": 7784,
    "huer": 7785,
    "huerta</w>": 7786,
    "landown": 7787,
    "landowners</w>": 7788,
    "rebels</w>": 7789,
    "ashed</w>": 7790,
    "dictat": 7791,
    "dictator": 7792,
    "dictatorship</w>": 7793,
    "recounting</w>": 7794,
    "aunt</w>": 7795,
    "persecu": 7796,
    "persecution</w>": 7797,
    "recalls</w>": 7798,
    "atro": 7799,
    "atrocities</w>": 7800,
    "absolute</w>": 7801,
    "reviewers</w>": 7802,
    "isab": 7803,
    "tomas</w>": 7804,
    "comment</w>": 7805,
    "memories</w>": 7806,
    "compelled</w>": 7807,
    "confront</w>": 7808,
    "disgrace</w>": 7809,
    "yal</w>": 7810,
    "lie</w>": 7811,
    "ppe": 7812,
    "garc": 7813,
    "garcía</w>": 7814,
    "chapters</w>": 7815,
    "impoten": 7816,
    "impotence</w>": 7817,
    "traum": 7818,
    "fas": 7819,
    "emotional</w>": 7820,
    "imagin": 7821,
    "leads</w>": 7822,
    "cia</w>": 7823,
    "supporter</w>": 7824,
    "unsuccessful</w>": 7825,
    "sections</w>": 7826,
    "maza</w>": 7827,
    "loyalty</w>": 7828,
    "personality</w>": 7829,
    "promotion</w>": 7830,
    "mirab": 7831,
    "mirabal</w>": 7832,
    "fathers</w>": 7833,
    "behaviour</w>": 7834,
    "hyper</w>": 7835,
    "aming</w>": 7836,
    "tim</w>": 7837,
    "rui": 7838,
    "ruiz</w>": 7839,
    "discourse</w>": 7840,
    "atmospheric</w>": 7841,
    "server</w>": 7842,
    "1979</w>": 7843,
    "bat": 7844,
    "batchelor</w>": 7845,
    "indies</w>": 7846,
    "consul</w>": 7847,
    "indon": 7848,
    "indone": 7849,
    "canber": 7850,
    "canberra</w>": 7851,
    "raf</w>": 7852,
    "undertake</w>": 7853,
    "migr": 7854,
    "flew</w>": 7855,
    "desert</w>": 7856,
    "wave</w>": 7857,
    "clou": 7858,
    "biplane</w>": 7859,
    "arre": 7860,
    "airmen</w>": 7861,
    "ansons</w>": 7862,
    "nwa</w>": 7863,
    "beaufighters</w>": 7864,
    "mitchells</w>": 7865,
    "republi": 7866,
    "republican</w>": 7867,
    "acclaimed</w>": 7868,
    "improvi": 7869,
    "improvisati": 7870,
    "improvisational</w>": 7871,
    "wann": 7872,
    "wannab": 7873,
    "megam": 7874,
    "megamind</w>": 7875,
    "ographical</w>": 7876,
    "satirical</w>": 7877,
    "acclaim</w>": 7878,
    "ratings</w>": 7879,
    "comedians</w>": 7880,
    "watching</w>": 7881,
    "cather": 7882,
    "catherine</w>": 7883,
    "virgin": 7884,
    "virginia</w>": 7885,
    "rach": 7886,
    "rachel</w>": 7887,
    "buy</w>": 7888,
    "fallon</w>": 7889,
    "precisely</w>": 7890,
    "stein</w>": 7891,
    "nominations</w>": 7892,
    "jane</w>": 7893,
    "hunger</w>": 7894,
    "173</w>": 7895,
    "imperson": 7896,
    "impersonation</w>": 7897,
    "persona</w>": 7898,
    "does": 7899,
    "doesn</w>": 7900,
    "defended</w>": 7901,
    "master</w>": 7902,
    "entertainers</w>": 7903,
    "praise</w>": 7904,
    "autism</w>": 7905,
    "cheek</w>": 7906,
    "ure": 7907,
    "superwasp</w>": 7908,
    "radial</w>": 7909,
    "scientists</w>": 7910,
    "orbits</w>": 7911,
    "orbital</w>": 7912,
    "orbiting</w>": 7913,
    "radi": 7914,
    "sculpted</w>": 7915,
    "harbour</w>": 7916,
    "mahar": 7917,
    "maharash": 7918,
    "maharashtra</w>": 7919,
    "hewn</w>": 7920,
    "traces</w>": 7921,
    "asi</w>": 7922,
    "ravine</w>": 7923,
    "conjec": 7924,
    "kalachu": 7925,
    "kalachuris</w>": 7926,
    "rashtrakut": 7927,
    "rashtrakutas</w>": 7928,
    "resembles</w>": 7929,
    "ardhanari": 7930,
    "ardhanarishvara</w>": 7931,
    "chalukyan</w>": 7932,
    "damaging</w>": 7933,
    "architectural</w>": 7934,
    "abode</w>": 7935,
    "gup": 7936,
    "gupta</w>": 7937,
    "gangad": 7938,
    "gangadhara</w>": 7939,
    "ganges</w>": 7940,
    "thread</w>": 7941,
    "covering</w>": 7942,
    "karti": 7943,
    "kartike": 7944,
    "kartikeya</w>": 7945,
    "skele": 7946,
    "skeleton</w>": 7947,
    "bhring": 7948,
    "bhringi</w>": 7949,
    "amidst</w>": 7950,
    "showering</w>": 7951,
    "ganesha</w>": 7952,
    "bhair": 7953,
    "bhairava</w>": 7954,
    "shoulder</w>": 7955,
    "inferred</w>": 7956,
    "jewelled</w>": 7957,
    "skull</w>": 7958,
    "discerned</w>": 7959,
    "nich": 7960,
    "niche</w>": 7961,
    "adorned</w>": 7962,
    "moon</w>": 7963,
    "yogic</w>": 7964,
    "lotus</w>": 7965,
    "plantain</w>": 7966,
    "gate</w>": 7967,
    "courtyard</w>": 7968,
    "sten": 7969,
    "altar</w>": 7970,
    "structures</w>": 7971,
    "toured</w>": 7972,
    "hiatus</w>": 7973,
    "moni": 7974,
    "moniker</w>": 7975,
    "frank</w>": 7976,
    "zapp": 7977,
    "zappa</w>": 7978,
    "jo</w>": 7979,
    "beav</w>": 7980,
    "wadde": 7981,
    "waddell</w>": 7982,
    "wild": 7983,
    "wildhe": 7984,
    "wildhearts</w>": 7985,
    "entitled</w>": 7986,
    "stream</w>": 7987,
    "terria</w>": 7988,
    "learned</w>": 7989,
    "synchestra</w>": 7990,
    "evolution</w>": 7991,
    "meshu": 7992,
    "meshugg": 7993,
    "meshuggah</w>": 7994,
    "anne": 7995,
    "anneke</w>": 7996,
    "gier": 7997,
    "giers": 7998,
    "giersber": 7999,
    "giersbergen</w>": 8000,
    "headl": 8001,
    "deconstruction</w>": 8002,
    "epic": 8003,
    "epicloud</w>": 8004,
    "footage</w>": 8005,
    "genres</w>": 8006,
    "1867</w>": 8007,
    "fö": 8008,
    "för": 8009,
    "förster</w>": 8010,
    "arch</w>": 8011,
    "usta": 8012,
    "ustaš": 8013,
    "ustaša</w>": 8014,
    "grivi": 8015,
    "grivičić</w>": 8016,
    "carolin": 8017,
    "jer": 8018,
    "jersey</w>": 8019,
    "washed</w>": 8020,
    "upro": 8021,
    "uprooted</w>": 8022,
    "conduct</w>": 8023,
    "protests</w>": 8024,
    "penal</w>": 8025,
    "europan</w>": 8026,
    "designer</w>": 8027,
    "raita</w>": 8028,
    "hito": 8029,
    "hitoshi</w>": 8030,
    "take": 8031,
    "takeshi</w>": 8032,
    "handled</w>": 8033,
    "download": 8034,
    "downloadable</w>": 8035,
    "manga</w>": 8036,
    "animation</w>": 8037,
    "localized</w>": 8038,
    "valkyir": 8039,
    "valkyira</w>": 8040,
    "portraits</w>": 8041,
    "speech</w>": 8042,
    "progresses</w>": 8043,
    "linear</w>": 8044,
    "omi": 8045,
    "occurs</w>": 8046,
    "completion</w>": 8047,
    "blitz</w>": 8048,
    "expense</w>": 8049,
    "gauge</w>": 8050,
    "hp</w>": 8051,
    "learn</w>": 8052,
    "temporary</w>": 8053,
    "activate</w>": 8054,
    "ila</w>": 8055,
    "target</w>": 8056,
    "outs</w>": 8057,
    "troopers</w>": 8058,
    "engineers</w>": 8059,
    "affect</w>": 8060,
    "stats</w>": 8061,
    "deserters</w>": 8062,
    "erased</w>": 8063,
    "dangerous</w>": 8064,
    "exemp": 8065,
    "exempli": 8066,
    "exemplified</w>": 8067,
    "treason</w>": 8068,
    "wishes</w>": 8069,
    "rede": 8070,
    "redeem</w>": 8071,
    "specialist</w>": 8072,
    "seeks</w>": 8073,
    "dant</w>": 8074,
    "explo": 8075,
    "plau": 8076,
    "plausible</w>": 8077,
    "incur": 8078,
    "enraged</w>": 8079,
    "trait": 8080,
    "traitor</w>": 8081,
    "desper": 8082,
    "alive</w>": 8083,
    "crowe</w>": 8084,
    "erating</w>": 8085,
    "suffers</w>": 8086,
    "anonym": 8087,
    "shad": 8088,
    "shadow</w>": 8089,
    "maximilian</w>": 8090,
    "defeat</w>": 8091,
    "valkyrian</w>": 8092,
    "super</w>": 8093,
    "benefactor</w>": 8094,
    "certain": 8095,
    "decides</w>": 8096,
    "predecessor</w>": 8097,
    "wanting</w>": 8098,
    "mechanics</w>": 8099,
    "improve</w>": 8100,
    "scenario</w>": 8101,
    "yam": 8102,
    "ano": 8103,
    "fujii</w>": 8104,
    "ishi": 8105,
    "agi</w>": 8106,
    "tak": 8107,
    "ji</w>": 8108,
    "darker</w>": 8109,
    "graphi": 8110,
    "graphics</w>": 8111,
    "models</w>": 8112,
    "adjusted</w>": 8113,
    "ease</w>": 8114,
    "retaining</w>": 8115,
    "newer</w>": 8116,
    "essentially</w>": 8117,
    "identify</w>": 8118,
    "orchestra</w>": 8119,
    "synthesi": 8120,
    "segments</w>": 8121,
    "synthesized</w>": 8122,
    "hiro</w>": 8123,
    "mo</w>": 8124,
    "fought</w>": 8125,
    "ayashi": 8126,
    "ayashi</w>": 8127,
    "singles</w>": 8128,
    "famit": 8129,
    "famitsu</w>": 8130,
    "tgs</w>": 8131,
    "attende": 8132,
    "attendees</w>": 8133,
    "publicity</w>": 8134,
    "scant</w>": 8135,
    "capac": 8136,
    "capacity</w>": 8137,
    "sp</w>": 8138,
    "unofficial</w>": 8139,
    "copy</w>": 8140,
    "translated</w>": 8141,
    "topped</w>": 8142,
    "152</w>": 8143,
    "gaming</w>": 8144,
    "negatively</w>": 8145,
    "pacing</w>": 8146,
    "entertaining</w>": 8147,
    "spikes</w>": 8148,
    "ps": 8149,
    "psn</w>": 8150,
    "anno": 8151,
    "remo": 8152,
    "praising</w>": 8153,
    "occasional</w>": 8154,
    "completing</w>": 8155,
    "citing</w>": 8156,
    "tag": 8157,
    "wound</w>": 8158,
    "someone</w>": 8159,
    "editions</w>": 8160,
    "rivals</w>": 8161,
    "suffer</w>": 8162,
    "kubin": 8163,
    "kubinka</w>": 8164,
    "stripped</w>": 8165,
    "consequence</w>": 8166,
    "tanks</w>": 8167,
    "overturned</w>": 8168,
    "tomo": 8169,
    "tomoshi": 8170,
    "tomoshibi</w>": 8171,
    "ayl": 8172,
    "の花": 8173,
    "の花</w>": 8174,
    "hana</w>": 8175,
    "rib": 8176,
    "respective</w>": 8177,
    "protag": 8178,
    "protagoni": 8179,
    "aki</w>": 8180,
    "oath</w>": 8181,
    "sa</w>": 8182,
    "volume</w>": 8183,
    "ok": 8184,
    "1840</w>": 8185,
    "install": 8186,
    "decommissioning</w>": 8187,
    "1894</w>": 8188,
    "receives</w>": 8189,
    "olde": 8190,
    "oldest</w>": 8191,
    "birthplace</w>": 8192,
    "perceived</w>": 8193,
    "inadequate</w>": 8194,
    "exterior</w>": 8195,
    "gaz": 8196,
    "gazette</w>": 8197,
    "splen": 8198,
    "splendid</w>": 8199,
    "simple</w>": 8200,
    "staff": 8201,
    "staffed</w>": 8202,
    "deleg": 8203,
    "delegates</w>": 8204,
    "shall</w>": 8205,
    "futile</w>": 8206,
    "dispat": 8207,
    "dispatched</w>": 8208,
    "confirmed</w>": 8209,
    "sic</w>": 8210,
    "item</w>": 8211,
    "procession</w>": 8212,
    "assemble</w>": 8213,
    "guaran": 8214,
    "guarantee</w>": 8215,
    "ordering</w>": 8216,
    "believing</w>": 8217,
    "confli": 8218,
    "conflict</w>": 8219,
    "executive</w>": 8220,
    "collision</w>": 8221,
    "inaugur": 8222,
    "afternoon</w>": 8223,
    "marched</w>": 8224,
    "classified</w>": 8225,
    "ware": 8226,
    "fabrication</w>": 8227,
    "repairs</w>": 8228,
    "scr": 8229,
    "scratch</w>": 8230,
    "seiz": 8231,
    "seizure</w>": 8232,
    "247</w>": 8233,
    "250</w>": 8234,
    "musket</w>": 8235,
    "bron": 8236,
    "inventory</w>": 8237,
    "53</w>": 8238,
    "smooth": 8239,
    "muskets</w>": 8240,
    "toon</w>": 8241,
    "sketch": 8242,
    "regiments</w>": 8243,
    "mustered</w>": 8244,
    "flintlocks</w>": 8245,
    "9th</w>": 8246,
    "compani": 8247,
    "kel": 8248,
    "battali": 8249,
    "battalion</w>": 8250,
    "12": 8251,
    "12th</w>": 8252,
    "exhau": 8253,
    "junker</w>": 8254,
    "jackson</w>": 8255,
    "vick": 8256,
    "destitute</w>": 8257,
    "armory</w>": 8258,
    "collection</w>": 8259,
    "quantity</w>": 8260,
    "mines</w>": 8261,
    "cast": 8262,
    "nit": 8263,
    "nothing</w>": 8264,
    "sufficient</w>": 8265,
    "rapidly</w>": 8266,
    "scar": 8267,
    "documents</w>": 8268,
    "gunsmi": 8269,
    "gunsmiths</w>": 8270,
    "impressed</w>": 8271,
    "repair</w>": 8272,
    "commenced</w>": 8273,
    "observing</w>": 8274,
    "spirit</w>": 8275,
    "lances</w>": 8276,
    "vated</w>": 8277,
    "ponchar": 8278,
    "ponchartrain</w>": 8279,
    "rank</w>": 8280,
    "col</w>": 8281,
    "vol</w>": 8282,
    "iv</w>": 8283,
    "rebel</w>": 8284,
    "lighten": 8285,
    "persons</w>": 8286,
    "shops</w>": 8287,
    "employment</w>": 8288,
    "murphy</w>": 8289,
    "carpen": 8290,
    "packing</w>": 8291,
    "boxes</w>": 8292,
    "fabricated</w>": 8293,
    "117</w>": 8294,
    "cani": 8295,
    "52</w>": 8296,
    "illumin": 8297,
    "packed</w>": 8298,
    "obe": 8299,
    "steel": 8300,
    "steele</w>": 8301,
    "recap": 8302,
    "recaptured</w>": 8303,
    "drick</w>": 8304,
    "seized</w>": 8305,
    "loyalists</w>": 8306,
    "renovation</w>": 8307,
    "stairc": 8308,
    "1880</w>": 8309,
    "northwest</w>": 8310,
    "1880s</w>": 8311,
    "roads</w>": 8312,
    "washington</w>": 8313,
    "1890</w>": 8314,
    "mountain</w>": 8315,
    "demolished</w>": 8316,
    "columbian</w>": 8317,
    "displayed</w>": 8318,
    "meet": 8319,
    "meetings</w>": 8320,
    "fifty</w>": 8321,
    "electric</w>": 8322,
    "veterans</w>": 8323,
    "exists</w>": 8324,
    "register</w>": 8325,
    "renovated</w>": 8326,
    "philan": 8327,
    "philanthro": 8328,
    "bab": 8329,
    "preserve</w>": 8330,
    "cicely</w>": 8331,
    "illustrations</w>": 8332,
    "girlhood</w>": 8333,
    "correspondence</w>": 8334,
    "courses</w>": 8335,
    "juven": 8336,
    "donated</w>": 8337,
    "art": 8338,
    "sionary</w>": 8339,
    "pen</w>": 8340,
    "oils</w>": 8341,
    "past": 8342,
    "pastels</w>": 8343,
    "raphae": 8344,
    "raphaelites</w>": 8345,
    "principal</w>": 8346,
    "paint</w>": 8347,
    "instin": 8348,
    "instinctively</w>": 8349,
    "partner</w>": 8350,
    "seed</w>": 8351,
    "oswal": 8352,
    "oswald</w>": 8353,
    "surre": 8354,
    "surrey</w>": 8355,
    "cook</w>": 8356,
    "nur": 8357,
    "teaching</w>": 8358,
    "sover": 8359,
    "soverei": 8360,
    "seventeen</w>": 8361,
    "annuals</w>": 8362,
    "sir</w>": 8363,
    "yle</w>": 8364,
    "barri": 8365,
    "outh": 8366,
    "outhwa": 8367,
    "outhwaite</w>": 8368,
    "elves</w>": 8369,
    "publish": 8370,
    "publishers</w>": 8371,
    "publication</w>": 8372,
    "dion</w>": 8373,
    "exqui": 8374,
    "manship</w>": 8375,
    "1924</w>": 8376,
    "churches</w>": 8377,
    "privi": 8378,
    "canon</w>": 8379,
    "model": 8380,
    "1958</w>": 8381,
    "atmosphere</w>": 8382,
    "garden": 8383,
    "gardens</w>": 8384,
    "specimen": 8385,
    "specimens</w>": 8386,
    "leaves</w>": 8387,
    "plant</w>": 8388,
    "doubt</w>": 8389,
    "focusing</w>": 8390,
    "trips</w>": 8391,
    "sus": 8392,
    "sussex</w>": 8393,
    "margar": 8394,
    "margaret</w>": 8395,
    "tarrant</w>": 8396,
    "barn": 8397,
    "manage</w>": 8398,
    "restored</w>": 8399,
    "maison": 8400,
    "maisonette</w>": 8401,
    "bequ": 8402,
    "bequea": 8403,
    "residence</w>": 8404,
    "funeral</w>": 8405,
    "properties</w>": 8406,
    "competent</w>": 8407,
    "turing</w>": 8408,
    "interesting</w>": 8409,
    "child": 8410,
    "childhood</w>": 8411,
    "wear</w>": 8412,
    "clothing</w>": 8413,
    "printing</w>": 8414,
    "technical</w>": 8415,
    "admitted</w>": 8416,
    "ett</w>": 8417,
    "charitable</w>": 8418,
    "institutions</w>": 8419,
    "sponsor": 8420,
    "sponsored</w>": 8421,
    "exhibited</w>": 8422,
    "pictu": 8423,
    "picture": 8424,
    "picturesqu": 8425,
    "picturesque</w>": 8426,
    "seaside</w>": 8427,
    "tale</w>": 8428,
    "river": 8429,
    "jenny</w>": 8430,
    "rescues</w>": 8431,
    "birthday</w>": 8432,
    "friend": 8433,
    "friendly</w>": 8434,
    "book": 8435,
    "propag": 8436,
    "penar": 8437,
    "penarth</w>": 8438,
    "parable</w>": 8439,
    "supper</w>": 8440,
    "1934</w>": 8441,
    "photograph</w>": 8442,
    "sacram": 8443,
    "sacraments</w>": 8444,
    "tribul": 8445,
    "tribulation</w>": 8446,
    "norbury</w>": 8447,
    "dist</w>": 8448,
    "preparing</w>": 8449,
    "salmon</w>": 8450,
    "holiday</w>": 8451,
    "colton</w>": 8452,
    "1927</w>": 8453,
    "printed</w>": 8454,
    "1955</w>": 8455,
    "1957</w>": 8456,
    "fairyo": 8457,
    "fairyopolis</w>": 8458,
    "wild</w>": 8459,
    "43</w>": 8460,
    "1922</w>": 8461,
    "triptych</w>": 8462,
    "abe": 8463,
    "sford</w>": 8464,
    "letter": 8465,
    "lettering</w>": 8466,
    "andrews</w>": 8467,
    "challenges</w>": 8468,
    "azerb": 8469,
    "azerbai": 8470,
    "azerbaijan</w>": 8471,
    "sier": 8472,
    "sierra</w>": 8473,
    "leone</w>": 8474,
    "qualifying</w>": 8475,
    "tournament</w>": 8476,
    "delayed</w>": 8477,
    "rights</w>": 8478,
    "targeting</w>": 8479,
    "assistance</w>": 8480,
    "reten": 8481,
    "retention</w>": 8482,
    "affili": 8483,
    "1968</w>": 8484,
    "organized</w>": 8485,
    "representation</w>": 8486,
    "shallow</w>": 8487,
    "soft</w>": 8488,
    "reaching</w>": 8489,
    "width</w>": 8490,
    "diamond</w>": 8491,
    "pector": 8492,
    "pectoral</w>": 8493,
    "caride": 8494,
    "caridean</w>": 8495,
    "shri": 8496,
    "shrimp</w>": 8497,
    "bony</w>": 8498,
    "fishes</w>": 8499,
    "vivi": 8500,
    "vivipar": 8501,
    "viviparous</w>": 8502,
    "histo": 8503,
    "histotro": 8504,
    "histotroph</w>": 8505,
    "uterine</w>": 8506,
    "milk</w>": 8507,
    "inciden": 8508,
    "iu": 8509,
    "iuc": 8510,
    "iucn</w>": 8511,
    "taxonomy</w>": 8512,
    "ored</w>": 8513,
    "memo": 8514,
    "refers</w>": 8515,
    "coloration</w>": 8516,
    "ypes</w>": 8517,
    "dasyatis</w>": 8518,
    "kuh": 8519,
    "kuhlii</w>": 8520,
    "mole": 8521,
    "phylogene": 8522,
    "phylogenetic</w>": 8523,
    "dna</w>": 8524,
    "ning": 8525,
    "ningal": 8526,
    "~</w>": 8527,
    "suggesting</w>": 8528,
    "precipit": 8529,
    "split": 8530,
    "splitting</w>": 8531,
    "narrow": 8532,
    "outer</w>": 8533,
    "corners</w>": 8534,
    "measuring</w>": 8535,
    "gently</w>": 8536,
    "pointed</w>": 8537,
    "tip</w>": 8538,
    "skirt</w>": 8539,
    "bears</w>": 8540,
    "slen": 8541,
    "slender</w>": 8542,
    "papill": 8543,
    "papillae</w>": 8544,
    "vic</w>": 8545,
    "fins</w>": 8546,
    "fairly</w>": 8547,
    "intact</w>": 8548,
    "flattened</w>": 8549,
    "ventr": 8550,
    "ventral</w>": 8551,
    "shorter</w>": 8552,
    "dorsal</w>": 8553,
    "derm": 8554,
    "aced</w>": 8555,
    "habitat</w>": 8556,
    "wel": 8557,
    "bonapar": 8558,
    "bonaparte</w>": 8559,
    "gulf</w>": 8560,
    "seas</w>": 8561,
    "prefers</w>": 8562,
    "diment</w>": 8563,
    "203</w>": 8564,
    "tends</w>": 8565,
    "farther</w>": 8566,
    "biology</w>": 8567,
    "ecolog": 8568,
    "ecology</w>": 8569,
    "prey</w>": 8570,
    "diet</w>": 8571,
    "eaten</w>": 8572,
    "prawn</w>": 8573,
    "esi</w>": 8574,
    "mature</w>": 8575,
    "litter</w>": 8576,
    "males</w>": 8577,
    "matu": 8578,
    "maturity</w>": 8579,
    "capture</w>": 8580,
    "fish": 8581,
    "unlikely</w>": 8582,
    "chinese</w>": 8583,
    "assessed</w>": 8584,
    "fare</w>": 8585,
    "prospect</w>": 8586,
    "rebuild</w>": 8587,
    "tying</w>": 8588,
    "helping</w>": 8589,
    "jak": 8590,
    "islan": 8591,
    "islanders</w>": 8592,
    "nikita</w>": 8593,
    "filat": 8594,
    "filatov</w>": 8595,
    "otta": 8596,
    "ottawa</w>": 8597,
    "questioned</w>": 8598,
    "dek": 8599,
    "dekani": 8600,
    "dekanich</w>": 8601,
    "ahl</w>": 8602,
    "groin</w>": 8603,
    "milest": 8604,
    "milestones</w>": 8605,
    "moore</w>": 8606,
    "tum</w>": 8607,
    "culmin": 8608,
    "struggling</w>": 8609,
    "coached</w>": 8610,
    "frui": 8611,
    "fruition</w>": 8612,
    "bruins</w>": 8613,
    "posting</w>": 8614,
    "warm</w>": 8615,
    "ups</w>": 8616,
    "tempor": 8617,
    "temporarily</w>": 8618,
    "continuing</w>": 8619,
    "discussions</w>": 8620,
    "inqu": 8621,
    "demanded</w>": 8622,
    "unsure</w>": 8623,
    "approaching</w>": 8624,
    "fortun": 8625,
    "owner</w>": 8626,
    "mccon": 8627,
    "mcconn": 8628,
    "mcconnell</w>": 8629,
    "frustration</w>": 8630,
    "committed</w>": 8631,
    "prou": 8632,
    "proud</w>": 8633,
    "protest</w>": 8634,
    "arena</w>": 8635,
    "insur": 8636,
    "insurance</w>": 8637,
    "amaz": 8638,
    "amazing</w>": 8639,
    "stopping</w>": 8640,
    "wronged</w>": 8641,
    "inves": 8642,
    "investi": 8643,
    "manufacturer</w>": 8644,
    "viewing</w>": 8645,
    "proposals</w>": 8646,
    "actively</w>": 8647,
    "improving</w>": 8648,
    "ask</w>": 8649,
    "dealt</w>": 8650,
    "mcel": 8651,
    "mcelhin": 8652,
    "mcelhinney</w>": 8653,
    "flexibility</w>": 8654,
    "samuel</w>": 8655,
    "sson</w>": 8656,
    "ell": 8657,
    "phase</w>": 8658,
    "huge</w>": 8659,
    "color": 8660,
    "colorado</w>": 8661,
    "aval": 8662,
    "avalanch": 8663,
    "avalanche</w>": 8664,
    "victories</w>": 8665,
    "conten": 8666,
    "contention</w>": 8667,
    "starter</w>": 8668,
    "leap": 8669,
    "secure</w>": 8670,
    "divisions</w>": 8671,
    "statistic</w>": 8672,
    "gp</w>": 8673,
    "sv</w>": 8674,
    "michi": 8675,
    "michigan</w>": 8676,
    "astronomy</w>": 8677,
    "drove</w>": 8678,
    "vac": 8679,
    "transactions</w>": 8680,
    "hej": 8681,
    "hejda</w>": 8682,
    "anton</w>": 8683,
    "stral": 8684,
    "stralman</w>": 8685,
    "lepist": 8686,
    "lepisto</w>": 8687,
    "valued</w>": 8688,
    "replace</w>": 8689,
    "martinek</w>": 8690,
    "gall": 8691,
    "connects</w>": 8692,
    "belve": 8693,
    "belved": 8694,
    "belvedere</w>": 8695,
    "aposto": 8696,
    "apostolic</w>": 8697,
    "palace</w>": 8698,
    "1580</w>": 8699,
    "architect</w>": 8700,
    "gregory</w>": 8701,
    "1582</w>": 8702,
    "vatican": 8703,
    "vaticana</w>": 8704,
    "confirm": 8705,
    "confirmation</w>": 8706,
    "motu</w>": 8707,
    "propri": 8708,
    "proprio</w>": 8709,
    "mystic": 8710,
    "mysticam</w>": 8711,
    "1891</w>": 8712,
    "veri": 8713,
    "suit</w>": 8714,
    "expert</w>": 8715,
    "73</w>": 8716,
    "falling</w>": 8717,
    "ignaz": 8718,
    "ignazio</w>": 8719,
    "danti</w>": 8720,
    "peru": 8721,
    "plate</w>": 8722,
    "17th</w>": 8723,
    "mgr": 8724,
    "mgr</w>": 8725,
    "basilica</w>": 8726,
    "approval</w>": 8727,
    "inscri": 8728,
    "inscription</w>": 8729,
    "apart</w>": 8730,
    "normal</w>": 8731,
    "ices</w>": 8732,
    "pend": 8733,
    "pendul": 8734,
    "pendulum</w>": 8735,
    "faci": 8736,
    "facilit": 8737,
    "occurren": 8738,
    "occurrences</w>": 8739,
    "eclip": 8740,
    "satel": 8741,
    "patron": 8742,
    "87</w>": 8743,
    "denza</w>": 8744,
    "generous</w>": 8745,
    "gift</w>": 8746,
    "upgraded</w>": 8747,
    "ick": 8748,
    "gust": 8749,
    "ez</w>": 8750,
    "1905</w>": 8751,
    "roof</w>": 8752,
    "towers</w>": 8753,
    "linking</w>": 8754,
    "spann": 8755,
    "spanning</w>": 8756,
    "gap</w>": 8757,
    "heliogra": 8758,
    "heliograph</w>": 8759,
    "camera</w>": 8760,
    "erected</w>": 8761,
    "modifications</w>": 8762,
    "academy</w>": 8763,
    "shifted</w>": 8764,
    "machines</w>": 8765,
    "plates</w>": 8766,
    "las</w>": 8767,
    "fresco": 8768,
    "frescoes</w>": 8769,
    "additions</w>": 8770,
    "anemo": 8771,
    "anemoscope</w>": 8772,
    "pher</w>": 8773,
    "ship": 8774,
    "wrecks</w>": 8775,
    "jesus</w>": 8776,
    "ric</w>": 8777,
    "session</w>": 8778,
    "addre": 8779,
    "racism</w>": 8780,
    "aspir": 8781,
    "aspirational</w>": 8782,
    "inju": 8783,
    "engineering</w>": 8784,
    "bian": 8785,
    "horns</w>": 8786,
    "billy</w>": 8787,
    "ammed</w>": 8788,
    "activism</w>": 8789,
    "connect</w>": 8790,
    "denoun": 8791,
    "alistic</w>": 8792,
    "trev": 8793,
    "trevor</w>": 8794,
    "anderson</w>": 8795,
    "melodic</w>": 8796,
    "opener</w>": 8797,
    "highligh": 8798,
    "empty</w>": 8799,
    "clips</w>": 8800,
    "oes</w>": 8801,
    "newspap": 8802,
    "newspapers</w>": 8803,
    "leaning</w>": 8804,
    "remix</w>": 8805,
    "travels</w>": 8806,
    "east": 8807,
    "intersection</w>": 8808,
    "rural</w>": 8809,
    "travel</w>": 8810,
    "sixteen</w>": 8811,
    "morri": 8812,
    "morrill</w>": 8813,
    "pum": 8814,
    "pump": 8815,
    "pumpkin</w>": 8816,
    "red": 8817,
    "ail</w>": 8818,
    "rocks</w>": 8819,
    "railway</w>": 8820,
    "calcul": 8821,
    "410</w>": 8822,
    "highways</w>": 8823,
    "defense</w>": 8824,
    "renum": 8825,
    "renumbered</w>": 8826,
    "1981</w>": 8827,
    "blockaders</w>": 8828,
    "rearmed</w>": 8829,
    "glas": 8830,
    "glasg": 8831,
    "glasgow</w>": 8832,
    "scotland</w>": 8833,
    "dab": 8834,
    "scales</w>": 8835,
    "tonn": 8836,
    "equipped</w>": 8837,
    "generated</w>": 8838,
    "deliver</w>": 8839,
    "bermu": 8840,
    "bermuda</w>": 8841,
    "ock</w>": 8842,
    "rende": 8843,
    "rendez": 8844,
    "rendezv": 8845,
    "oused</w>": 8846,
    "holy": 8847,
    "holyhead</w>": 8848,
    "sic": 8849,
    "instructing</w>": 8850,
    "afford</w>": 8851,
    "stephen</w>": 8852,
    "sell</w>": 8853,
    "impossible</w>": 8854,
    "occupation</w>": 8855,
    "deck</w>": 8856,
    "horizon": 8857,
    "rolled</w>": 8858,
    "vertically</w>": 8859,
    "backed</w>": 8860,
    "508</w>": 8861,
    "waterline</w>": 8862,
    "pyr": 8863,
    "pilothouse</w>": 8864,
    "shutter</w>": 8865,
    "piercing</w>": 8866,
    "bolts</w>": 8867,
    "steel</w>": 8868,
    "spar</w>": 8869,
    "trials</w>": 8870,
    "waters</w>": 8871,
    "leaked</w>": 8872,
    "intoler": 8873,
    "intolerable</w>": 8874,
    "comfort": 8875,
    "infer": 8876,
    "fix</w>": 8877,
    "flag</w>": 8878,
    "obst": 8879,
    "obstacles</w>": 8880,
    "manner</w>": 8881,
    "ordination</w>": 8882,
    "none": 8883,
    "nonetheless</w>": 8884,
    "prevented</w>": 8885,
    "waiting</w>": 8886,
    "wassa": 8887,
    "wassaw</w>": 8888,
    "retreat</w>": 8889,
    "dissatisfied</w>": 8890,
    "aggressi": 8891,
    "aggressiven": 8892,
    "aggressiveness</w>": 8893,
    "pull</w>": 8894,
    "meantime</w>": 8895,
    "eas": 8896,
    "easy</w>": 8897,
    "sink</w>": 8898,
    "tow</w>": 8899,
    "aboard</w>": 8900,
    "spotted</w>": 8901,
    "sand": 8902,
    "sandbar</w>": 8903,
    "yards</w>": 8904,
    "38": 8905,
    "spra": 8906,
    "spraying</w>": 8907,
    "splin": 8908,
    "abled</w>": 8909,
    "clean": 8910,
    "woun": 8911,
    "wounding</w>": 8912,
    "positions</w>": 8913,
    "reply</w>": 8914,
    "infli": 8915,
    "inflicted</w>": 8916,
    "resist": 8917,
    "resistance</w>": 8918,
    "350</w>": 8919,
    "calibers</w>": 8920,
    "elevation</w>": 8921,
    "dawn</w>": 8922,
    "disper": 8923,
    "hat": 8924,
    "upri": 8925,
    "advance</w>": 8926,
    "260</w>": 8927,
    "customs</w>": 8928,
    "possibly</w>": 8929,
    "laws</w>": 8930,
    "nave</w>": 8931,
    "delaware</w>": 8932,
    "trium": 8933,
    "sinking</w>": 8934,
    "assign": 8935,
    "assignment</w>": 8936,
    "auditioned</w>": 8937,
    "sujoy</w>": 8938,
    "ghosh</w>": 8939,
    "alad": 8940,
    "aladin</w>": 8941,
    "lady</w>": 8942,
    "reci": 8943,
    "recipi": 8944,
    "recipient</w>": 8945,
    "eth": 8946,
    "nic</w>": 8947,
    "kim</w>": 8948,
    "nt</w>": 8949,
    "arab": 8950,
    "crowned</w>": 8951,
    "medium</w>": 8952,
    "knowing</w>": 8953,
    "confidence</w>": 8954,
    "duo</w>": 8955,
    "thu": 8956,
    "traveled</w>": 8957,
    "theatre</w>": 8958,
    "rit": 8959,
    "desh": 8960,
    "deshmu": 8961,
    "deshmukh</w>": 8962,
    "anup": 8963,
    "anupama</w>": 8964,
    "tant</w>": 8965,
    "nn</w>": 8966,
    "confident</w>": 8967,
    "jaane</w>": 8968,
    "kah": 8969,
    "kahan</w>": 8970,
    "aay": 8971,
    "aayi</w>": 8972,
    "hai</w>": 8973,
    "ranging</w>": 8974,
    "turning</w>": 8975,
    "came": 8976,
    "mahesh</w>": 8977,
    "confused</w>": 8978,
    "arj": 8979,
    "arjun</w>": 8980,
    "hash": 8981,
    "hashmi</w>": 8982,
    "gaur": 8983,
    "gaurav</w>": 8984,
    "malini</w>": 8985,
    "literally</w>": 8986,
    "akshay</w>": 8987,
    "productions</w>": 8988,
    "pleasure</w>": 8989,
    "14th</w>": 8990,
    "sai": 8991,
    "paduk": 8992,
    "padukone</w>": 8993,
    "ame": 8994,
    "kapo": 8995,
    "kapoor</w>": 8996,
    "ematic</w>": 8997,
    "domes": 8998,
    "gross</w>": 8999,
    "deva</w>": 9000,
    "aiya</w>": 9001,
    "aina</w>": 9002,
    "raja</w>": 9003,
    "revenue</w>": 9004,
    "film": 9005,
    "filmma": 9006,
    "filmmaker</w>": 9007,
    "satire</w>": 9008,
    "malho": 9009,
    "malhotra</w>": 9010,
    "fear": 9011,
    "challenging</w>": 9012,
    "repu": 9013,
    "reputation</w>": 9014,
    "portraying</w>": 9015,
    "finest</w>": 9016,
    "sob": 9017,
    "chand": 9018,
    "horr": 9019,
    "varun</w>": 9020,
    "abh": 9021,
    "chan</w>": 9022,
    "shar": 9023,
    "staying</w>": 9024,
    "veget": 9025,
    "vegetarian</w>": 9026,
    "wedne": 9027,
    "wednesday</w>": 9028,
    "separated</w>": 9029,
    "attracted</w>": 9030,
    "causes</w>": 9031,
    "peta</w>": 9032,
    "colombo</w>": 9033,
    "zoo</w>": 9034,
    "auc": 9035,
    "auctioned</w>": 9036,
    "4000</w>": 9037,
    "outfits</w>": 9038,
    "online</w>": 9039,
    "wore</w>": 9040,
    "funds</w>": 9041,
    "ods</w>": 9042,
    "perth</w>": 9043,
    "chef</w>": 9044,
    "ises</w>": 9045,
    "spoke": 9046,
    "spokesper": 9047,
    "spokesperson</w>": 9048,
    "inaugural</w>": 9049,
    "kap": 9050,
    "desira": 9051,
    "desirable</w>": 9052,
    "celebrity</w>": 9053,
    "celebrities</w>": 9054,
    "magazines</w>": 9055,
    "hm</w>": 9056,
    "maxi": 9057,
    "maxim</w>": 9058,
    "polit": 9059,
    "politan</w>": 9060,
    "baz": 9061,
    "maple</w>": 9062,
    "standout</w>": 9063,
    "scorer</w>": 9064,
    "supplemental</w>": 9065,
    "hodg": 9066,
    "hodgkin</w>": 9067,
    "dise": 9068,
    "disease</w>": 9069,
    "masterton</w>": 9070,
    "automo": 9071,
    "automotive</w>": 9072,
    "ont": 9073,
    "ontario</w>": 9074,
    "loretta</w>": 9075,
    "uncles</w>": 9076,
    "ferring</w>": 9077,
    "contempl": 9078,
    "contemplated</w>": 9079,
    "athle": 9080,
    "athletic</w>": 9081,
    "1984</w>": 9082,
    "25th</w>": 9083,
    "anniver": 9084,
    "anniversary</w>": 9085,
    "157</w>": 9086,
    "lemi": 9087,
    "lemieux</w>": 9088,
    "leadership</w>": 9089,
    "share</w>": 9090,
    "disappointment</w>": 9091,
    "faction</w>": 9092,
    "93</w>": 9093,
    "doctors</w>": 9094,
    "feared</w>": 9095,
    "tony</w>": 9096,
    "immediate</w>": 9097,
    "alex": 9098,
    "alexan": 9099,
    "alexander</w>": 9100,
    "looked</w>": 9101,
    "sympt": 9102,
    "symptoms</w>": 9103,
    "chec": 9104,
    "tum": 9105,
    "tumor</w>": 9106,
    "diagnosis</w>": 9107,
    "chemo": 9108,
    "chemother": 9109,
    "chemotherap": 9110,
    "treatments</w>": 9111,
    "corri": 9112,
    "sat</w>": 9113,
    "greeted</w>": 9114,
    "spending</w>": 9115,
    "interested</w>": 9116,
[...]
