{
  "vocab": {
    "ไ": 0,
    "大": 1,
    "明": 2,
    "v": 3,
    "ה": 4,
    "世": 5,
    "ạ": 6,
    "ن": 7,
    "š": 8,
    "q": 9,
    "光": 10,
    "k": 11,
    "а": 12,
    "ṣ": 13,
    "ρ": 14,
    "h": 15,
    "ș": 16,
    "р": 17,
    "…": 18,
    "τ": 19,
    "ษ": 20,
    "j": 21,
    "ภ": 22,
    "า": 23,
    "霖": 24,
    "う": 25,
    "β": 26,
    "→": 27,
    "女": 28,
    "ö": 29,
    "u": 30,
    "其": 31,
    "く": 32,
    "集": 33,
    "’": 34,
    ">": 35,
    "ด": 36,
    "<": 37,
    "芳": 38,
    "к": 39,
    "ā": 40,
    "ュ": 41,
    "つ": 42,
    "²": 43,
    "7": 44,
    "ש": 45,
    "צ": 46,
    "王": 47,
    "春": 48,
    "н": 49,
    "º": 50,
    "-": 51,
    ",": 52,
    "є": 53,
    "ê": 54,
    "ฐ": 55,
    "ñ": 56,
    "أ": 57,
    "ら": 58,
    "宗": 59,
    "?": 60,
    "χ": 61,
    "の": 62,
    "´": 63,
    "‘": 64,
    "�": 65,
    "ル": 66,
    "め": 67,
    "ร": 68,
    "⁄": 69,
    "誰": 70,
    "δ": 71,
    "เ": 72,
    "็": 73,
    "2": 74,
    "銃": 75,
    "姚": 76,
    "李": 77,
    "ค": 78,
    "ë": 79,
    "พ": 80,
    "`": 81,
    "$": 82,
    "อ": 83,
    "з": 84,
    "έ": 85,
    "傳": 86,
    "韓": 87,
    "ห": 88,
    "₤": 89,
    "清": 90,
    "γ": 91,
    "ญ": 92,
    "p": 93,
    "戦": 94,
    "#": 95,
    "i": 96,
    "ţ": 97,
    "ć": 98,
    "é": 99,
    "铁": 100,
    "ʃ": 101,
    "琦": 102,
    "µ": 103,
    "钱": 104,
    "ث": 105,
    "z": 106,
    "人": 107,
    "ş": 108,
    "σ": 109,
    "ä": 110,
    "興": 111,
    "ᵻ": 112,
    "ṯ": 113,
    "‡": 114,
    "ر": 115,
    "灯": 116,
    "ك": 117,
    "์": 118,
    "ァ": 119,
    "è": 120,
    "3": 121,
    "κ": 122,
    "臂": 123,
    "赤": 124,
    "£": 125,
    "ิ": 126,
    "澤": 127,
    "日": 128,
    ".": 129,
    "๊": 130,
    "ś": 131,
    "ă": 132,
    "υ": 133,
    "−": 134,
    "y": 135,
    "♯": 136,
    "ę": 137,
    "宋": 138,
    "â": 139,
    "^": 140,
    "”": 141,
    "ú": 142,
    "س": 143,
    "き": 144,
    "₹": 145,
    "國": 146,
    "–": 147,
    "ü": 148,
    "(": 149,
    "%": 150,
    "ʁ": 151,
    "い": 152,
    "λ": 153,
    "な": 154,
    "ἰ": 155,
    "*": 156,
    ";": 157,
    "リ": 158,
    "ف": 159,
    "建": 160,
    "n": 161,
    "b": 162,
    "ы": 163,
    "云": 164,
    "ย": 165,
    "f": 166,
    "đ": 167,
    "d": 168,
    "ا": 169,
    "ง": 170,
    "玩": 171,
    "君": 172,
    "إ": 173,
    "ľ": 174,
    "ة": 175,
    "ĕ": 176,
    "具": 177,
    "0": 178,
    "†": 179,
    "夫": 180,
    "&": 181,
    "4": 182,
    "许": 183,
    "厂": 184,
    "も": 185,
    "α": 186,
    "ή": 187,
    "ส": 188,
    "台": 189,
    "後": 190,
    "מ": 191,
    "ป": 192,
    "ณ": 193,
    "ี": 194,
    "ต": 195,
    "œ": 196,
    "場": 197,
    "ก": 198,
    "ç": 199,
    "ß": 200,
    "t": 201,
    "周": 202,
    "μ": 203,
    "陈": 204,
    "ع": 205,
    "金": 206,
    "\"": 207,
    "願": 208,
    "谭": 209,
    "ὑ": 210,
    "ḥ": 211,
    "名": 212,
    "が": 213,
    "“": 214,
    "1": 215,
    "ق": 216,
    "ț": 217,
    "翠": 218,
    "=": 219,
    "[": 220,
    "ū": 221,
    "ช": 222,
    "</w>": 223,
    "c": 224,
    "้": 225,
    "同": 226,
    "6": 227,
    "—": 228,
    "た": 229,
    "贵": 230,
    "ั": 231,
    "с": 232,
    "孟": 233,
    "!": 234,
    "ō": 235,
    "l": 236,
    "m": 237,
    "張": 238,
    "旭": 239,
    "ศ": 240,
    "ν": 241,
    "ɪ": 242,
    "ź": 243,
    "~": 244,
    "í": 245,
    "9": 246,
    "g": 247,
    "r": 248,
    "乙": 249,
    "ح": 250,
    "แ": 251,
    "o": 252,
    "ń": 253,
    "ɡ": 254,
    "琪": 255,
    "命": 256,
    "บ": 257,
    "ε": 258,
    "ô": 259,
    "ø": 260,
    "ว": 261,
    "ซ": 262,
    "่": 263,
    "ι": 264,
    "運": 265,
    "ó": 266,
    "肖": 267,
    "ص": 268,
    "م": 269,
    "ς": 270,
    "'": 271,
    "彩": 272,
    "د": 273,
    "ə": 274,
    "咲": 275,
    "湯": 276,
    "３": 277,
    "й": 278,
    "x": 279,
    "w": 280,
    "]": 281,
    "á": 282,
    "中": 283,
    "誓": 284,
    "秋": 285,
    "膀": 286,
    "ł": 287,
    "/": 288,
    "ξ": 289,
    "ア": 290,
    "в": 291,
    "劉": 292,
    "å": 293,
    "+": 294,
    "ล": 295,
    "5": 296,
    "@": 297,
    "ã": 298,
    "ḏ": 299,
    "ğ": 300,
    "花": 301,
    "ό": 302,
    ":": 303,
    "ม": 304,
    "ึ": 305,
    "懷": 306,
    "豪": 307,
    "珂": 308,
    "ο": 309,
    "ي": 310,
    "č": 311,
    "°": 312,
    "正": 313,
    "e": 314,
    "ǎ": 315,
    "キ": 316,
    "♭": 317,
    "し": 318,
    "î": 319,
    "ت": 320,
    ")": 321,
    "‑": 322,
    "8": 323,
    "七": 324,
    "​": 325,
    "か": 326,
    "×": 327,
    "侗": 328,
    "英": 329,
    "顯": 330,
    "ż": 331,
    "æ": 332,
    "ą": 333,
    "广": 334,
    "ἀ": 335,
    "ل": 336,
    "ˈ": 337,
    "ヴ": 338,
    "ί": 339,
    "s": 340,
    "岳": 341,
    "华": 342,
    "瘡": 343,
    "θ": 344,
    "a": 345,
    "e</w>": 346,
    "s</w>": 347,
    "th": 348,
    "d</w>": 349,
    "n</w>": 350,
    "er": 351,
    "t</w>": 352,
    "the</w>": 353,
    "in": 354,
    "an": 355,
    ",</w>": 356,
    "y</w>": 357,
    "ed</w>": 358,
    ".</w>": 359,
    "or": 360,
    "ar": 361,
    "al": 362,
    "re": 363,
    "ti": 364,
    "o</w>": 365,
    "f</w>": 366,
    "a</w>": 367,
    "en": 368,
    "on": 369,
    "of</w>": 370,
    "er</w>": 371,
    "g</w>": 372,
    "and</w>": 373,
    "on</w>": 374,
    "in</w>": 375,
    "@</w>": 376,
    "st": 377,
    "ing</w>": 378,
    "ro": 379,
    "ch": 380,
    "as</w>": 381,
    "es</w>": 382,
    "to</w>": 383,
    "at": 384,
    "ou": 385,
    "hi": 386,
    "el": 387,
    "m</w>": 388,
    "\"</w>": 389,
    "ic": 390,
    "=</w>": 391,
    "it": 392,
    "al</w>": 393,
    "an</w>": 394,
    "at</w>": 395,
    "is": 396,
    "il": 397,
    "ol": 398,
    "or</w>": 399,
    "ac": 400,
    "th</w>": 401,
    "as": 402,
    "ur": 403,
    "es": 404,
    "am": 405,
    "ec": 406,
    "om": 407,
    "is</w>": 408,
    "en</w>": 409,
    "was</w>": 410,
    "ir": 411,
    "ati": 412,
    "-</w>": 413,
    "ri": 414,
    "un": 415,
    "'</w>": 416,
    "ly</w>": 417,
    "ow": 418,
    "k</w>": 419,
    "wi": 420,
    "si": 421,
    "l</w>": 422,
    "em": 423,
    "ad": 424,
    "pl": 425,
    "di": 426,
    "that</w>": 427,
    "ag": 428,
    "ch</w>": 429,
    "for</w>": 430,
    "sh": 431,
    "with</w>": 432,
    "gh": 433,
    "le": 434,
    "ra": 435,
    "us": 436,
    "le</w>": 437,
    "li": 438,
    "ve</w>": 439,
    "de": 440,
    "be": 441,
    "con": 442,
    "ent</w>": 443,
    "ent": 444,
    "by</w>": 445,
    "0</w>": 446,
    "os": 447,
    "ha": 448,
    "su": 449,
    "se": 450,
    ")</w>": 451,
    "(</w>": 452,
    "19": 453,
    "pro": 454,
    "op": 455,
    "it</w>": 456,
    "ere</w>": 457,
    "ers</w>": 458,
    "ar</w>": 459,
    "the": 460,
    "com": 461,
    "ab": 462,
    "wh": 463,
    "bu": 464,
    "ation</w>": 465,
    "ap": 466,
    "for": 467,
    "ce</w>": 468,
    "sp": 469,
    "ex": 470,
    "ov": 471,
    "whi": 472,
    "he</w>": 473,
    "oc": 474,
    "ted</w>": 475,
    "ul": 476,
    "his</w>": 477,
    "ma": 478,
    "cl": 479,
    "ts</w>": 480,
    "i</w>": 481,
    "fro": 482,
    "ne": 483,
    "from</w>": 484,
    "tion</w>": 485,
    "p</w>": 486,
    "20": 487,
    "tr": 488,
    "vi": 489,
    "ons</w>": 490,
    "w</w>": 491,
    "oun": 492,
    "ds</w>": 493,
    "pre": 494,
    "ter</w>": 495,
    "ic</w>": 496,
    "were</w>": 497,
    "ity</w>": 498,
    "ev": 499,
    "1</w>": 500,
    "st</w>": 501,
    "man": 502,
    "per": 503,
    "rec": 504,
    "qu": 505,
    "ea": 506,
    "tw": 507,
    "2</w>": 508,
    "ated</w>": 509,
    "ther</w>": 510,
    "5</w>": 511,
    "4</w>": 512,
    "oo": 513,
    "ate</w>": 514,
    "par": 515,
    "ay</w>": 516,
    "3</w>": 517,
    "du": 518,
    "bl": 519,
    "ter": 520,
    "um": 521,
    "all</w>": 522,
    "tim": 523,
    "ff": 524,
    "tic": 525,
    "ding</w>": 526,
    "our": 527,
    "str": 528,
    "im": 529,
    "no": 530,
    "are</w>": 531,
    "one</w>": 532,
    "ame</w>": 533,
    "ay": 534,
    "wor": 535,
    "ver": 536,
    "ish": 537,
    "ear": 538,
    "est</w>": 539,
    "ir</w>": 540,
    "ded</w>": 541,
    "me": 542,
    ";</w>": 543,
    "which</w>": 544,
    "ing": 545,
    "6</w>": 546,
    "had</w>": 547,
    "de</w>": 548,
    "por": 549,
    "fe": 550,
    "so</w>": 551,
    "el</w>": 552,
    "ber</w>": 553,
    "be</w>": 554,
    "af": 555,
    "au": 556,
    "mar": 557,
    "ally</w>": 558,
    "te</w>": 559,
    "og": 560,
    "8</w>": 561,
    "–</w>": 562,
    "ld</w>": 563,
    "gh</w>": 564,
    "out</w>": 565,
    "all": 566,
    "est": 567,
    "der": 568,
    "ta": 569,
    "her</w>": 570,
    "fi": 571,
    "ong</w>": 572,
    "its</w>": 573,
    "fir": 574,
    "sc": 575,
    "bo": 576,
    "po": 577,
    "ght</w>": 578,
    "7</w>": 579,
    "this</w>": 580,
    "ies</w>": 581,
    "rou": 582,
    "ran": 583,
    "tur": 584,
    "she</w>": 585,
    "ary</w>": 586,
    "ine</w>": 587,
    "ser": 588,
    "der</w>": 589,
    "200": 590,
    "also</w>": 591,
    "age</w>": 592,
    "shi": 593,
    "pe": 594,
    "9</w>": 595,
    "but</w>": 596,
    "ig": 597,
    "go": 598,
    "ke</w>": 599,
    "clu": 600,
    "stor": 601,
    "ow</w>": 602,
    "their</w>": 603,
    "car": 604,
    "des": 605,
    "has</w>": 606,
    "gu": 607,
    "not</w>": 608,
    "other</w>": 609,
    "fl": 610,
    "after</w>": 611,
    "ia</w>": 612,
    "first</w>": 613,
    "pu": 614,
    "av": 615,
    "ph": 616,
    "ents</w>": 617,
    "onal</w>": 618,
    "fin": 619,
    "own</w>": 620,
    "bec": 621,
    "ru": 622,
    "two</w>": 623,
    "mor": 624,
    "ment</w>": 625,
    "ost</w>": 626,
    ":</w>": 627,
    "ge</w>": 628,
    "et</w>": 629,
    "ting</w>": 630,
    "comm": 631,
    "char": 632,
    "cre": 633,
    "gi": 634,
    "ould</w>": 635,
    "oll": 636,
    "ess</w>": 637,
    "they</w>": 638,
    "mil": 639,
    "ue</w>": 640,
    "ty</w>": 641,
    "duc": 642,
    "ast</w>": 643,
    "00</w>": 644,
    "ome</w>": 645,
    "sec": 646,
    "have</w>": 647,
    "mo": 648,
    "who</w>": 649,
    "us</w>": 650,
    "201": 651,
    "iti": 652,
    "end</w>": 653,
    "ack</w>": 654,
    "ence</w>": 655,
    "pol": 656,
    "ks</w>": 657,
    "dis": 658,
    "mi": 659,
    "ely</w>": 660,
    "ass": 661,
    "rit": 662,
    "play": 663,
    "uring</w>": 664,
    "ned</w>": 665,
    "been</w>": 666,
    "18": 667,
    "att": 668,
    "cri": 669,
    "ater</w>": 670,
    "new</w>": 671,
    "min": 672,
    "pres": 673,
    "ial</w>": 674,
    "ard</w>": 675,
    "ep": 676,
    "cont": 677,
    "off": 678,
    "to": 679,
    "man</w>": 680,
    "ous</w>": 681,
    "cor": 682,
    "ations</w>": 683,
    "ant</w>": 684,
    "gre": 685,
    "spec": 686,
    "ved</w>": 687,
    "time</w>": 688,
    "dec": 689,
    "sa": 690,
    "over": 691,
    "king</w>": 692,
    "son</w>": 693,
    "ill": 694,
    "ish</w>": 695,
    "x</w>": 696,
    "form": 697,
    "tu": 698,
    "b</w>": 699,
    "able</w>": 700,
    "during</w>": 701,
    "mus": 702,
    "our</w>": 703,
    "ical</w>": 704,
    "aw": 705,
    "ft</w>": 706,
    "il</w>": 707,
    "mon": 708,
    "uc": 709,
    "most</w>": 710,
    "ei": 711,
    "ni": 712,
    "se</w>": 713,
    "ad</w>": 714,
    "ited</w>": 715,
    "fil": 716,
    "ember</w>": 717,
    "ces</w>": 718,
    "inclu": 719,
    "air": 720,
    "als</w>": 721,
    "id": 722,
    "inter": 723,
    "id</w>": 724,
    "ree</w>": 725,
    "ste": 726,
    "lo": 727,
    "ell</w>": 728,
    "cent": 729,
    "ca": 730,
    "thou": 731,
    "co": 732,
    "pr": 733,
    "more</w>": 734,
    "and": 735,
    "use</w>": 736,
    "ess": 737,
    "een</w>": 738,
    "col": 739,
    "gen": 740,
    "ined</w>": 741,
    "jo": 742,
    "ates</w>": 743,
    "ian</w>": 744,
    "nor": 745,
    "ace</w>": 746,
    "ance</w>": 747,
    "ure</w>": 748,
    "publ": 749,
    "ked</w>": 750,
    "pos": 751,
    "yp": 752,
    "ade</w>": 753,
    "bri": 754,
    "than</w>": 755,
    "sy": 756,
    "bas": 757,
    "up</w>": 758,
    "ple</w>": 759,
    "ound</w>": 760,
    "z</w>": 761,
    "land</w>": 762,
    "recor": 763,
    "over</w>": 764,
    "ell": 765,
    "ke": 766,
    "ings</w>": 767,
    "arch": 768,
    "when</w>": 769,
    "ese</w>": 770,
    "ion</w>": 771,
    "kn": 772,
    "arm": 773,
    "ins</w>": 774,
    "gro": 775,
    "sch": 776,
    "while</w>": 777,
    "coun": 778,
    "into</w>": 779,
    "we": 780,
    "aga": 781,
    "enti": 782,
    "loc": 783,
    "ason</w>": 784,
    "albu": 785,
    "only</w>": 786,
    "old</w>": 787,
    "ice</w>": 788,
    "ship</w>": 789,
    "tre": 790,
    "ite</w>": 791,
    "ye": 792,
    "used</w>": 793,
    "red</w>": 794,
    "tor": 795,
    "sion</w>": 796,
    "city</w>": 797,
    "writ": 798,
    "ss</w>": 799,
    "eg": 800,
    "pri": 801,
    "h</w>": 802,
    "199": 803,
    "olog": 804,
    "ans</w>": 805,
    "war</w>": 806,
    "tic</w>": 807,
    "ang": 808,
    "hou": 809,
    "histor": 810,
    "though</w>": 811,
    "ew": 812,
    "no</w>": 813,
    "ern</w>": 814,
    "iz": 815,
    "ps</w>": 816,
    "ist</w>": 817,
    "do": 818,
    "later</w>": 819,
    "sur": 820,
    "may</w>": 821,
    "ose</w>": 822,
    "tions</w>": 823,
    "ist": 824,
    "c</w>": 825,
    "wil": 826,
    "three</w>": 827,
    "there</w>": 828,
    "re</w>": 829,
    "sou": 830,
    "throu": 831,
    "ren": 832,
    "ven</w>": 833,
    "would</w>": 834,
    "um</w>": 835,
    "lar": 836,
    "of": 837,
    "ord": 838,
    "num": 839,
    "tea": 840,
    "int": 841,
    "ook</w>": 842,
    "struc": 843,
    "about</w>": 844,
    "tow": 845,
    "season</w>": 846,
    "ames</w>": 847,
    "pp": 848,
    "eng": 849,
    "secon": 850,
    "ood</w>": 851,
    "ten</w>": 852,
    "produc": 853,
    "album</w>": 854,
    "ble</w>": 855,
    "stu": 856,
    "sel": 857,
    "bro": 858,
    "many</w>": 859,
    "ily</w>": 860,
    "some</w>": 861,
    "sig": 862,
    "ning</w>": 863,
    "ever</w>": 864,
    "betw": 865,
    "between</w>": 866,
    "fer": 867,
    "dev": 868,
    "year</w>": 869,
    "ob": 870,
    "bel": 871,
    "fu": 872,
    "ase</w>": 873,
    "ric": 874,
    "ished</w>": 875,
    "sh</w>": 876,
    "tra": 877,
    "nati": 878,
    "res</w>": 879,
    "pop": 880,
    "buil": 881,
    "te": 882,
    "ust</w>": 883,
    "ong": 884,
    "sub": 885,
    "rea": 886,
    "rele": 887,
    "ving</w>": 888,
    "ating</w>": 889,
    "sti": 890,
    "ities</w>": 891,
    "pa": 892,
    "him</w>": 893,
    "can": 894,
    "bar": 895,
    "ger": 896,
    "them</w>": 897,
    "ears</w>": 898,
    "ed": 899,
    "les</w>": 900,
    "film</w>": 901,
    "being</w>": 902,
    "these</w>": 903,
    "la": 904,
    "ber": 905,
    "beg": 906,
    "vis": 907,
    "mis": 908,
    "gener": 909,
    "cu": 910,
    "ie": 911,
    "tri": 912,
    "na": 913,
    "game</w>": 914,
    "charac": 915,
    "sk": 916,
    "ased</w>": 917,
    "indi": 918,
    "ect</w>": 919,
    "cap": 920,
    "br": 921,
    "gal": 922,
    "mov": 923,
    "und</w>": 924,
    "000</w>": 925,
    "where</w>": 926,
    "lan": 927,
    "ol</w>": 928,
    "whe": 929,
    "second</w>": 930,
    "ci": 931,
    "world</w>": 932,
    "sul": 933,
    "gr": 934,
    "consi": 935,
    "ors</w>": 936,
    "foll": 937,
    "oper": 938,
    "led</w>": 939,
    "tive</w>": 940,
    "ge": 941,
    "ves</w>": 942,
    "such</w>": 943,
    "cul": 944,
    "ture</w>": 945,
    "pen": 946,
    "poin": 947,
    "made</w>": 948,
    "fa": 949,
    "op</w>": 950,
    "rel": 951,
    "fac": 952,
    "mat": 953,
    "cra": 954,
    "direc": 955,
    "nov": 956,
    "can</w>": 957,
    "port</w>": 958,
    "pan": 959,
    "reg": 960,
    "fic": 961,
    "are": 962,
    "ordan</w>": 963,
    "tor</w>": 964,
    "under</w>": 965,
    "amer": 966,
    "jordan</w>": 967,
    "with": 968,
    "sever": 969,
    "ver</w>": 970,
    "uni": 971,
    "fore</w>": 972,
    "ms</w>": 973,
    "194": 974,
    "became</w>": 975,
    "years</w>": 976,
    "well</w>": 977,
    "ement</w>": 978,
    "play</w>": 979,
    "both</w>": 980,
    "var": 981,
    "od": 982,
    "how": 983,
    "four</w>": 984,
    "mem": 985,
    "mu": 986,
    "ork</w>": 987,
    "ying</w>": 988,
    "compl": 989,
    "hel": 990,
    "number</w>": 991,
    "white</w>": 992,
    "owing</w>": 993,
    "star": 994,
    "national</w>": 995,
    "although</w>": 996,
    "then</w>": 997,
    "nam": 998,
    "tran": 999,
    "ters</w>": 1000,
    "way</w>": 1001,
    "posi": 1002,
    "ju": 1003,
    "diff": 1004,
    "descri": 1005,
    "pi": 1006,
    "orig": 1007,
    "offic": 1008,
    "ered</w>": 1009,
    "day</w>": 1010,
    "fe</w>": 1011,
    "ays</w>": 1012,
    "early</w>": 1013,
    "sup": 1014,
    "ected</w>": 1015,
    "ced</w>": 1016,
    "side</w>": 1017,
    "dre": 1018,
    "tly</w>": 1019,
    "inv": 1020,
    "ot": 1021,
    "state</w>": 1022,
    "tish</w>": 1023,
    "hea": 1024,
    "u</w>": 1025,
    "music</w>": 1026,
    "ten": 1027,
    "ross</w>": 1028,
    "work</w>": 1029,
    "her": 1030,
    "several</w>": 1031,
    "americ": 1032,
    "ton</w>": 1033,
    "part</w>": 1034,
    "however</w>": 1035,
    "sin": 1036,
    "known</w>": 1037,
    "ann": 1038,
    "united</w>": 1039,
    "scho": 1040,
    "ause</w>": 1041,
    "ury</w>": 1042,
    "198": 1043,
    "through</w>": 1044,
    "rema": 1045,
    "cer": 1046,
    "before</w>": 1047,
    "like</w>": 1048,
    "sol": 1049,
    "wheel": 1050,
    "team</w>": 1051,
    "inal</w>": 1052,
    "ular</w>": 1053,
    "sted</w>": 1054,
    "because</w>": 1055,
    "ae": 1056,
    "10</w>": 1057,
    "ised</w>": 1058,
    "cur": 1059,
    "ale</w>": 1060,
    "ining</w>": 1061,
    "bi": 1062,
    "line</w>": 1063,
    "british</w>": 1064,
    "sing": 1065,
    "van": 1066,
    "typ": 1067,
    "ards</w>": 1068,
    "val": 1069,
    "again": 1070,
    "against</w>": 1071,
    "states</w>": 1072,
    "chur": 1073,
    "ns</w>": 1074,
    "long</w>": 1075,
    "ses</w>": 1076,
    "he": 1077,
    "fri": 1078,
    "west</w>": 1079,
    "me</w>": 1080,
    "—</w>": 1081,
    "ve": 1082,
    "york</w>": 1083,
    "ines</w>": 1084,
    "ot</w>": 1085,
    "ower</w>": 1086,
    "peri": 1087,
    "self</w>": 1088,
    "fam": 1089,
    "call": 1090,
    "cc": 1091,
    "app": 1092,
    "peo": 1093,
    "revi": 1094,
    "gover": 1095,
    "dra": 1096,
    "bed</w>": 1097,
    "wheeler</w>": 1098,
    "stan": 1099,
    "%</w>": 1100,
    "vers": 1101,
    "rach": 1102,
    "succ": 1103,
    "ory</w>": 1104,
    "lit": 1105,
    "including</w>": 1106,
    "nic": 1107,
    "archae": 1108,
    "archaeolog": 1109,
    "song</w>": 1110,
    "contin": 1111,
    "people</w>": 1112,
    "ris": 1113,
    "sm": 1114,
    "fur": 1115,
    "ster</w>": 1116,
    "began</w>": 1117,
    "tle</w>": 1118,
    "history</w>": 1119,
    "port": 1120,
    "193": 1121,
    "vest": 1122,
    "ry</w>": 1123,
    "win": 1124,
    "church</w>": 1125,
    "series</w>": 1126,
    "high": 1127,
    "shor": 1128,
    "/</w>": 1129,
    "said</w>": 1130,
    "bor": 1131,
    "devel": 1132,
    "under": 1133,
    "des</w>": 1134,
    "ony</w>": 1135,
    "each</w>": 1136,
    "ism</w>": 1137,
    "north</w>": 1138,
    "ched</w>": 1139,
    "govern": 1140,
    "cour": 1141,
    "rachel</w>": 1142,
    "times</w>": 1143,
    "ll</w>": 1144,
    "ii</w>": 1145,
    "sen": 1146,
    "off</w>": 1147,
    "fr": 1148,
    "dy</w>": 1149,
    "ties</w>": 1150,
    "ole</w>": 1151,
    "act</w>": 1152,
    "ll": 1153,
    "grou": 1154,
    "sl": 1155,
    "ual</w>": 1156,
    "chil": 1157,
    "tical</w>": 1158,
    "phi": 1159,
    "serv": 1160,
    "ther": 1161,
    "galvest": 1162,
    "desig": 1163,
    "sed</w>": 1164,
    "recei": 1165,
    "fre": 1166,
    "best</w>": 1167,
    "galveston</w>": 1168,
    "sty": 1169,
    "$</w>": 1170,
    "area</w>": 1171,
    "dem": 1172,
    "same</w>": 1173,
    "sts</w>": 1174,
    "you": 1175,
    "south</w>": 1176,
    "tiv": 1177,
    "def": 1178,
    "ba": 1179,
    "hol": 1180,
    "hum": 1181,
    "feat": 1182,
    "gra": 1183,
    "could</w>": 1184,
    "public</w>": 1185,
    "plac": 1186,
    "develop": 1187,
    "life</w>": 1188,
    "joh": 1189,
    "0s</w>": 1190,
    "ground</w>": 1191,
    "high</w>": 1192,
    "17": 1193,
    "air</w>": 1194,
    "gods</w>": 1195,
    "acc": 1196,
    "ful</w>": 1197,
    "name</w>": 1198,
    "tro": 1199,
    "ass</w>": 1200,
    "aged</w>": 1201,
    "ker</w>": 1202,
    "played</w>": 1203,
    "ome": 1204,
    "scor": 1205,
    "care": 1206,
    "sar": 1207,
    "out": 1208,
    "form</w>": 1209,
    "ali": 1210,
    "accor": 1211,
    "ball</w>": 1212,
    "fiel": 1213,
    "dic": 1214,
    "ga": 1215,
    "pt": 1216,
    "et": 1217,
    "dered</w>": 1218,
    "wee": 1219,
    "even</w>": 1220,
    "released</w>": 1221,
    "retur": 1222,
    "comman": 1223,
    "arly</w>": 1224,
    "dam": 1225,
    "soc": 1226,
    "black</w>": 1227,
    "fran": 1228,
    "general</w>": 1229,
    "since</w>": 1230,
    "ague</w>": 1231,
    "bers</w>": 1232,
    "pic": 1233,
    "30</w>": 1234,
    "gg": 1235,
    "batt": 1236,
    "da": 1237,
    "exc": 1238,
    "stein</w>": 1239,
    "new": 1240,
    "do</w>": 1241,
    "following</w>": 1242,
    "lion</w>": 1243,
    "squ": 1244,
    "roy": 1245,
    "ew</w>": 1246,
    "sive</w>": 1247,
    "tel": 1248,
    "ut": 1249,
    "spon": 1250,
    "up": 1251,
    "called</w>": 1252,
    "ented</w>": 1253,
    "antim": 1254,
    "army</w>": 1255,
    "20</w>": 1256,
    "town": 1257,
    "end": 1258,
    "ious</w>": 1259,
    "roc": 1260,
    "fun": 1261,
    "tics</w>": 1262,
    "contro": 1263,
    "five</w>": 1264,
    "tain</w>": 1265,
    "you</w>": 1266,
    "partic": 1267,
    "jun": 1268,
    "american</w>": 1269,
    "ery</w>": 1270,
    "any</w>": 1271,
    "back</w>": 1272,
    "itary</w>": 1273,
    "eu": 1274,
    "ized</w>": 1275,
    "site</w>": 1276,
    "kel": 1277,
    "ences</w>": 1278,
    "record</w>": 1279,
    "thir": 1280,
    "emp": 1281,
    "tal</w>": 1282,
    "ages</w>": 1283,
    "nia</w>": 1284,
    "lead": 1285,
    "anti": 1286,
    "hor": 1287,
    "coll": 1288,
    "dent</w>": 1289,
    "another</w>": 1290,
    "war": 1291,
    "according</w>": 1292,
    "197": 1293,
    "hy": 1294,
    "described</w>": 1295,
    "military</w>": 1296,
    "har": 1297,
    "12</w>": 1298,
    "org": 1299,
    "univers": 1300,
    "god</w>": 1301,
    "games</w>": 1302,
    "book</w>": 1303,
    "differ": 1304,
    "if</w>": 1305,
    "hal": 1306,
    "named</w>": 1307,
    "spor": 1308,
    "island</w>": 1309,
    "dition</w>": 1310,
    "found</w>": 1311,
    "den": 1312,
    "send</w>": 1313,
    "appear": 1314,
    "ban": 1315,
    "polish</w>": 1316,
    "home</w>": 1317,
    "ack": 1318,
    "school</w>": 1319,
    "co</w>": 1320,
    "dist": 1321,
    "pers": 1322,
    "row": 1323,
    "maj": 1324,
    "ative</w>": 1325,
    "formed</w>": 1326,
    "50</w>": 1327,
    "oned</w>": 1328,
    "century</w>": 1329,
    "resul": 1330,
    "league</w>": 1331,
    "around</w>": 1332,
    "ility</w>": 1333,
    "gar": 1334,
    "did</w>": 1335,
    "ip": 1336,
    "don</w>": 1337,
    "ogra": 1338,
    "am</w>": 1339,
    "ner</w>": 1340,
    "repres": 1341,
    "inc": 1342,
    "dr": 1343,
    "ches</w>": 1344,
    "octo": 1345,
    "october</w>": 1346,
    "hou</w>": 1347,
    "unti": 1348,
    "ful": 1349,
    "ous": 1350,
    "german</w>": 1351,
    "townsend</w>": 1352,
    "finkel": 1353,
    "finkelstein</w>": 1354,
    "ise</w>": 1355,
    "tional</w>": 1356,
    "until</w>": 1357,
    "studi": 1358,
    "egyp": 1359,
    "plo": 1360,
    "per</w>": 1361,
    "order</w>": 1362,
    "position</w>": 1363,
    "incre": 1364,
    "group</w>": 1365,
    "career</w>": 1366,
    "zhou</w>": 1367,
    "medi": 1368,
    "ually</w>": 1369,
    "those</w>": 1370,
    "thing</w>": 1371,
    "youn": 1372,
    "pat": 1373,
    "ken</w>": 1374,
    "omin": 1375,
    "191": 1376,
    "ain</w>": 1377,
    "ships</w>": 1378,
    "character</w>": 1379,
    "received</w>": 1380,
    "cam": 1381,
    "single</w>": 1382,
    "will</w>": 1383,
    "ject</w>": 1384,
    "bru": 1385,
    "inst": 1386,
    "so": 1387,
    "larg": 1388,
    "stitu": 1389,
    "fle": 1390,
    "nicole</w>": 1391,
    "pit": 1392,
    "tex": 1393,
    "respon": 1394,
    "pur": 1395,
    "nat": 1396,
    "government</w>": 1397,
    "[</w>": 1398,
    "]</w>": 1399,
    "some": 1400,
    "what</w>": 1401,
    "popul": 1402,
    "auth": 1403,
    "east</w>": 1404,
    "rist": 1405,
    "ys": 1406,
    "university</w>": 1407,
    "antimony</w>": 1408,
    "along</w>": 1409,
    "open": 1410,
    "place</w>": 1411,
    "wom": 1412,
    "ril</w>": 1413,
    "style</w>": 1414,
    "set</w>": 1415,
    "v</w>": 1416,
    "based</w>": 1417,
    "od</w>": 1418,
    "power</w>": 1419,
    "construc": 1420,
    "sept": 1421,
    "september</w>": 1422,
    "ended</w>": 1423,
    "bur": 1424,
    "craft</w>": 1425,
    "main</w>": 1426,
    "fied</w>": 1427,
    "april</w>": 1428,
    "aug": 1429,
    "25</w>": 1430,
    "ba</w>": 1431,
    "import": 1432,
    "cat": 1433,
    "now</w>": 1434,
    "took</w>": 1435,
    "light</w>": 1436,
    "christ": 1437,
    "them": 1438,
    "initi": 1439,
    "show</w>": 1440,
    "ends</w>": 1441,
    "human</w>": 1442,
    "november</w>": 1443,
    "continu": 1444,
    "del": 1445,
    "flu": 1446,
    "ently</w>": 1447,
    "owed</w>": 1448,
    "try</w>": 1449,
    "organ": 1450,
    "195": 1451,
    "original</w>": 1452,
    "ects</w>": 1453,
    "prot": 1454,
    "ately</w>": 1455,
    "little</w>": 1456,
    "sit": 1457,
    "cla": 1458,
    "million</w>": 1459,
    "pal": 1460,
    "roman": 1461,
    "down</w>": 1462,
    "much</w>": 1463,
    "abl": 1464,
    "john</w>": 1465,
    "relati": 1466,
    "aircraft</w>": 1467,
    "sarnia</w>": 1468,
    "epis": 1469,
    "plan": 1470,
    "built</w>": 1471,
    "den</w>": 1472,
    "appro": 1473,
    "love</w>": 1474,
    "wan": 1475,
    "moved</w>": 1476,
    "sum": 1477,
    "jan": 1478,
    "very</w>": 1479,
    "less</w>": 1480,
    "tem": 1481,
    "vic": 1482,
    "ley</w>": 1483,
    "equ": 1484,
    "ection</w>": 1485,
    "included</w>": 1486,
    "species</w>": 1487,
    "hu": 1488,
    "ision</w>": 1489,
    "iev": 1490,
    "family</w>": 1491,
    "iety</w>": 1492,
    "196": 1493,
    "west": 1494,
    "top</w>": 1495,
    "signed</w>": 1496,
    "ak": 1497,
    "arti": 1498,
    "rock</w>": 1499,
    "six</w>": 1500,
    "ported</w>": 1501,
    "cast": 1502,
    "large</w>": 1503,
    "establ": 1504,
    "ast": 1505,
    "adi": 1506,
    "due</w>": 1507,
    "ven": 1508,
    "centr": 1509,
    "oci": 1510,
    "tian</w>": 1511,
    "field</w>": 1512,
    "fes": 1513,
    "reli": 1514,
    "ghts</w>": 1515,
    "yue</w>": 1516,
    "sal": 1517,
    "requ": 1518,
    "associ": 1519,
    "spac": 1520,
    "fey</w>": 1521,
    "dest": 1522,
    "leg": 1523,
    "15</w>": 1524,
    "ones</w>": 1525,
    "ching</w>": 1526,
    "tru": 1527,
    "third</w>": 1528,
    "within</w>": 1529,
    "ode</w>": 1530,
    "11</w>": 1531,
    "often</w>": 1532,
    "2007</w>": 1533,
    "ows</w>": 1534,
    "forces</w>": 1535,
    "young</w>": 1536,
    "june</w>": 1537,
    "compan": 1538,
    "austr": 1539,
    "lev": 1540,
    "ys</w>": 1541,
    "previ": 1542,
    "action</w>": 1543,
    "clos": 1544,
    "anc": 1545,
    "regi": 1546,
    "won</w>": 1547,
    "brea": 1548,
    "els</w>": 1549,
    "comple": 1550,
    "posed</w>": 1551,
    "august</w>": 1552,
    "foo": 1553,
    "om</w>": 1554,
    "ie</w>": 1555,
    "wro": 1556,
    "indu": 1557,
    "star</w>": 1558,
    "az": 1559,
    "my": 1560,
    "ath</w>": 1561,
    "small</w>": 1562,
    "wrote</w>": 1563,
    "thern</w>": 1564,
    "ach</w>": 1565,
    "ality</w>": 1566,
    "provi": 1567,
    "thers</w>": 1568,
    "club</w>": 1569,
    "lab": 1570,
    "disc": 1571,
    "rus": 1572,
    "os</w>": 1573,
    "2013</w>": 1574,
    "boo": 1575,
    "tar": 1576,
    "kes</w>": 1577,
    "ef": 1578,
    "simil": 1579,
    "issu": 1580,
    "sent": 1581,
    "2010</w>": 1582,
    "read": 1583,
    "considered</w>": 1584,
    "left</w>": 1585,
    "building</w>": 1586,
    "18</w>": 1587,
    "commun": 1588,
    "water</w>": 1589,
    "gold</w>": 1590,
    "vide": 1591,
    "just</w>": 1592,
    "stri": 1593,
    "dou": 1594,
    "ously</w>": 1595,
    "my</w>": 1596,
    "agre": 1597,
    "eff": 1598,
    "published</w>": 1599,
    "eight</w>": 1600,
    "cham": 1601,
    "december</w>": 1602,
    "pil": 1603,
    "perfor": 1604,
    "performan": 1605,
    "ga</w>": 1606,
    "euro": 1607,
    "ments</w>": 1608,
    "through": 1609,
    "throughout</w>": 1610,
    "uk": 1611,
    "away</w>": 1612,
    "among</w>": 1613,
    "cou": 1614,
    "vol": 1615,
    "player</w>": 1616,
    "advan": 1617,
    "nav": 1618,
    "ford</w>": 1619,
    "monum": 1620,
    "make</w>": 1621,
    "ward</w>": 1622,
    "192": 1623,
    "influ": 1624,
    "2008</w>": 1625,
    "tball</w>": 1626,
    "lim": 1627,
    "success": 1628,
    "major</w>": 1629,
    "pass": 1630,
    "late</w>": 1631,
    "sugg": 1632,
    "onship</w>": 1633,
    "tin": 1634,
    "card": 1635,
    "doll": 1636,
    "13</w>": 1637,
    "stated</w>": 1638,
    "bal": 1639,
    "half</w>": 1640,
    "james</w>": 1641,
    "lock</w>": 1642,
    "ide</w>": 1643,
    "exam": 1644,
    "uary</w>": 1645,
    "ements</w>": 1646,
    "spir": 1647,
    "gl": 1648,
    "ied</w>": 1649,
    "16</w>": 1650,
    "dom</w>": 1651,
    "aves</w>": 1652,
    "christm": 1653,
    "win</w>": 1654,
    "hur": 1655,
    "jew": 1656,
    "using</w>": 1657,
    "great</w>": 1658,
    "art</w>": 1659,
    "dge</w>": 1660,
    "christmas</w>": 1661,
    "ures</w>": 1662,
    "chan": 1663,
    "syn": 1664,
    "cas": 1665,
    "men</w>": 1666,
    "head</w>": 1667,
    "km</w>": 1668,
    "r</w>": 1669,
    "hun": 1670,
    "elli": 1671,
    "isra": 1672,
    "chr": 1673,
    "director</w>": 1674,
    "route</w>": 1675,
    "again</w>": 1676,
    "still</w>": 1677,
    "period</w>": 1678,
    "town</w>": 1679,
    "sem": 1680,
    "deities</w>": 1681,
    "become</w>": 1682,
    "ribu": 1683,
    "produced</w>": 1684,
    "project</w>": 1685,
    "2009</w>": 1686,
    "lon": 1687,
    "county</w>": 1688,
    "january</w>": 1689,
    "sible</w>": 1690,
    "trans": 1691,
    "wat": 1692,
    "ict</w>": 1693,
    "ze</w>": 1694,
    "further</w>": 1695,
    "doc": 1696,
    "ths</w>": 1697,
    "given</w>": 1698,
    "im</w>": 1699,
    "right</w>": 1700,
    "role</w>": 1701,
    "2011</w>": 1702,
    "los": 1703,
    "ists</w>": 1704,
    "episode</w>": 1705,
    "muse": 1706,
    "track</w>": 1707,
    "key</w>": 1708,
    "acti": 1709,
    "ute</w>": 1710,
    "poli": 1711,
    "canad": 1712,
    "point</w>": 1713,
    "fem": 1714,
    "moder": 1715,
    "noted</w>": 1716,
    "sing</w>": 1717,
    "ured</w>": 1718,
    "arch</w>": 1719,
    "ur</w>": 1720,
    "mark": 1721,
    "fren": 1722,
    "mad": 1723,
    "force</w>": 1724,
    "fan": 1725,
    "wal": 1726,
    "placed</w>": 1727,
    "2006</w>": 1728,
    "bs</w>": 1729,
    "ina</w>": 1730,
    "ron</w>": 1731,
    "haven</w>": 1732,
    "video</w>": 1733,
    "story</w>": 1734,
    "pra": 1735,
    "release</w>": 1736,
    "vo": 1737,
    "members</w>": 1738,
    "house</w>": 1739,
    "last</w>": 1740,
    "ail": 1741,
    "14</w>": 1742,
    "ick</w>": 1743,
    "served</w>": 1744,
    "march</w>": 1745,
    "father</w>": 1746,
    "ey</w>": 1747,
    "mer": 1748,
    "19</w>": 1749,
    "ells</w>": 1750,
    "ton": 1751,
    "contr": 1752,
    "recorded</w>": 1753,
    "tog": 1754,
    "ext</w>": 1755,
    "ta</w>": 1756,
    "ring</w>": 1757,
    "telev": 1758,
    "board</w>": 1759,
    "adem": 1760,
    "writing</w>": 1761,
    "french</w>": 1762,
    "tes</w>": 1763,
    "production</w>": 1764,
    "ped</w>": 1765,
    "attemp": 1766,
    "21</w>": 1767,
    "cha": 1768,
    "stern</w>": 1769,
    "western</w>": 1770,
    "sions</w>": 1771,
    "different</w>": 1772,
    "without</w>": 1773,
    "ept</w>": 1774,
    "tion": 1775,
    "song": 1776,
    "gun": 1777,
    "childre": 1778,
    "children</w>": 1779,
    "death</w>": 1780,
    "ested</w>": 1781,
    "former</w>": 1782,
    "ox": 1783,
    "ried</w>": 1784,
    "invol": 1785,
    "div": 1786,
    "cast</w>": 1787,
    "40</w>": 1788,
    "central</w>": 1789,
    "ams</w>": 1790,
    "near</w>": 1791,
    "ator</w>": 1792,
    "friends</w>": 1793,
    "night</w>": 1794,
    "va</w>": 1795,
    "local</w>": 1796,
    "civ": 1797,
    "ph</w>": 1798,
    "ind</w>": 1799,
    "assi": 1800,
    "mid": 1801,
    "austral": 1802,
    "ples</w>": 1803,
    "tors</w>": 1804,
    "é</w>": 1805,
    "nathan</w>": 1806,
    "if": 1807,
    "get</w>": 1808,
    "class</w>": 1809,
    "fron": 1810,
    "sequ": 1811,
    "ged</w>": 1812,
    "promo": 1813,
    "cop": 1814,
    "television</w>": 1815,
    "tom": 1816,
    "17</w>": 1817,
    "ash": 1818,
    "24</w>": 1819,
    "row</w>": 1820,
    "dents</w>": 1821,
    "med": 1822,
    "sil": 1823,
    "cir": 1824,
    "vir": 1825,
    "cle": 1826,
    "stry</w>": 1827,
    "take</w>": 1828,
    "lin": 1829,
    "comb": 1830,
    "search</w>": 1831,
    "located</w>": 1832,
    "held</w>": 1833,
    "came</w>": 1834,
    "institu": 1835,
    "london</w>": 1836,
    "important</w>": 1837,
    "squad": 1838,
    "expl": 1839,
    "ign</w>": 1840,
    "ide": 1841,
    "ben": 1842,
    "desp": 1843,
    "fel": 1844,
    "23</w>": 1845,
    "should</w>": 1846,
    "elec": 1847,
    "ars</w>": 1848,
    "ws</w>": 1849,
    "excav": 1850,
    "chang": 1851,
    "ats</w>": 1852,
    "ach": 1853,
    "set": 1854,
    "despite</w>": 1855,
    "continued</w>": 1856,
    "construction</w>": 1857,
    "signi": 1858,
    "gir": 1859,
    "kra": 1860,
    "lad": 1861,
    "sym": 1862,
    "him": 1863,
    "ests</w>": 1864,
    "quar": 1865,
    "nec": 1866,
    "final</w>": 1867,
    "pe</w>": 1868,
    "population</w>": 1869,
    "sour": 1870,
    "july</w>": 1871,
    "castle</w>": 1872,
    "ill</w>": 1873,
    "tage</w>": 1874,
    "ref": 1875,
    "written</w>": 1876,
    "2012</w>": 1877,
    "ark": 1878,
    "bir": 1879,
    "lead</w>": 1880,
    "phy</w>": 1881,
    "defen": 1882,
    "stre": 1883,
    "academ": 1884,
    "king": 1885,
    "fleet</w>": 1886,
    "rul": 1887,
    "command": 1888,
    "operations</w>": 1889,
    "control</w>": 1890,
    "list</w>": 1891,
    "ics</w>": 1892,
    "non</w>": 1893,
    "songs</w>": 1894,
    "stone</w>": 1895,
    "believ": 1896,
    "long": 1897,
    "sci": 1898,
    "ele": 1899,
    "ness</w>": 1900,
    "ston</w>": 1901,
    "we</w>": 1902,
    "tin</w>": 1903,
    "aml</w>": 1904,
    "gam": 1905,
    "once</w>": 1906,
    "wn</w>": 1907,
    "ways</w>": 1908,
    "dence</w>": 1909,
    "main": 1910,
    "review</w>": 1911,
    "blue</w>": 1912,
    "pped</w>": 1913,
    "cy</w>": 1914,
    "atory</w>": 1915,
    "hos": 1916,
    "feet</w>": 1917,
    "scored</w>": 1918,
    "onom": 1919,
    "india</w>": 1920,
    "players</w>": 1921,
    "stem</w>": 1922,
    "ce": 1923,
    "upon</w>": 1924,
    "body</w>": 1925,
    "live</w>": 1926,
    "good</w>": 1927,
    "respec": 1928,
    "presi": 1929,
    "ols</w>": 1930,
    "aper</w>": 1931,
    "int</w>": 1932,
    "women</w>": 1933,
    "society</w>": 1934,
    "ically</w>": 1935,
    "chart</w>": 1936,
    "ult</w>": 1937,
    "bar</w>": 1938,
    "review": 1939,
    "eastern</w>": 1940,
    "dy": 1941,
    "tural</w>": 1942,
    "shiva</w>": 1943,
    "nba</w>": 1944,
    "ferred</w>": 1945,
    "acks</w>": 1946,
    "que</w>": 1947,
    "public": 1948,
    "few</w>": 1949,
    "commer": 1950,
    "100</w>": 1951,
    "wing</w>": 1952,
    "spacing</w>": 1953,
    "stand": 1954,
    "having</w>": 1955,
    "himself</w>": 1956,
    "next</w>": 1957,
    "come</w>": 1958,
    "mit": 1959,
    "febru": 1960,
    "february</w>": 1961,
    "include</w>": 1962,
    "depic": 1963,
    "ental</w>": 1964,
    "ering</w>": 1965,
    "cardinal</w>": 1966,
    "cath": 1967,
    "!</w>": 1968,
    "illo</w>": 1969,
    "move</w>": 1970,
    "sw": 1971,
    "dar": 1972,
    "ides</w>": 1973,
    "gave</w>": 1974,
    "space</w>": 1975,
    "origin": 1976,
    "similar</w>": 1977,
    "uk</w>": 1978,
    "cro": 1979,
    "tan": 1980,
    "how</w>": 1981,
    "186": 1982,
    "author": 1983,
    "days</w>": 1984,
    "domin": 1985,
    "occu": 1986,
    "signific": 1987,
    "hl</w>": 1988,
    "performance</w>": 1989,
    "truj": 1990,
    "mul": 1991,
    "returned</w>": 1992,
    "ens</w>": 1993,
    "victor": 1994,
    "design</w>": 1995,
    "seven</w>": 1996,
    "ash</w>": 1997,
    "iting</w>": 1998,
    "museum</w>": 1999,
    "tation</w>": 2000,
    "ural</w>": 2001,
    "established</w>": 2002,
    "ead</w>": 2003,
    "river</w>": 2004,
    "depar": 2005,
    "center</w>": 2006,
    "claim": 2007,
    "afric": 2008,
    "stra": 2009,
    "audi": 2010,
    "trujillo</w>": 2011,
    "class": 2012,
    "toge": 2013,
    "together</w>": 2014,
    "short</w>": 2015,
    "popular</w>": 2016,
    "head": 2017,
    "chap": 2018,
    "ligh": 2019,
    "religi": 2020,
    "manag": 2021,
    "seen</w>": 2022,
    "bre": 2023,
    "date</w>": 2024,
    "vision</w>": 2025,
    "characters</w>": 2026,
    "points</w>": 2027,
    "heav": 2028,
    "suff": 2029,
    "support</w>": 2030,
    "ems</w>": 2031,
    "novel</w>": 2032,
    "others</w>": 2033,
    "189": 2034,
    "hom": 2035,
    "cru": 2036,
    "union</w>": 2037,
    "born</w>": 2038,
    "jac": 2039,
    "international</w>": 2040,
    "voc": 2041,
    "type</w>": 2042,
    "jewish</w>": 2043,
    "developed</w>": 2044,
    "addi": 2045,
    "ep</w>": 2046,
    "sent</w>": 2047,
    "various</w>": 2048,
    "ably</w>": 2049,
    "abo": 2050,
    "ago</w>": 2051,
    "educ": 2052,
    "view": 2053,
    "anti</w>": 2054,
    "cathol": 2055,
    "brit": 2056,
    "squadron</w>": 2057,
    "relationship</w>": 2058,
    "ians</w>": 2059,
    "leuk": 2060,
    "playing</w>": 2061,
    "depen": 2062,
    "yed</w>": 2063,
    "ai</w>": 2064,
    "instead</w>": 2065,
    "ions</w>": 2066,
    "country</w>": 2067,
    "remained</w>": 2068,
    "187": 2069,
    "fif": 2070,
    "ls</w>": 2071,
    "survi": 2072,
    "colle": 2073,
    "storm</w>": 2074,
    "kingdom</w>": 2075,
    "version</w>": 2076,
    "bus": 2077,
    "formation</w>": 2078,
    "bran": 2079,
    "gn": 2080,
    "israel</w>": 2081,
    "ire</w>": 2082,
    "felt</w>": 2083,
    "ly": 2084,
    "too</w>": 2085,
    "road</w>": 2086,
    "han": 2087,
    "moun": 2088,
    "188": 2089,
    "fav": 2090,
    "ots</w>": 2091,
    "colum": 2092,
    "band</w>": 2093,
    "earli": 2094,
    "tech": 2095,
    "ander": 2096,
    "wide</w>": 2097,
    "range</w>": 2098,
    "iled</w>": 2099,
    "curren": 2100,
    "nest</w>": 2101,
    "comp": 2102,
    "ability</w>": 2103,
    "face</w>": 2104,
    "press</w>": 2105,
    "reported</w>": 2106,
    "trad": 2107,
    "’</w>": 2108,
    "never</w>": 2109,
    "lor": 2110,
    "ra</w>": 2111,
    "sex": 2112,
    "ski</w>": 2113,
    "four": 2114,
    "val</w>": 2115,
    "tad": 2116,
    "osa": 2117,
    "development</w>": 2118,
    "spea": 2119,
    "great": 2120,
    "aff": 2121,
    "created</w>": 2122,
    "io</w>": 2123,
    "prob": 2124,
    "modern</w>": 2125,
    "go</w>": 2126,
    "viol": 2127,
    "mix": 2128,
    "anderson</w>": 2129,
    "ane</w>": 2130,
    "iness</w>": 2131,
    "gol": 2132,
    "dollar</w>": 2133,
    "sov": 2134,
    "ky": 2135,
    "iii</w>": 2136,
    "went</w>": 2137,
    "previous</w>": 2138,
    "indivi": 2139,
    "individu": 2140,
    "table</w>": 2141,
    "destroy": 2142,
    "ided</w>": 2143,
    "enced</w>": 2144,
    "profes": 2145,
    "vent": 2146,
    "ues</w>": 2147,
    "person": 2148,
    "training</w>": 2149,
    "roman</w>": 2150,
    "duced</w>": 2151,
    "ka": 2152,
    "egyptian</w>": 2153,
    "ound": 2154,
    "leukem": 2155,
    "secre": 2156,
    "own": 2157,
    "battle</w>": 2158,
    "member</w>": 2159,
    "fire</w>": 2160,
    "full</w>": 2161,
    "ularly</w>": 2162,
    "mer</w>": 2163,
    "navy</w>": 2164,
    "police</w>": 2165,
    "mal": 2166,
    "aver": 2167,
    "cy": 2168,
    "award</w>": 2169,
    "radi": 2170,
    "ants</w>": 2171,
    "archaeological</w>": 2172,
    "sap": 2173,
    "rang</w>": 2174,
    "making</w>": 2175,
    "system</w>": 2176,
    "does</w>": 2177,
    "22</w>": 2178,
    "ially</w>": 2179,
    "conc": 2180,
    "addition</w>": 2181,
    "leading</w>": 2182,
    "taken</w>": 2183,
    "research</w>": 2184,
    "hib": 2185,
    "president</w>": 2186,
    "eman</w>": 2187,
    "died</w>": 2188,
    "put</w>": 2189,
    "mix</w>": 2190,
    "royal</w>": 2191,
    "awards</w>": 2192,
    "court</w>": 2193,
    "dies</w>": 2194,
    "aer": 2195,
    "tl": 2196,
    "low</w>": 2197,
    "grad": 2198,
    "gran": 2199,
    "ha</w>": 2200,
    "becom": 2201,
    "ital</w>": 2202,
    "scen": 2203,
    "mater": 2204,
    "vely</w>": 2205,
    "tures</w>": 2206,
    "prin": 2207,
    "damaged</w>": 2208,
    "event": 2209,
    "28</w>": 2210,
    "total</w>": 2211,
    "sor": 2212,
    "chic": 2213,
    "pag": 2214,
    "schol": 2215,
    "na</w>": 2216,
    "ports</w>": 2217,
    "mm</w>": 2218,
    "60</w>": 2219,
    "syl": 2220,
    "iston</w>": 2221,
    "metr": 2222,
    "saprang</w>": 2223,
    "hon": 2224,
    "sun": 2225,
    "person</w>": 2226,
    "female</w>": 2227,
    "post</w>": 2228,
    "impro": 2229,
    "sib": 2230,
    "jour": 2231,
    "lish</w>": 2232,
    "writer</w>": 2233,
    "tively</w>": 2234,
    "tower</w>": 2235,
    "park</w>": 2236,
    "bert</w>": 2237,
    "feder": 2238,
    "company</w>": 2239,
    "common</w>": 2240,
    "pris": 2241,
    "guns</w>": 2242,
    "26</w>": 2243,
    "cent</w>": 2244,
    "tour": 2245,
    "vill": 2246,
    "ek</w>": 2247,
    "least</w>": 2248,
    "double</w>": 2249,
    "mag": 2250,
    "langu": 2251,
    "pow": 2252,
    "neu": 2253,
    "wood</w>": 2254,
    "intro": 2255,
    "saw</w>": 2256,
    "dru": 2257,
    "emplo": 2258,
    "ired</w>": 2259,
    "originally</w>": 2260,
    "ened</w>": 2261,
    "beh": 2262,
    "tial</w>": 2263,
    "cial</w>": 2264,
    "priv": 2265,
    "kers</w>": 2266,
    "pointed</w>": 2267,
    "zz": 2268,
    "phys": 2269,
    "political</w>": 2270,
    "damage</w>": 2271,
    "rest</w>": 2272,
    "special</w>": 2273,
    "ops</w>": 2274,
    "identi": 2275,
    "chem": 2276,
    "performed</w>": 2277,
    "mary</w>": 2278,
    "case</w>": 2279,
    "chris": 2280,
    "compe": 2281,
    "tter</w>": 2282,
    "mc": 2283,
    "recording</w>": 2284,
    "run</w>": 2285,
    "comed": 2286,
    "films</w>": 2287,
    "concer": 2288,
    "broad": 2289,
    "stat": 2290,
    "wilde</w>": 2291,
    "ria</w>": 2292,
    "critic": 2293,
    "elling</w>": 2294,
    "lines</w>": 2295,
    "&</w>": 2296,
    "above</w>": 2297,
    "association</w>": 2298,
    "books</w>": 2299,
    "resi": 2300,
    "lls</w>": 2301,
    "estim": 2302,
    "reached</w>": 2303,
    "ishing</w>": 2304,
    "commis": 2305,
    "result</w>": 2306,
    "micha": 2307,
    "davi": 2308,
    "2015</w>": 2309,
    "britain</w>": 2310,
    "industry</w>": 2311,
    "operation</w>": 2312,
    "pping</w>": 2313,
    "texas</w>": 2314,
    "arded</w>": 2315,
    "works</w>": 2316,
    "advantage</w>": 2317,
    "worked</w>": 2318,
    "exp": 2319,
    "ending</w>": 2320,
    "10": 2321,
    "indian</w>": 2322,
    "ination</w>": 2323,
    "regim": 2324,
    "ington</w>": 2325,
    "san": 2326,
    "roun": 2327,
    "discover": 2328,
    "professi": 2329,
    "190": 2330,
    "level</w>": 2331,
    "theat": 2332,
    "tv</w>": 2333,
    "canada</w>": 2334,
    "?</w>": 2335,
    "iet</w>": 2336,
    "underground</w>": 2337,
    "russi": 2338,
    "archaeology</w>": 2339,
    "station</w>": 2340,
    "2014</w>": 2341,
    "either</w>": 2342,
    "records</w>": 2343,
    "present</w>": 2344,
    "xim": 2345,
    "view</w>": 2346,
    "maga": 2347,
    "magaz": 2348,
    "exten": 2349,
    "kets</w>": 2350,
    "week</w>": 2351,
    "rick</w>": 2352,
    "front</w>": 2353,
    "conclu": 2354,
    "ock</w>": 2355,
    "mother</w>": 2356,
    "schools</w>": 2357,
    "ention</w>": 2358,
    "round</w>": 2359,
    "tal": 2360,
    "atic</w>": 2361,
    "era</w>": 2362,
    "story": 2363,
    "law</w>": 2364,
    "zi": 2365,
    "sentence</w>": 2366,
    "tained</w>": 2367,
    "ific</w>": 2368,
    "mean": 2369,
    "sting</w>": 2370,
    "successful</w>": 2371,
    "ram": 2372,
    "reve": 2373,
    "official</w>": 2374,
    "english</w>": 2375,
    "behind</w>": 2376,
    "strict</w>": 2377,
    "fully</w>": 2378,
    "miles</w>": 2379,
    "gun</w>": 2380,
    "ne</w>": 2381,
    "ology</w>": 2382,
    "ption</w>": 2383,
    "commercial</w>": 2384,
    "ders</w>": 2385,
    "2003</w>": 2386,
    "plan</w>": 2387,
    "cher</w>": 2388,
    "elli</w>": 2389,
    "ium</w>": 2390,
    "monument</w>": 2391,
    "aniston</w>": 2392,
    "itz</w>": 2393,
    "command</w>": 2394,
    "ech": 2395,
    "events</w>": 2396,
    "nar": 2397,
    "standing</w>": 2398,
    "ka</w>": 2399,
    "ained</w>": 2400,
    "ockey</w>": 2401,
    "hand</w>": 2402,
    "ho": 2403,
    "goal</w>": 2404,
    "sac": 2405,
    "reti": 2406,
    "taking</w>": 2407,
    "recog": 2408,
    "dro": 2409,
    "pau": 2410,
    "nal</w>": 2411,
    "sylvan": 2412,
    "comedy</w>": 2413,
    "ali</w>": 2414,
    "treat": 2415,
    "urus</w>": 2416,
    "outside</w>": 2417,
    "critics</w>": 2418,
    "ine": 2419,
    "territ": 2420,
    "initially</w>": 2421,
    "bon": 2422,
    "lat": 2423,
    "wa": 2424,
    "hen": 2425,
    "hall</w>": 2426,
    "prepar": 2427,
    "service</w>": 2428,
    "fru": 2429,
    "hospit": 2430,
    "45</w>": 2431,
    "ore</w>": 2432,
    "ference</w>": 2433,
    "college</w>": 2434,
    "community</w>": 2435,
    "neutr": 2436,
    "oli": 2437,
    "markgra": 2438,
    "markgraf</w>": 2439,
    "furtad": 2440,
    "furtado</w>": 2441,
    "chron": 2442,
    "run": 2443,
    "cal": 2444,
    "anim": 2445,
    "return</w>": 2446,
    "spe": 2447,
    "diffic": 2448,
    "fort</w>": 2449,
    "evi": 2450,
    "kill": 2451,
    "forms</w>": 2452,
    "arri": 2453,
    "27</w>": 2454,
    "eption</w>": 2455,
    "eventually</w>": 2456,
    "termin": 2457,
    "month</w>": 2458,
    "office</w>": 2459,
    "child</w>": 2460,
    "ography</w>": 2461,
    "j</w>": 2462,
    "sometimes</w>": 2463,
    "wall</w>": 2464,
    "geor": 2465,
    "cup</w>": 2466,
    "thre": 2467,
    "ucle": 2468,
    "hockey</w>": 2469,
    "nhl</w>": 2470,
    "ital": 2471,
    "appointed</w>": 2472,
    "bc</w>": 2473,
    "ational</w>": 2474,
    "eas": 2475,
    "success</w>": 2476,
    "america</w>": 2477,
    "transpor": 2478,
    "catholic</w>": 2479,
    "shol": 2480,
    "sholay</w>": 2481,
    "ution</w>": 2482,
    "sters</w>": 2483,
    "dings</w>": 2484,
    "super": 2485,
    "med</w>": 2486,
    "strong</w>": 2487,
    "activi": 2488,
    "uses</w>": 2489,
    "studio</w>": 2490,
    "southern</w>": 2491,
    "lands</w>": 2492,
    "zed</w>": 2493,
    "tig": 2494,
    "teen</w>": 2495,
    "cut</w>": 2496,
    "actre": 2497,
    "accep": 2498,
    "aying</w>": 2499,
    "bes</w>": 2500,
    "albums</w>": 2501,
    "soviet</w>": 2502,
    "jap": 2503,
    "scri": 2504,
    "adap": 2505,
    "hear": 2506,
    "thought</w>": 2507,
    "piec": 2508,
    "particularly</w>": 2509,
    "natural</w>": 2510,
    "conn": 2511,
    "kly</w>": 2512,
    "draw</w>": 2513,
    "depart": 2514,
    "abor": 2515,
    "private</w>": 2516,
    "closed</w>": 2517,
    "social</w>": 2518,
    "appeared</w>": 2519,
    "europe</w>": 2520,
    "ens": 2521,
    "vari": 2522,
    "eat": 2523,
    "compar": 2524,
    "free</w>": 2525,
    "remains</w>": 2526,
    "paul</w>": 2527,
    "ounds</w>": 2528,
    "mir": 2529,
    "penn": 2530,
    "fas": 2531,
    "divine</w>": 2532,
    "blood</w>": 2533,
    "show": 2534,
    "hurric": 2535,
    "crake</w>": 2536,
    "valky": 2537,
    "occur": 2538,
    "ential</w>": 2539,
    "meth": 2540,
    "eding</w>": 2541,
    "magazine</w>": 2542,
    "started</w>": 2543,
    "lost</w>": 2544,
    "flo": 2545,
    "arts</w>": 2546,
    "historic</w>": 2547,
    "match</w>": 2548,
    "northern</w>": 2549,
    "sha": 2550,
    "michael</w>": 2551,
    "sylvania</w>": 2552,
    "ogue</w>": 2553,
    "belie": 2554,
    "example</w>": 2555,
    "thin": 2556,
    "avi": 2557,
    "hurricane</w>": 2558,
    "real</w>": 2559,
    "opening</w>": 2560,
    "limited</w>": 2561,
    "pot": 2562,
    "ils</w>": 2563,
    "rac": 2564,
    "civil</w>": 2565,
    "officers</w>": 2566,
    "proc": 2567,
    "forced</w>": 2568,
    "brou": 2569,
    "aller</w>": 2570,
    "land": 2571,
    "dle</w>": 2572,
    "students</w>": 2573,
    "ever": 2574,
    "asons</w>": 2575,
    "across</w>": 2576,
    "hab": 2577,
    "australia</w>": 2578,
    "nucle": 2579,
    "ators</w>": 2580,
    "going</w>": 2581,
    "earlier</w>": 2582,
    "archit": 2583,
    "ham": 2584,
    "critical</w>": 2585,
    "bill": 2586,
    "ya</w>": 2587,
    "whom</w>": 2588,
    "argu": 2589,
    "yon": 2590,
    "eaton</w>": 2591,
    "zan": 2592,
    "nine</w>": 2593,
    "lear": 2594,
    "provided</w>": 2595,
    "actions</w>": 2596,
    "loo": 2597,
    "word</w>": 2598,
    "education</w>": 2599,
    "elled</w>": 2600,
    "ough</w>": 2601,
    "2005</w>": 2602,
    "football</w>": 2603,
    "base</w>": 2604,
    "thic</w>": 2605,
    "nature</w>": 2606,
    "econom": 2607,
    "ization</w>": 2608,
    "subsequ": 2609,
    "joined</w>": 2610,
    "sound</w>": 2611,
    "enty</w>": 2612,
    "scre": 2613,
    "flying</w>": 2614,
    "see</w>": 2615,
    "mans</w>": 2616,
    "institute</w>": 2617,
    "jaz": 2618,
    "aled</w>": 2619,
    "additional</w>": 2620,
    "help</w>": 2621,
    "inning</w>": 2622,
    "corpor": 2623,
    "appe": 2624,
    "working</w>": 2625,
    "avail": 2626,
    "possible</w>": 2627,
    "commander</w>": 2628,
    "wall": 2629,
    "mas": 2630,
    "ories</w>": 2631,
    "ges</w>": 2632,
    "trav": 2633,
    "indic": 2634,
    "prior</w>": 2635,
    "friend</w>": 2636,
    "back": 2637,
    "weeks</w>": 2638,
    "jes": 2639,
    "fication</w>": 2640,
    "language</w>": 2641,
    "david</w>": 2642,
    "followed</w>": 2643,
    "struck</w>": 2644,
    "han</w>": 2645,
    "character": 2646,
    "2004</w>": 2647,
    "gy</w>": 2648,
    "aliers</w>": 2649,
    "palest": 2650,
    "thews</w>": 2651,
    "personal</w>": 2652,
    "troops</w>": 2653,
    "regular</w>": 2654,
    "tain": 2655,
    "parts</w>": 2656,
    "designed</w>": 2657,
    "deta": 2658,
    "summer</w>": 2659,
    "31</w>": 2660,
    "inspir": 2661,
    "arsen": 2662,
    "completed</w>": 2663,
    "allowed</w>": 2664,
    "pressed</w>": 2665,
    "open</w>": 2666,
    "broo": 2667,
    "added</w>": 2668,
    "wife</w>": 2669,
    "cm</w>": 2670,
    "willi": 2671,
    "close</w>": 2672,
    "ang</w>": 2673,
    "ayer</w>": 2674,
    "ean</w>": 2675,
    "tour</w>": 2676,
    "baske": 2677,
    "basketball</w>": 2678,
    "bulls</w>": 2679,
    "osaurus</w>": 2680,
    "chess</w>": 2681,
    "valkyria</w>": 2682,
    "entire</w>": 2683,
    "ym": 2684,
    "armed</w>": 2685,
    "ata</w>": 2686,
    "500</w>": 2687,
    "featured</w>": 2688,
    "represent": 2689,
    "goals</w>": 2690,
    "ney</w>": 2691,
    "atter": 2692,
    "department</w>": 2693,
    "soon</w>": 2694,
    "activities</w>": 2695,
    "thy</w>": 2696,
    "religious</w>": 2697,
    "division</w>": 2698,
    "dri": 2699,
    "contract</w>": 2700,
    "fourth</w>": 2701,
    "greatest</w>": 2702,
    "twenty</w>": 2703,
    "every</w>": 2704,
    "200</w>": 2705,
    "appl": 2706,
    "beyon": 2707,
    "image</w>": 2708,
    "pun": 2709,
    "pea": 2710,
    "metal</w>": 2711,
    "ulp": 2712,
    "gate</w>": 2713,
    "jazz</w>": 2714,
    "commandment</w>": 2715,
    "mathews</w>": 2716,
    "features</w>": 2717,
    "revol": 2718,
    "shar": 2719,
    "ingly</w>": 2720,
    "decided</w>": 2721,
    "che": 2722,
    "inj": 2723,
    "real": 2724,
    "increased</w>": 2725,
    "ultim": 2726,
    "opened</w>": 2727,
    "brought</w>": 2728,
    "change</w>": 2729,
    "significant</w>": 2730,
    "fair": 2731,
    "conduc": 2732,
    "ices</w>": 2733,
    "anal": 2734,
    "sea</w>": 2735,
    "study</w>": 2736,
    "shoo": 2737,
    "believed</w>": 2738,
    "jack</w>": 2739,
    "shown</w>": 2740,
    "every": 2741,
    "frag": 2742,
    "pennsylvania</w>": 2743,
    "wea": 2744,
    "yi</w>": 2745,
    "stones</w>": 2746,
    "coleman</w>": 2747,
    "experi": 2748,
    "indepen": 2749,
    "evidence</w>": 2750,
    "finished</w>": 2751,
    "material</w>": 2752,
    "generally</w>": 2753,
    "sim": 2754,
    "thus</w>": 2755,
    "185": 2756,
    "district</w>": 2757,
    "ling</w>": 2758,
    "george</w>": 2759,
    "memor": 2760,
    "ours</w>": 2761,
    "ex</w>": 2762,
    "region</w>": 2763,
    "eigh": 2764,
    "+</w>": 2765,
    "tres</w>": 2766,
    "eter</w>": 2767,
    "academy</w>": 2768,
    "dance</w>": 2769,
    "occup": 2770,
    "reviews</w>": 2771,
    "business</w>": 2772,
    "bom": 2773,
    "adop": 2774,
    "fall</w>": 2775,
    "radio</w>": 2776,
    "entary</w>": 2777,
    "sculp": 2778,
    "chev": 2779,
    "catech": 2780,
    "woman</w>": 2781,
    "stly</w>": 2782,
    "alli": 2783,
    "involved</w>": 2784,
    "listed</w>": 2785,
    "15": 2786,
    "pac": 2787,
    "stop": 2788,
    "six": 2789,
    "utive</w>": 2790,
    "agreed</w>": 2791,
    "mur": 2792,
    "rance</w>": 2793,
    "chicago</w>": 2794,
    "fo": 2795,
    "professional</w>": 2796,
    "middle</w>": 2797,
    "liter": 2798,
    "jects</w>": 2799,
    "mel": 2800,
    "things</w>": 2801,
    "trade</w>": 2802,
    "winning</w>": 2803,
    "highest</w>": 2804,
    "break</w>": 2805,
    "norm": 2806,
    "actress</w>": 2807,
    "culture</w>": 2808,
    "ective</w>": 2809,
    "sky</w>": 2810,
    "prof": 2811,
    "priest</w>": 2812,
    "counc": 2813,
    "ico</w>": 2814,
    "marri": 2815,
    "baby</w>": 2816,
    "excavation</w>": 2817,
    "nation</w>": 2818,
    "carried</w>": 2819,
    "pper</w>": 2820,
    "issue</w>": 2821,
    "available</w>": 2822,
    "sold</w>": 2823,
    "ti</w>": 2824,
    "tled</w>": 2825,
    "istic</w>": 2826,
    "proper": 2827,
    "thom": 2828,
    "nearly</w>": 2829,
    "don": 2830,
    "christian</w>": 2831,
    "ey": 2832,
    "mes</w>": 2833,
    "below</w>": 2834,
    "ma</w>": 2835,
    "da</w>": 2836,
    "vati": 2837,
    "80</w>": 2838,
    "ino</w>": 2839,
    "suggested</w>": 2840,
    "ty": 2841,
    "street</w>": 2842,
    "highway</w>": 2843,
    "fern": 2844,
    "mi</w>": 2845,
    "conv": 2846,
    "battl": 2847,
    "traditi": 2848,
    "la</w>": 2849,
    "oid</w>": 2850,
    "square</w>": 2851,
    "ero</w>": 2852,
    "catechism</w>": 2853,
    "chevaliers</w>": 2854,
    "eless</w>": 2855,
    "praised</w>": 2856,
    "gres": 2857,
    "tting</w>": 2858,
    "names</w>": 2859,
    "em</w>": 2860,
    "ster": 2861,
    "eded</w>": 2862,
    "appearance</w>": 2863,
    "ising</w>": 2864,
    "announ": 2865,
    "title</w>": 2866,
    "almost</w>": 2867,
    "nei": 2868,
    "paper</w>": 2869,
    "tured</w>": 2870,
    "mini": 2871,
    "competi": 2872,
    "sus": 2873,
    "cho": 2874,
    "africa</w>": 2875,
    "particip": 2876,
    "lik": 2877,
    "bus</w>": 2878,
    "draft</w>": 2879,
    "scoring</w>": 2880,
    "rang": 2881,
    "bridge</w>": 2882,
    "billboard</w>": 2883,
    "crew</w>": 2884,
    "report</w>": 2885,
    "complete</w>": 2886,
    "cull": 2887,
    "prec": 2888,
    "tory</w>": 2889,
    "branch</w>": 2890,
    "corn</w>": 2891,
    "mex": 2892,
    "af</w>": 2893,
    "romanian</w>": 2894,
    "krak</w>": 2895,
    "chronic": 2896,
    "assigned</w>": 2897,
    "mission</w>": 2898,
    "alth</w>": 2899,
    "officer</w>": 2900,
    "towards</w>": 2901,
    "enter": 2902,
    "purpos": 2903,
    "foc": 2904,
    "kar": 2905,
    "deli": 2906,
    "ials</w>": 2907,
    "ket</w>": 2908,
    "iron</w>": 2909,
    "largest</w>": 2910,
    "marked</w>": 2911,
    "ature</w>": 2912,
    "hill</w>": 2913,
    "jackets</w>": 2914,
    "girls</w>": 2915,
    "laun": 2916,
    "via</w>": 2917,
    "estimated</w>": 2918,
    "cave</w>": 2919,
    "caused</w>": 2920,
    "coach</w>": 2921,
    "met": 2922,
    "lu": 2923,
    "actor</w>": 2924,
    "daily</w>": 2925,
    "lady</w>": 2926,
    "fashi": 2927,
    "temple</w>": 2928,
    "drum</w>": 2929,
    "europe": 2930,
    "90</w>": 2931,
    "ler</w>": 2932,
    "det": 2933,
    "poland</w>": 2934,
    "studies</w>": 2935,
    "tintin</w>": 2936,
    "media</w>": 2937,
    "elements</w>": 2938,
    "kur": 2939,
    "heavy</w>": 2940,
    "certain</w>": 2941,
    "beginning</w>": 2942,
    "wanted</w>": 2943,
    "pre</w>": 2944,
    "save</w>": 2945,
    "situ": 2946,
    "necess": 2947,
    "hem": 2948,
    "exec": 2949,
    "rap": 2950,
    "larger</w>": 2951,
    "sites</w>": 2952,
    "mark</w>": 2953,
    "claimed</w>": 2954,
    "was": 2955,
    "augh": 2956,
    "woo": 2957,
    "find</w>": 2958,
    "ranked</w>": 2959,
    "champi": 2960,
    "2002</w>": 2961,
    "greater</w>": 2962,
    "nuclear</w>": 2963,
    "size</w>": 2964,
    "start</w>": 2965,
    "might</w>": 2966,
    "ica</w>": 2967,
    "newsp": 2968,
    "dez</w>": 2969,
    "nomin": 2970,
    "un</w>": 2971,
    "figh": 2972,
    "enth</w>": 2973,
    "canc": 2974,
    "therap": 2975,
    "13": 2976,
    "fig": 2977,
    "council</w>": 2978,
    "polic": 2979,
    "cultural</w>": 2980,
    "jer": 2981,
    "clark": 2982,
    "clarkson</w>": 2983,
    "fei</w>": 2984,
    "writers</w>": 2985,
    "specific</w>": 2986,
    "whose</w>": 2987,
    "ready</w>": 2988,
    "ounded</w>": 2989,
    "shortly</w>": 2990,
    "hop": 2991,
    "previously</w>": 2992,
    "amm": 2993,
    "shot</w>": 2994,
    "surroun": 2995,
    "electr": 2996,
    "aught</w>": 2997,
    "keep": 2998,
    "tt</w>": 2999,
    "ili": 3000,
    "sn": 3001,
    "hour</w>": 3002,
    "minute</w>": 3003,
    "atis": 3004,
    "exist": 3005,
    "bil": 3006,
    "cin": 3007,
    "defin": 3008,
    "trac": 3009,
    "cullen</w>": 3010,
    "1996</w>": 3011,
    "introduced</w>": 3012,
    "increas": 3013,
    "surve": 3014,
    "pilot</w>": 3015,
    "golden</w>": 3016,
    "marriage</w>": 3017,
    "germany</w>": 3018,
    "caves</w>": 3019,
    "settl": 3020,
    "dershow": 3021,
    "dershowitz</w>": 3022,
    "hand": 3023,
    "units</w>": 3024,
    "happ": 3025,
    "divi": 3026,
    "alter": 3027,
    "always</w>": 3028,
    "destroyed</w>": 3029,
    "separ": 3030,
    "fy</w>": 3031,
    "feel": 3032,
    "2001</w>": 3033,
    "distinc": 3034,
    "robert</w>": 3035,
    "mach": 3036,
    "accoun": 3037,
    "shows</w>": 3038,
    "barker</w>": 3039,
    "lic": 3040,
    "give</w>": 3041,
    "phot": 3042,
    "pec": 3043,
    "patter": 3044,
    "term</w>": 3045,
    "fifth</w>": 3046,
    "44</w>": 3047,
    "vice</w>": 3048,
    "ille</w>": 3049,
    "winds</w>": 3050,
    "stage</w>": 3051,
    "mixed</w>": 3052,
    "dan": 3053,
    "says</w>": 3054,
    "bloc": 3055,
    "primary</w>": 3056,
    "interest</w>": 3057,
    "saying</w>": 3058,
    "itself</w>": 3059,
    "onally</w>": 3060,
    "monuments</w>": 3061,
    "aviation</w>": 3062,
    "gli": 3063,
    "european</w>": 3064,
    "areas</w>": 3065,
    "uran": 3066,
    "á</w>": 3067,
    "bish": 3068,
    "sb</w>": 3069,
    "hygro": 3070,
    "zom": 3071,
    "geoff</w>": 3072,
    "horses</w>": 3073,
    "down": 3074,
    "activ": 3075,
    "true</w>": 3076,
    "amoun": 3077,
    "thes": 3078,
    "particular</w>": 3079,
    "serious</w>": 3080,
    "29</w>": 3081,
    "ama</w>": 3082,
    "directed</w>": 3083,
    "captain</w>": 3084,
    "ultimately</w>": 3085,
    "read</w>": 3086,
    "mun": 3087,
    "probably</w>": 3088,
    "campa": 3089,
    "labor": 3090,
    "log": 3091,
    "room</w>": 3092,
    "black": 3093,
    "ques": 3094,
    "allowing</w>": 3095,
    "helped</w>": 3096,
    "debut</w>": 3097,
    "better</w>": 3098,
    "commit": 3099,
    "historical</w>": 3100,
    "lled</w>": 3101,
    "tually</w>": 3102,
    "law": 3103,
    "recogni": 3104,
    "far</w>": 3105,
    "shr": 3106,
    "nu": 3107,
    "importance</w>": 3108,
    "ackn": 3109,
    "rapped</w>": 3110,
    "ream</w>": 3111,
    "minist": 3112,
    "eag": 3113,
    "madero</w>": 3114,
    "gas</w>": 3115,
    "mig": 3116,
    "sources</w>": 3117,
    "leukemia</w>": 3118,
    "tonin": 3119,
    "toniná</w>": 3120,
    "zanzi": 3121,
    "standard</w>": 3122,
    "pt</w>": 3123,
    "met</w>": 3124,
    "expan": 3125,
    "grow": 3126,
    "engine": 3127,
    "speci": 3128,
    "mostly</w>": 3129,
    "rather</w>": 3130,
    "structure</w>": 3131,
    "owned</w>": 3132,
    "overall</w>": 3133,
    "ditions</w>": 3134,
    "arsenal</w>": 3135,
    "remaining</w>": 3136,
    "bud": 3137,
    "mitted</w>": 3138,
    "pair": 3139,
    "rif": 3140,
    "cali": 3141,
    "20th</w>": 3142,
    "finally</w>": 3143,
    "tis": 3144,
    "promis": 3145,
    "favor": 3146,
    "ency</w>": 3147,
    "sun</w>": 3148,
    "background</w>": 3149,
    "meas": 3150,
    "usually</w>": 3151,
    "sexual</w>": 3152,
    "replaced</w>": 3153,
    "manager</w>": 3154,
    "sure</w>": 3155,
    "ah</w>": 3156,
    "atlan": 3157,
    "inches</w>": 3158,
    "charles</w>": 3159,
    "bay</w>": 3160,
    "supported</w>": 3161,
    "agn": 3162,
    "iser</w>": 3163,
    "vess": 3164,
    "aerod": 3165,
    "aerodro": 3166,
    "increase</w>": 3167,
    "reag": 3168,
    "ison</w>": 3169,
    "allosaurus</w>": 3170,
    "related</w>": 3171,
    "minor</w>": 3172,
    "ilities</w>": 3173,
    "feature</w>": 3174,
    "crow": 3175,
    "serve</w>": 3176,
    "response</w>": 3177,
    "tun": 3178,
    "tra</w>": 3179,
    "asp": 3180,
    "acy</w>": 3181,
    "arms</w>": 3182,
    "smi": 3183,
    "colon": 3184,
    "scop": 3185,
    "36</w>": 3186,
    "smaller</w>": 3187,
    "largely</w>": 3188,
    "teaching</w>": 3189,
    "clo": 3190,
    "holid": 3191,
    "ball": 3192,
    "fol": 3193,
    "becoming</w>": 3194,
    "ape</w>": 3195,
    "far": 3196,
    "angel": 3197,
    "average</w>": 3198,
    "observ": 3199,
    "ographi": 3200,
    "notes</w>": 3201,
    "stars</w>": 3202,
    "subsequently</w>": 3203,
    "difficult</w>": 3204,
    "fernan": 3205,
    "fernandez</w>": 3206,
    "party</w>": 3207,
    "cover": 3208,
    "therapy</w>": 3209,
    "yn</w>": 3210,
    "dary</w>": 3211,
    "mic": 3212,
    "declar": 3213,
    "coins</w>": 3214,
    "mexico</w>": 3215,
    "regime</w>": 3216,
    "ergy</w>": 3217,
    "master</w>": 3218,
    "had": 3219,
    "finals</w>": 3220,
    "sin</w>": 3221,
    "tac": 3222,
    "positive</w>": 3223,
    "told</w>": 3224,
    "ap</w>": 3225,
    "divided</w>": 3226,
    "ributed</w>": 3227,
    "upper</w>": 3228,
    "need</w>": 3229,
    "strum": 3230,
    "sibility</w>": 3231,
    "announced</w>": 3232,
    "governor</w>": 3233,
    "ior</w>": 3234,
    "12": 3235,
    "docum": 3236,
    "pair</w>": 3237,
    "1994</w>": 3238,
    "sister</w>": 3239,
    "kin": 3240,
    "got</w>": 3241,
    "services</w>": 3242,
    "1944</w>": 3243,
    "chall": 3244,
    "tries</w>": 3245,
    "course</w>": 3246,
    "ological</w>": 3247,
    "event</w>": 3248,
    "promin": 3249,
    "tains</w>": 3250,
    "changed</w>": 3251,
    "deal</w>": 3252,
    "terms</w>": 3253,
    "tch</w>": 3254,
    "discus": 3255,
    "regul": 3256,
    "immedi": 3257,
    "mid</w>": 3258,
    "metres</w>": 3259,
    "inch</w>": 3260,
    "current</w>": 3261,
    "ath": 3262,
    "source</w>": 3263,
    "ak</w>": 3264,
    "tons</w>": 3265,
    "any": 3266,
    "means</w>": 3267,
    "del</w>": 3268,
    "music": 3269,
    "cele": 3270,
    "rar": 3271,
    "tians</w>": 3272,
    "sty</w>": 3273,
    "figure</w>": 3274,
    "ican</w>": 3275,
    "near": 3276,
    "sb": 3277,
    "omar</w>": 3278,
    "chronicles</w>": 3279,
    "growth</w>": 3280,
    "health</w>": 3281,
    "porary</w>": 3282,
    "soldi": 3283,
    "types</w>": 3284,
    "proposed</w>": 3285,
    "sey</w>": 3286,
    "defe": 3287,
    "aff</w>": 3288,
    "instrum": 3289,
    "ought</w>": 3290,
    "tee</w>": 3291,
    "emer": 3292,
    "pon": 3293,
    "bul": 3294,
    "chie": 3295,
    "entrance</w>": 3296,
    "today</w>": 3297,
    "must</w>": 3298,
    "sue</w>": 3299,
    "influence</w>": 3300,
    "makes</w>": 3301,
    "william</w>": 3302,
    "columbus</w>": 3303,
    "nel</w>": 3304,
    "los</w>": 3305,
    "commissi": 3306,
    "tary</w>": 3307,
    "theast</w>": 3308,
    "32</w>": 3309,
    "suppor": 3310,
    "acting</w>": 3311,
    "16": 3312,
    "clear</w>": 3313,
    "floo": 3314,
    "cells</w>": 3315,
    "wol": 3316,
    "groups</w>": 3317,
    "whether</w>": 3318,
    "living</w>": 3319,
    "bodies</w>": 3320,
    "ize</w>": 3321,
    "wrapped</w>": 3322,
    "architec": 3323,
    "1939</w>": 3324,
    "airport</w>": 3325,
    "france</w>": 3326,
    "hus": 3327,
    "serves</w>": 3328,
    "lam": 3329,
    "gang": 3330,
    "19th</w>": 3331,
    "russian</w>": 3332,
    "coldrum</w>": 3333,
    "archaeologist</w>": 3334,
    "176": 3335,
    "myel": 3336,
    "martial</w>": 3337,
    "eshi": 3338,
    "acqu": 3339,
    "fore": 3340,
    "selves</w>": 3341,
    "capital</w>": 3342,
    "guit": 3343,
    "iling</w>": 3344,
    "ances</w>": 3345,
    "ums</w>": 3346,
    "federal</w>": 3347,
    "hold</w>": 3348,
    "alled</w>": 3349,
    "prev": 3350,
    "equip": 3351,
    "equipment</w>": 3352,
    "libr": 3353,
    "49</w>": 3354,
    "mou": 3355,
    "longer</w>": 3356,
    "itors</w>": 3357,
    "england</w>": 3358,
    "care</w>": 3359,
    "techn": 3360,
    "cover</w>": 3361,
    "beau": 3362,
    "lou": 3363,
    "cr": 3364,
    "male</w>": 3365,
    "individuals</w>": 3366,
    "offs</w>": 3367,
    "loss</w>": 3368,
    "ich</w>": 3369,
    "utes</w>": 3370,
    "represented</w>": 3371,
    "silver</w>": 3372,
    "cred": 3373,
    "circul": 3374,
    "span": 3375,
    "swe": 3376,
    "pop</w>": 3377,
    "remix</w>": 3378,
    "controlled</w>": 3379,
    "°</w>": 3380,
    "pul": 3381,
    "70</w>": 3382,
    "positions</w>": 3383,
    "future</w>": 3384,
    "god": 3385,
    "creation</w>": 3386,
    "whole</w>": 3387,
    "frequ": 3388,
    "traditional</w>": 3389,
    "festiv": 3390,
    "producer</w>": 3391,
    "associated</w>": 3392,
    "micro": 3393,
    "reaction</w>": 3394,
    "republic</w>": 3395,
    "storyline</w>": 3396,
    "houston</w>": 3397,
    "workers</w>": 3398,
    "d4</w>": 3399,
    "creut": 3400,
    "creutz</w>": 3401,
    "awa</w>": 3402,
    "portra": 3403,
    "text</w>": 3404,
    "turn</w>": 3405,
    "call</w>": 3406,
    "weap": 3407,
    "takes</w>": 3408,
    "numbers</w>": 3409,
    "ordered</w>": 3410,
    "asked</w>": 3411,
    "themselves</w>": 3412,
    "offered</w>": 3413,
    "staff</w>": 3414,
    "ib": 3415,
    "plans</w>": 3416,
    "richar": 3417,
    "inten": 3418,
    "turned</w>": 3419,
    "ans": 3420,
    "wid": 3421,
    "news</w>": 3422,
    "dor": 3423,
    "let</w>": 3424,
    "months</w>": 3425,
    "married</w>": 3426,
    "places</w>": 3427,
    "entered</w>": 3428,
    "attention</w>": 3429,
    "lined</w>": 3430,
    "dian</w>": 3431,
    "holiday</w>": 3432,
    "words</w>": 3433,
    "occurred</w>": 3434,
    "hit</w>": 3435,
    "pho": 3436,
    "john": 3437,
    "conference</w>": 3438,
    "dom": 3439,
    "franc": 3440,
    "lights</w>": 3441,
    "bra": 3442,
    "carol": 3443,
    "theatre</w>": 3444,
    "ef</w>": 3445,
    "offen": 3446,
    "flight</w>": 3447,
    "egypt</w>": 3448,
    "eas</w>": 3449,
    "past</w>": 3450,
    "information</w>": 3451,
    "opin": 3452,
    "submar": 3453,
    "duce</w>": 3454,
    "eagle</w>": 3455,
    "raaf</w>": 3456,
    "sentences</w>": 3457,
    "achiev": 3458,
    "hair": 3459,
    "earnest</w>": 3460,
    "giving</w>": 3461,
    "theme</w>": 3462,
    "explo": 3463,
    "killed</w>": 3464,
    "interview</w>": 3465,
    "required</w>": 3466,
    "taining</w>": 3467,
    "fer</w>": 3468,
    "leng": 3469,
    "twork</w>": 3470,
    "artists</w>": 3471,
    "expe": 3472,
    "foot</w>": 3473,
    "ession</w>": 3474,
    "rison</w>": 3475,
    "fact</w>": 3476,
    "yet</w>": 3477,
    "list": 3478,
    "42</w>": 3479,
    "chief</w>": 3480,
    "amed</w>": 3481,
    "rail": 3482,
    "stration</w>": 3483,
    "ile</w>": 3484,
    "collabor": 3485,
    "author</w>": 3486,
    "conducted</w>": 3487,
    "ran</w>": 3488,
    "attack</w>": 3489,
    "tale</w>": 3490,
    "bia</w>": 3491,
    "village</w>": 3492,
    "rights</w>": 3493,
    "opport": 3494,
    "opportun": 3495,
    "active</w>": 3496,
    "isation</w>": 3497,
    "variety</w>": 3498,
    "chin": 3499,
    "will": 3500,
    "alty</w>": 3501,
    "gradu": 3502,
    "fashion</w>": 3503,
    "1995</w>": 3504,
    "secondary</w>": 3505,
    "grew</w>": 3506,
    "strong": 3507,
    "promoted</w>": 3508,
    "ruler</w>": 3509,
    "cle</w>": 3510,
    "phas": 3511,
    "practi": 3512,
    "energy</w>": 3513,
    "want</w>": 3514,
    "bishop</w>": 3515,
    "crus": 3516,
    "reines</w>": 3517,
    "zanzibar</w>": 3518,
    "unit</w>": 3519,
    "multi": 3520,
    "location</w>": 3521,
    "selected</w>": 3522,
    "ellow</w>": 3523,
    "soldiers</w>": 3524,
    "combined</w>": 3525,
    "anci": 3526,
    "ority</w>": 3527,
    "themes</w>": 3528,
    "constructed</w>": 3529,
    "mos": 3530,
    "web": 3531,
    "79</w>": 3532,
    "illu": 3533,
    "com</w>": 3534,
    "native</w>": 3535,
    "specim": 3536,
    "transferred</w>": 3537,
    "already</w>": 3538,
    "smith</w>": 3539,
    "interpre": 3540,
    "ades</w>": 3541,
    "hands</w>": 3542,
    "issued</w>": 3543,
    "continue</w>": 3544,
    "artist</w>": 3545,
    "ening</w>": 3546,
    "australian</w>": 3547,
    "broken</w>": 3548,
    "seasons</w>": 3549,
    "1998</w>": 3550,
    "ld": 3551,
    "dedic": 3552,
    "pap": 3553,
    "que": 3554,
    "39</w>": 3555,
    "sta": 3556,
    "minutes</w>": 3557,
    "earned</w>": 3558,
    "naz": 3559,
    "forming</w>": 3560,
    "oes</w>": 3561,
    "ff</w>": 3562,
    "annual</w>": 3563,
    "secretary</w>": 3564,
    "ecting</w>": 3565,
    "canadian</w>": 3566,
    "je": 3567,
    "bing</w>": 3568,
    "entertain": 3569,
    "contem": 3570,
    "thak": 3571,
    "envir": 3572,
    "ger</w>": 3573,
    "process</w>": 3574,
    "older</w>": 3575,
    "prac": 3576,
    "certi": 3577,
    "35</w>": 3578,
    "fields</w>": 3579,
    "claim</w>": 3580,
    "nyi</w>": 3581,
    "cab": 3582,
    "urania</w>": 3583,
    "gab": 3584,
    "gw": 3585,
    "serving</w>": 3586,
    "direct</w>": 3587,
    "there": 3588,
    "fal": 3589,
    "see": 3590,
    "aband": 3591,
    "idea</w>": 3592,
    "revealed</w>": 3593,
    "gs</w>": 3594,
    "spo": 3595,
    "arity</w>": 3596,
    "scene</w>": 3597,
    "tations</w>": 3598,
    "chi": 3599,
    "civil": 3600,
    "property</w>": 3601,
    "batter": 3602,
    "elphi": 3603,
    "elphia</w>": 3604,
    "money</w>": 3605,
    "suffered</w>": 3606,
    "science</w>": 3607,
    "wind": 3608,
    "post": 3609,
    "critic</w>": 3610,
    "enough</w>": 3611,
    "stal": 3612,
    "fon": 3613,
    "verse</w>": 3614,
    "drew</w>": 3615,
    "hours</w>": 3616,
    "brown</w>": 3617,
    "lati": 3618,
    "scot": 3619,
    "33</w>": 3620,
    "saves</w>": 3621,
    "refl": 3622,
    "stric": 3623,
    "pope</w>": 3624,
    "come": 3625,
    "sses</w>": 3626,
    "attempt</w>": 3627,
    "lack</w>": 3628,
    "ri</w>": 3629,
    "escap": 3630,
    "plays</w>": 3631,
    "bone</w>": 3632,
    "progra": 3633,
    "program</w>": 3634,
    "loose</w>": 3635,
    "ingu": 3636,
    "figu": 3637,
    "figures</w>": 3638,
    "environ": 3639,
    "nasty</w>": 3640,
    "emphas": 3641,
    "deb": 3642,
    "espec": 3643,
    "especially</w>": 3644,
    "did": 3645,
    "risk</w>": 3646,
    "acre</w>": 3647,
    "newspaper</w>": 3648,
    "lin</w>": 3649,
    "premi": 3650,
    "aging</w>": 3651,
    "pregn": 3652,
    "copies</w>": 3653,
    "holoc": 3654,
    "olithic</w>": 3655,
    "uy": 3656,
    "hob": 3657,
    "referred</w>": 3658,
    "japan</w>": 3659,
    "erous</w>": 3660,
    "cause</w>": 3661,
    "itor</w>": 3662,
    "tracks</w>": 3663,
    "lower</w>": 3664,
    "reception</w>": 3665,
    "coming</w>": 3666,
    "latter</w>": 3667,
    "emed</w>": 3668,
    "highly</w>": 3669,
    "inspired</w>": 3670,
    "ume</w>": 3671,
    "mac": 3672,
    "ickly</w>": 3673,
    "urity</w>": 3674,
    "instruc": 3675,
    "classi": 3676,
    "consisted</w>": 3677,
    "conver": 3678,
    "chemical</w>": 3679,
    "laboratory</w>": 3680,
    "owle": 3681,
    "ient</w>": 3682,
    "ishment</w>": 3683,
    "naval</w>": 3684,
    "pression</w>": 3685,
    "ping</w>": 3686,
    "spring</w>": 3687,
    "lake</w>": 3688,
    "spent</w>": 3689,
    "publication</w>": 3690,
    "girl</w>": 3691,
    "1943</w>": 3692,
    "chapel</w>": 3693,
    "memorial</w>": 3694,
    "scienti": 3695,
    "likely</w>": 3696,
    "deep</w>": 3697,
    "compared</w>": 3698,
    "stant</w>": 3699,
    "consec": 3700,
    "wins</w>": 3701,
    "calling</w>": 3702,
    "results</w>": 3703,
    "rad": 3704,
    "72</w>": 3705,
    "exper": 3706,
    "normal</w>": 3707,
    "400</w>": 3708,
    "race</w>": 3709,
    "jesus</w>": 3710,
    "acked</w>": 3711,
    "bol": 3712,
    "admir": 3713,
    "arab": 3714,
    "princ": 3715,
    "cinem": 3716,
    "film": 3717,
    "ker": 3718,
    "offer</w>": 3719,
    "diagn": 3720,
    "brother</w>": 3721,
    "battleshi": 3722,
    "onships</w>": 3723,
    "perf": 3724,
    "independent</w>": 3725,
    "categ": 3726,
    "includes</w>": 3727,
    "acts</w>": 3728,
    "aries</w>": 3729,
    "residents</w>": 3730,
    "duction</w>": 3731,
    "factory</w>": 3732,
    "typically</w>": 3733,
    "consider": 3734,
    "coin</w>": 3735,
    "mint</w>": 3736,
    "actors</w>": 3737,
    "feelings</w>": 3738,
    "synag": 3739,
    "holoca": 3740,
    "holocaust</w>": 3741,
    "tomb</w>": 3742,
    "stefan": 3743,
    "icus</w>": 3744,
    "pagod": 3745,
    "awarded</w>": 3746,
    "plot</w>": 3747,
    "officially</w>": 3748,
    "territory</w>": 3749,
    "nd</w>": 3750,
    "peace</w>": 3751,
    "removed</w>": 3752,
    "sense</w>": 3753,
    "piece</w>": 3754,
    "exclu": 3755,
    "occas": 3756,
    "ry": 3757,
    "perc": 3758,
    "guar": 3759,
    "confl": 3760,
    "authorities</w>": 3761,
    "ham</w>": 3762,
    "after": 3763,
    "54</w>": 3764,
    "thomas</w>": 3765,
    "kings</w>": 3766,
    "dun": 3767,
    "cing</w>": 3768,
    "aughter</w>": 3769,
    "andre": 3770,
    "sex</w>": 3771,
    "corn": 3772,
    "retired</w>": 3773,
    "influenced</w>": 3774,
    "respectively</w>": 3775,
    "teams</w>": 3776,
    "lea": 3777,
    "launched</w>": 3778,
    "allow</w>": 3779,
    "industri": 3780,
    "failed</w>": 3781,
    "tied</w>": 3782,
    "break": 3783,
    "low": 3784,
    "vin": 3785,
    "section</w>": 3786,
    "inner</w>": 3787,
    "aw</w>": 3788,
    "hard</w>": 3789,
    "earth</w>": 3790,
    "responsible</w>": 3791,
    "rain": 3792,
    "celebr": 3793,
    "1991</w>": 3794,
    "goddes": 3795,
    "thesis</w>": 3796,
    "dead</w>": 3797,
    "dynasty</w>": 3798,
    "ods</w>": 3799,
    "onic</w>": 3800,
    "classic</w>": 3801,
    "2000</w>": 3802,
    "sfield</w>": 3803,
    "treaty</w>": 3804,
    "minister</w>": 3805,
    "chris</w>": 3806,
    "gé</w>": 3807,
    "fame</w>": 3808,
    "devin</w>": 3809,
    "synagogue</w>": 3810,
    "wolf</w>": 3811,
    "madison</w>": 3812,
    "megal": 3813,
    "adul": 3814,
    "tan</w>": 3815,
    "stefani</w>": 3816,
    "hygrometr": 3817,
    "breeding</w>": 3818,
    "hobbs</w>": 3819,
    "approach</w>": 3820,
    "higher</w>": 3821,
    "moves</w>": 3822,
    "alist</w>": 3823,
    "leader</w>": 3824,
    "plat": 3825,
    "incorpor": 3826,
    "reason</w>": 3827,
    "test</w>": 3828,
    "princi": 3829,
    "appearances</w>": 3830,
    "starting</w>": 3831,
    "quickly</w>": 3832,
    "assem": 3833,
    "situation</w>": 3834,
    "47</w>": 3835,
    "campaign</w>": 3836,
    "collection</w>": 3837,
    "occupi": 3838,
    "hired</w>": 3839,
    "competition</w>": 3840,
    "sevent": 3841,
    "taught</w>": 3842,
    "blackie</w>": 3843,
    "1940</w>": 3844,
    "provide</w>": 3845,
    "bank</w>": 3846,
    "1988</w>": 3847,
    "propag": 3848,
    "african</w>": 3849,
    "initial</w>": 3850,
    "matches</w>": 3851,
    "bot": 3852,
    "habit": 3853,
    "incid": 3854,
    "tom</w>": 3855,
    "tax": 3856,
    "latin</w>": 3857,
    "prominent</w>": 3858,
    "reports</w>": 3859,
    "rate</w>": 3860,
    "au</w>": 3861,
    "percent</w>": 3862,
    "nin": 3863,
    "committee</w>": 3864,
    "oms</w>": 3865,
    "defense</w>": 3866,
    "eth": 3867,
    "olly": 3868,
    "ollywood</w>": 3869,
    "debu": 3870,
    "conf": 3871,
    "tual</w>": 3872,
    "contemporary</w>": 3873,
    "diagnos": 3874,
    "deity</w>": 3875,
    "menti": 3876,
    "say</w>": 3877,
    "beha": 3878,
    "behavi": 3879,
    "extre": 3880,
    "festival</w>": 3881,
    "slayer</w>": 3882,
    "cited</w>": 3883,
    "heavily</w>": 3884,
    "performances</w>": 3885,
    "rely</w>": 3886,
    "ire": 3887,
    "concluded</w>": 3888,
    "dollars</w>": 3889,
    "replac": 3890,
    "journal</w>": 3891,
    "discovered</w>": 3892,
    "coup</w>": 3893,
    "osa</w>": 3894,
    "fictional</w>": 3895,
    "vati</w>": 3896,
    "tar</w>": 3897,
    "anda</w>": 3898,
    "strapping</w>": 3899,
    "barrow</w>": 3900,
    "gabbar</w>": 3901,
    "hygrometricus</w>": 3902,
    "alger": 3903,
    "uygh": 3904,
    "commandments</w>": 3905,
    "romania</w>": 3906,
    "gangan": 3907,
    "ganganelli</w>": 3908,
    "brackn": 3909,
    "bracknell</w>": 3910,
    "imper": 3911,
    "oz": 3912,
    "alized</w>": 3913,
    "enem": 3914,
    "along": 3915,
    "ancient</w>": 3916,
    "approxim": 3917,
    "essor</w>": 3918,
    "poly": 3919,
    "musical</w>": 3920,
    "repe": 3921,
    "arkans": 3922,
    "1997</w>": 3923,
    "buildings</w>": 3924,
    "newly</w>": 3925,
    "walls</w>": 3926,
    "determin": 3927,
    "intended</w>": 3928,
    "4th</w>": 3929,
    "1st</w>": 3930,
    "11": 3931,
    "oil</w>": 3932,
    "attempted</w>": 3933,
    "captured</w>": 3934,
    "sixth</w>": 3935,
    "tically</w>": 3936,
    "north": 3937,
    "surrounding</w>": 3938,
    "admini": 3939,
    "ate": 3940,
    "shire</w>": 3941,
    "planning</w>": 3942,
    "restor": 3943,
    "hospital</w>": 3944,
    "esting</w>": 3945,
    "dh": 3946,
    "1941</w>": 3947,
    "mainly</w>": 3948,
    "ene": 3949,
    "analys": 3950,
    "changes</w>": 3951,
    "1990</w>": 3952,
    "fired</w>": 3953,
    "personnel</w>": 3954,
    "consecutive</w>": 3955,
    "inves": 3956,
    "investig": 3957,
    "sam": 3958,
    "immediately</w>": 3959,
    "italian</w>": 3960,
    "juli": 3961,
    "fall": 3962,
    "impl": 3963,
    "glo": 3964,
    "56</w>": 3965,
    "famous</w>": 3966,
    "stren": 3967,
    "streng": 3968,
    "vocals</w>": 3969,
    "write</w>": 3970,
    "expressed</w>": 3971,
    "identified</w>": 3972,
    "mph</w>": 3973,
    "arrived</w>": 3974,
    "carolina</w>": 3975,
    "pilots</w>": 3976,
    "accepted</w>": 3977,
    "ze": 3978,
    "cerem": 3979,
    "az</w>": 3980,
    "alex": 3981,
    "1999</w>": 3982,
    "hungar": 3983,
    "cen": 3984,
    "wides": 3985,
    "tude</w>": 3986,
    "heaven</w>": 3987,
    "think</w>": 3988,
    "sound": 3989,
    "found": 3990,
    "oxford</w>": 3991,
    "guides</w>": 3992,
    "prohib": 3993,
    "assass": 3994,
    "sligh": 3995,
    "china</w>": 3996,
    "vargas</w>": 3997,
    "llosa</w>": 3998,
    "snl</w>": 3999,
    "ancy</w>": 4000,
    "couple</w>": 4001,
    "cell</w>": 4002,
    "parvati</w>": 4003,
    "bb": 4004,
    "mv": 4005,
    "megali": 4006,
    "compounds</w>": 4007,
    "palestine</w>": 4008,
    "nf": 4009,
    "algernon</w>": 4010,
    "done</w>": 4011,
    "edition</w>": 4012,
    "adapted</w>": 4013,
    "revolution</w>": 4014,
    "individual</w>": 4015,
    "skill": 4016,
    "inn": 4017,
    "dang": 4018,
    "meaning</w>": 4019,
    "becomes</w>": 4020,
    "nations</w>": 4021,
    "ki</w>": 4022,
    "ease</w>": 4023,
    "extra</w>": 4024,
    "net</w>": 4025,
    "planned</w>": 4026,
    "purch": 4027,
    "arkansas</w>": 4028,
    "necessary</w>": 4029,
    "visions</w>": 4030,
    "aving</w>": 4031,
    "rat": 4032,
    "inside</w>": 4033,
    "note</w>": 4034,
    "75</w>": 4035,
    "brooks</w>": 4036,
    "famil": 4037,
    "oted</w>": 4038,
    "occupied</w>": 4039,
    "parents</w>": 4040,
    "coast</w>": 4041,
    "ugg": 4042,
    "disci": 4043,
    "servation</w>": 4044,
    "participated</w>": 4045,
    "championship</w>": 4046,
    "less": 4047,
    "basis</w>": 4048,
    "analysis</w>": 4049,
    "antly</w>": 4050,
    "forward</w>": 4051,
    "philad": 4052,
    "philadelphia</w>": 4053,
    "management</w>": 4054,
    "bruins</w>": 4055,
    "300</w>": 4056,
    "decision</w>": 4057,
    "semble</w>": 4058,
    "bered</w>": 4059,
    "speed</w>": 4060,
    "torpe": 4061,
    "demon": 4062,
    "miss</w>": 4063,
    "ky</w>": 4064,
    "entertainment</w>": 4065,
    "eleph": 4066,
    "seven": 4067,
    "seventh</w>": 4068,
    "cancer</w>": 4069,
    "declined</w>": 4070,
    "itation</w>": 4071,
    "kor": 4072,
    "max</w>": 4073,
    "egyptians</w>": 4074,
    "images</w>": 4075,
    "represent</w>": 4076,
    "physical</w>": 4077,
    "beyond</w>": 4078,
    "earth": 4079,
    "practice</w>": 4080,
    "meant</w>": 4081,
    "ections</w>": 4082,
    "standards</w>": 4083,
    "survey</w>": 4084,
    "imp": 4085,
    "alleg": 4086,
    "refused</w>": 4087,
    "lew": 4088,
    "tree</w>": 4089,
    "techni": 4090,
    "historian</w>": 4091,
    "explained</w>": 4092,
    "iman": 4093,
    "lad</w>": 4094,
    "south": 4095,
    "olen</w>": 4096,
    "wel": 4097,
    "wander": 4098,
    "hemmem": 4099,
    "hergé</w>": 4100,
    "imperial</w>": 4101,
    "alongside</w>": 4102,
    "directly</w>": 4103,
    "something</w>": 4104,
    "effort</w>": 4105,
    "losses</w>": 4106,
    "maxim": 4107,
    "create</w>": 4108,
    "doing</w>": 4109,
    "top": 4110,
    "uals</w>": 4111,
    "richard</w>": 4112,
    "1942</w>": 4113,
    "lee</w>": 4114,
    "perman": 4115,
    "bled</w>": 4116,
    "conflict</w>": 4117,
    "your</w>": 4118,
    "fit": 4119,
    "activity</w>": 4120,
    "boat</w>": 4121,
    "families</w>": 4122,
    "invited</w>": 4123,
    "plant</w>": 4124,
    "visited</w>": 4125,
    "ext": 4126,
    "wales</w>": 4127,
    "photogra": 4128,
    "dated</w>": 4129,
    "treas": 4130,
    "cec": 4131,
    "countries</w>": 4132,
    "value</w>": 4133,
    "ribution</w>": 4134,
    "threat": 4135,
    "gul": 4136,
    "shore</w>": 4137,
    "resulted</w>": 4138,
    "fans</w>": 4139,
    "johnson</w>": 4140,
    "effect</w>": 4141,
    "ori": 4142,
    "equi": 4143,
    "atic": 4144,
    "sat": 4145,
    "cos": 4146,
    "1986</w>": 4147,
    "actually</w>": 4148,
    "passed</w>": 4149,
    "appar": 4150,
    "roles</w>": 4151,
    "kh": 4152,
    "fits</w>": 4153,
    "teenth</w>": 4154,
    "ership</w>": 4155,
    "ontar": 4156,
    "ontario</w>": 4157,
    "1993</w>": 4158,
    "base": 4159,
    "baseball</w>": 4160,
    "din": 4161,
    "hungarian</w>": 4162,
    "milli": 4163,
    "ordin": 4164,
    "adopted</w>": 4165,
    "ains</w>": 4166,
    "trou": 4167,
    "widespre": 4168,
    "widespread</w>": 4169,
    "dynam": 4170,
    "reign</w>": 4171,
    "meanwhile</w>": 4172,
    "ids</w>": 4173,
    "transport</w>": 4174,
    "respect</w>": 4175,
    "hot</w>": 4176,
    "dish</w>": 4177,
    "deri": 4178,
    "wit": 4179,
    "yli": 4180,
    "dí": 4181,
    "díaz</w>": 4182,
    "dominican</w>": 4183,
    "narr": 4184,
    "solo</w>": 4185,
    "vers</w>": 4186,
    "wasp</w>": 4187,
    "band": 4188,
    "maria</w>": 4189,
    "rating</w>": 4190,
    "germans</w>": 4191,
    "crusad": 4192,
    "kaiman": 4193,
    "herd</w>": 4194,
    "secret</w>": 4195,
    "transl": 4196,
    "gri": 4197,
    "lives</w>": 4198,
    "approximately</w>": 4199,
    "expected</w>": 4200,
    "singles</w>": 4201,
    "journ": 4202,
    "itable</w>": 4203,
    "enjo": 4204,
    "quality</w>": 4205,
    "scenes</w>": 4206,
    "refer": 4207,
    "cles</w>": 4208,
    "subject</w>": 4209,
    "leaving</w>": 4210,
    "officials</w>": 4211,
    "fab": 4212,
    "func": 4213,
    "exhib": 4214,
    "bill</w>": 4215,
    "eye</w>": 4216,
    "rhy": 4217,
    "lord</w>": 4218,
    "ken": 4219,
    "43</w>": 4220,
    "access</w>": 4221,
    "stance</w>": 4222,
    "dedicated</w>": 4223,
    "rows</w>": 4224,
    "esses</w>": 4225,
    "complex</w>": 4226,
    "islands</w>": 4227,
    "archip": 4228,
    "archipel": 4229,
    "rays</w>": 4230,
    "chinese</w>": 4231,
    "versi": 4232,
    "moving</w>": 4233,
    "consist": 4234,
    "organization</w>": 4235,
    "strat": 4236,
    "za</w>": 4237,
    "begins</w>": 4238,
    "ets</w>": 4239,
    "thr": 4240,
    "roy</w>": 4241,
    "spanish</w>": 4242,
    "oppos": 4243,
    "voice</w>": 4244,
    "dial": 4245,
    "gives</w>": 4246,
    "shooting</w>": 4247,
    "zo": 4248,
    "ssed</w>": 4249,
    "1992</w>": 4250,
    "ander</w>": 4251,
    "cat</w>": 4252,
    "twins</w>": 4253,
    "temples</w>": 4254,
    "humans</w>": 4255,
    "tradi": 4256,
    "tradition</w>": 4257,
    "distingu": 4258,
    "neigh": 4259,
    "believe</w>": 4260,
    "fai": 4261,
    "presented</w>": 4262,
    "food</w>": 4263,
    "effects</w>": 4264,
    "lot</w>": 4265,
    "inf": 4266,
    "selling</w>": 4267,
    "recent</w>": 4268,
    "ires</w>": 4269,
    "medical</w>": 4270,
    "concentr": 4271,
    "gus</w>": 4272,
    "brick</w>": 4273,
    "slightly</w>": 4274,
    "bun": 4275,
    "produce</w>": 4276,
    "commission</w>": 4277,
    "corps</w>": 4278,
    "intelli": 4279,
    "intellig": 4280,
    "loan</w>": 4281,
    "nbc</w>": 4282,
    "job</w>": 4283,
    "metall": 4284,
    "advent": 4285,
    "zagre": 4286,
    "boys</w>": 4287,
    "95</w>": 4288,
    "ska</w>": 4289,
    "flooding</w>": 4290,
    "neolithic</w>": 4291,
    "yeov": 4292,
    "yeovil</w>": 4293,
    "thai</w>": 4294,
    "uan</w>": 4295,
    "acute</w>": 4296,
    "fox</w>": 4297,
    "nights</w>": 4298,
    "israel": 4299,
    "peters</w>": 4300,
    "neutrino</w>": 4301,
    "gwend": 4302,
    "gwendolen</w>": 4303,
    "parti": 4304,
    "episod": 4305,
    "movement</w>": 4306,
    "remain</w>": 4307,
    "ca</w>": 4308,
    "weapons</w>": 4309,
    "mechan": 4310,
    "ko": 4311,
    "jected</w>": 4312,
    "lyric": 4313,
    "featuring</w>": 4314,
    "flower</w>": 4315,
    "headquar": 4316,
    "spl": 4317,
    "mine</w>": 4318,
    "widely</w>": 4319,
    "morning</w>": 4320,
    "except</w>": 4321,
    "manu": 4322,
    "forts</w>": 4323,
    "53</w>": 4324,
    "600</w>": 4325,
    "7th</w>": 4326,
    "library</w>": 4327,
    "door</w>": 4328,
    "floor</w>": 4329,
    "deplo": 4330,
    "discovery</w>": 4331,
    "ites</w>": 4332,
    "1918</w>": 4333,
    "ny</w>": 4334,
    "wild</w>": 4335,
    "astic</w>": 4336,
    "genus</w>": 4337,
    "ales</w>": 4338,
    "mol": 4339,
    "archipelago</w>": 4340,
    "gulf</w>": 4341,
    "aria</w>": 4342,
    "surface</w>": 4343,
    "missed</w>": 4344,
    "lot": 4345,
    "ov</w>": 4346,
    "strugg": 4347,
    "boston</w>": 4348,
    "numerous</w>": 4349,
    "nes": 4350,
    "ena</w>": 4351,
    "elim": 4352,
    "greg": 4353,
    "entation</w>": 4354,
    "ron": 4355,
    "strateg": 4356,
    "progr": 4357,
    "88</w>": 4358,
    "legal</w>": 4359,
    "atlanta</w>": 4360,
    "suppl": 4361,
    "steph": 4362,
    "ull</w>": 4363,
    "reduced</w>": 4364,
    "mass</w>": 4365,
    "treatment</w>": 4366,
    "drawn</w>": 4367,
    "1914</w>": 4368,
    "sisters</w>": 4369,
    "ament</w>": 4370,
    "covered</w>": 4371,
    "religion</w>": 4372,
    "argued</w>": 4373,
    "texts</w>": 4374,
    "wher": 4375,
    "birth</w>": 4376,
    "worship</w>": 4377,
    "creator</w>": 4378,
    "hair</w>": 4379,
    "encour": 4380,
    "hann": 4381,
    "cross</w>": 4382,
    "enting</w>": 4383,
    "engaged</w>": 4384,
    "mental</w>": 4385,
    "sev": 4386,
    "conditions</w>": 4387,
    "ald</w>": 4388,
    "saint</w>": 4389,
    "dly</w>": 4390,
    "constitu": 4391,
    "leon": 4392,
    "vessels</w>": 4393,
    "kist": 4394,
    "producers</w>": 4395,
    "manual</w>": 4396,
    "m2</w>": 4397,
    "excavations</w>": 4398,
    "learned</w>": 4399,
    "beach</w>": 4400,
    "zagreb</w>": 4401,
    "urs</w>": 4402,
    "mvp</w>": 4403,
    "speaker</w>": 4404,
    "debuted</w>": 4405,
    "eru</w>": 4406,
    "stansfield</w>": 4407,
    "rangers</w>": 4408,
    "wanderers</w>": 4409,
    "spaces</w>": 4410,
    "e4</w>": 4411,
    "ernest</w>": 4412,
    "kaimanawa</w>": 4413,
    "japan": 4414,
    "japanese</w>": 4415,
    "perform</w>": 4416,
    "wise</w>": 4417,
    "majority</w>": 4418,
    "guitar</w>": 4419,
    "lyrics</w>": 4420,
    "aspects</w>": 4421,
    "issues</w>": 4422,
    "probl": 4423,
    "extended</w>": 4424,
    "purpose</w>": 4425,
    "strated</w>": 4426,
    "seri": 4427,
    "security</w>": 4428,
    "therefore</w>": 4429,
    "confeder": 4430,
    "41</w>": 4431,
    "rd</w>": 4432,
    "jack": 4433,
    "guard</w>": 4434,
    "loy": 4435,
    "wash": 4436,
    "raised</w>": 4437,
    "attended</w>": 4438,
    "1936</w>": 4439,
    "influences</w>": 4440,
    "herself</w>": 4441,
    "sacred</w>": 4442,
    "recomm": 4443,
    "represents</w>": 4444,
    "tournam": 4445,
    "economic</w>": 4446,
    "outer</w>": 4447,
    "playoffs</w>": 4448,
    "tery</w>": 4449,
    "assistant</w>": 4450,
    "managed</w>": 4451,
    "sign</w>": 4452,
    "mom": 4453,
    "sports</w>": 4454,
    "ix</w>": 4455,
    "iter": 4456,
    "onto</w>": 4457,
    "interview": 4458,
    "propos": 4459,
    "caa</w>": 4460,
    "camer": 4461,
    "step": 4462,
    "occupation</w>": 4463,
    "commented</w>": 4464,
    "pressure</w>": 4465,
    "chest": 4466,
    "grand": 4467,
    "eled</w>": 4468,
    "ev</w>": 4469,
    "here</w>": 4470,
    "1984</w>": 4471,
    "ene</w>": 4472,
    "alexander</w>": 4473,
    "initiative</w>": 4474,
    "austro</w>": 4475,
    "boats</w>": 4476,
    "regarded</w>": 4477,
    "alone</w>": 4478,
    "styles</w>": 4479,
    "practic": 4480,
    "ao</w>": 4481,
    "aerodromes</w>": 4482,
    "grand</w>": 4483,
    "guide</w>": 4484,
    "zr": 4485,
    "chas": 4486,
    "1913</w>": 4487,
    "struction</w>": 4488,
    "fungus</w>": 4489,
    "fruit</w>": 4490,
    "liber": 4491,
    "weekly</w>": 4492,
    "bow": 4493,
    "francis": 4494,
    "nearby</w>": 4495,
    "visit</w>": 4496,
    "mitch": 4497,
    "portu": 4498,
    "valley</w>": 4499,
    "chamber</w>": 4500,
    "carved</w>": 4501,
    "propaganda</w>": 4502,
    "dock</w>": 4503,
    "archaeologists</w>": 4504,
    "exit</w>": 4505,
    "audience</w>": 4506,
    "veeru</w>": 4507,
    "sultan</w>": 4508,
    "maril": 4509,
    "marilyn</w>": 4510,
    "pani</w>": 4511,
    "zzi</w>": 4512,
    "crab</w>": 4513,
    "potential</w>": 4514,
    "tas": 4515,
    "look</w>": 4516,
    "amount</w>": 4517,
    "syst": 4518,
    "faced</w>": 4519,
    "divor": 4520,
    "singer</w>": 4521,
    "hin": 4522,
    "alists</w>": 4523,
    "popularity</w>": 4524,
    "charts</w>": 4525,
    "moral</w>": 4526,
    "arth": 4527,
    "distinct</w>": 4528,
    "passing</w>": 4529,
    "permanent</w>": 4530,
    "thick</w>": 4531,
    "artill": 4532,
    "artillery</w>": 4533,
    "legis": 4534,
    "authority</w>": 4535,
    "deemed</w>": 4536,
    "sumed</w>": 4537,
    "charge</w>": 4538,
    "manufac": 4539,
    "52</w>": 4540,
    "sively</w>": 4541,
    "meet</w>": 4542,
    "financ": 4543,
    "financial</w>": 4544,
    "design": 4545,
    "stained</w>": 4546,
    "1985</w>": 4547,
    "literature</w>": 4548,
    "accompan": 4549,
    "homes</w>": 4550,
    "agency</w>": 4551,
    "jan</w>": 4552,
    "organized</w>": 4553,
    "not": 4554,
    "search": 4555,
    "anth": 4556,
    "worst</w>": 4557,
    "ight</w>": 4558,
    "owner</w>": 4559,
    "stating</w>": 4560,
    "elimin": 4561,
    "haw": 4562,
    "commod": 4563,
    "missing</w>": 4564,
    "gift</w>": 4565,
    "cases</w>": 4566,
    "northeast</w>": 4567,
    "creek</w>": 4568,
    "economy</w>": 4569,
    "sav": 4570,
    "attempts</w>": 4571,
    "mond</w>": 4572,
    "sides</w>": 4573,
    "59</w>": 4574,
    "800</w>": 4575,
    "torpedo</w>": 4576,
    "non": 4577,
    "degre": 4578,
    "box</w>": 4579,
    "screen</w>": 4580,
    "movie</w>": 4581,
    "bie</w>": 4582,
    "appear</w>": 4583,
    "dating</w>": 4584,
    "sab": 4585,
    "fighting</w>": 4586,
    "advanced</w>": 4587,
    "characteris": 4588,
    "relationships</w>": 4589,
    "depicts</w>": 4590,
    "mentioned</w>": 4591,
    "counter": 4592,
    "55</w>": 4593,
    "everything</w>": 4594,
    "rare</w>": 4595,
    "dress</w>": 4596,
    "shrine</w>": 4597,
    "guid": 4598,
    "berg</w>": 4599,
    "avoid</w>": 4600,
    "cruiser</w>": 4601,
    "pieces</w>": 4602,
    "bad</w>": 4603,
    "bling</w>": 4604,
    "academic</w>": 4605,
    "ax": 4606,
    "pakist": 4607,
    "brig": 4608,
    "34</w>": 4609,
    "bald</w>": 4610,
    "teach": 4611,
    "son": 4612,
    "aden</w>": 4613,
    "foundation</w>": 4614,
    "israeli</w>": 4615,
    "cardin": 4616,
    "palestin": 4617,
    "obon": 4618,
    "colonna</w>": 4619,
    "rying</w>": 4620,
    "multiple</w>": 4621,
    "cust": 4622,
    "episodes</w>": 4623,
    "ulty</w>": 4624,
    "skills</w>": 4625,
    "dict": 4626,
    "grown</w>": 4627,
    "eting</w>": 4628,
    "victory</w>": 4629,
    "concept</w>": 4630,
    "2nd</w>": 4631,
    "presence</w>": 4632,
    "continues</w>": 4633,
    "escor": 4634,
    "bass</w>": 4635,
    "details</w>": 4636,
    "poor</w>": 4637,
    "improved</w>": 4638,
    "length</w>": 4639,
    "network</w>": 4640,
    "arthur</w>": 4641,
    "oning</w>": 4642,
    "trop": 4643,
    "saf": 4644,
    "repair": 4645,
    "fell</w>": 4646,
    "successfully</w>": 4647,
    "owledge</w>": 4648,
    "employed</w>": 4649,
    "build</w>": 4650,
    "jos": 4651,
    "ads</w>": 4652,
    "organiz": 4653,
    "paid</w>": 4654,
    "fairies</w>": 4655,
    "isers</w>": 4656,
    "daughter</w>": 4657,
    "house": 4658,
    "peter</w>": 4659,
    "£</w>": 4660,
    "favorite</w>": 4661,
    "cov": 4662,
    "guardian</w>": 4663,
    "bury</w>": 4664,
    "quali": 4665,
    "regional</w>": 4666,
    "founded</w>": 4667,
    "plain</w>": 4668,
    "description</w>": 4669,
    "victoria</w>": 4670,
    "mouth</w>": 4671,
    "ral</w>": 4672,
    "strea": 4673,
    "goal": 4674,
    "wr": 4675,
    "restric": 4676,
    "commissioned</w>": 4677,
    "li</w>": 4678,
    "appears</w>": 4679,
    "san</w>": 4680,
    "vocal</w>": 4681,
    "admiral</w>": 4682,
    "yer</w>": 4683,
    "ication</w>": 4684,
    "drama</w>": 4685,
    "ssing</w>": 4686,
    "1980s</w>": 4687,
    "student</w>": 4688,
    "emo": 4689,
    "mum": 4690,
    "protection</w>": 4691,
    "car</w>": 4692,
    "chemo": 4693,
    "ac</w>": 4694,
    "nes</w>": 4695,
    "allied</w>": 4696,
    "characteristics</w>": 4697,
    "scholars</w>": 4698,
    "acted</w>": 4699,
    "ideas</w>": 4700,
    "flood</w>": 4701,
    "power": 4702,
    "similarly</w>": 4703,
    "question</w>": 4704,
    "benef": 4705,
    "observed</w>": 4706,
    "really</w>": 4707,
    "label</w>": 4708,
    "follow</w>": 4709,
    "ricul": 4710,
    "primar": 4711,
    "policy</w>": 4712,
    "opinion</w>": 4713,
    "zrí": 4714,
    "zrínyi</w>": 4715,
    "bon</w>": 4716,
    "temper": 4717,
    "lewis</w>": 4718,
    "claims</w>": 4719,
    "notable</w>": 4720,
    "omer": 4721,
    "violence</w>": 4722,
    "declared</w>": 4723,
    "usti": 4724,
    "cel": 4725,
    "holds</w>": 4726,
    "bern": 4727,
    "ratings</w>": 4728,
    "broadcast</w>": 4729,
    "eway</w>": 4730,
    "sla": 4731,
    "nazi</w>": 4732,
    "stop</w>": 4733,
    "patrick</w>": 4734,
    "achieved</w>": 4735,
    "norman</w>": 4736,
    "missil": 4737,
    "reactor</w>": 4738,
    "medway</w>": 4739,
    "stable</w>": 4740,
    "homos": 4741,
    "birds</w>": 4742,
    "wang</w>": 4743,
    "cardinals</w>": 4744,
    "beyonc": 4745,
    "beyoncé</w>": 4746,
    "tong</w>": 4747,
    "stoppani</w>": 4748,
    "pozz": 4749,
    "pozzobon": 4750,
    "pozzobonelli</w>": 4751,
    "fantu": 4752,
    "fantuzzi</w>": 4753,
    "fan</w>": 4754,
    "franch": 4755,
    "experience</w>": 4756,
    "sen</w>": 4757,
    "fellow</w>": 4758,
    "fight</w>": 4759,
    "lived</w>": 4760,
    "defeat</w>": 4761,
    "separate</w>": 4762,
    "needed</w>": 4763,
    "ss": 4764,
    "determined</w>": 4765,
    "perha": 4766,
    "perhaps</w>": 4767,
    "nor</w>": 4768,
    "infan": 4769,
    "gen</w>": 4770,
    "ases</w>": 4771,
    "idly</w>": 4772,
    "looking</w>": 4773,
    "train</w>": 4774,
    "pain": 4775,
    "abandoned</w>": 4776,
    "big</w>": 4777,
    "gress</w>": 4778,
    "designated</w>": 4779,
    "biography</w>": 4780,
    "belong": 4781,
    "oners</w>": 4782,
    "heart</w>": 4783,
    "comes</w>": 4784,
    "anch": 4785,
    "boy</w>": 4786,
    "1946</w>": 4787,
    "1937</w>": 4788,
    "trees</w>": 4789,
    "cecily</w>": 4790,
    "challeng": 4791,
    "world": 4792,
    "tioned</w>": 4793,
    "beat</w>": 4794,
    "diam": 4795,
    "eds</w>": 4796,
    "fic</w>": 4797,
    "marg": 4798,
    "eller</w>": 4799,
    "62</w>": 4800,
    "essed</w>": 4801,
    "tis</w>": 4802,
    "rain</w>": 4803,
    "sell</w>": 4804,
    "approa": 4805,
    "dig": 4806,
    "deal": 4807,
    "gil": 4808,
    "76</w>": 4809,
    "pa</w>": 4810,
    "statis": 4811,
    "ninth</w>": 4812,
    "centre</w>": 4813,
    "fix": 4814,
    "contrast</w>": 4815,
    "ming</w>": 4816,
    "carey</w>": 4817,
    "wy": 4818,
    "71</w>": 4819,
    "farm": 4820,
    "visi": 4821,
    "railroad</w>": 4822,
    "block": 4823,
    "supporting</w>": 4824,
    "ging</w>": 4825,
    "brothers</w>": 4826,
    "armor</w>": 4827,
    "connected</w>": 4828,
    "satis": 4829,
    "aggres": 4830,
    "currently</w>": 4831,
    "magic</w>": 4832,
    "ises</w>": 4833,
    "hart": 4834,
    "offensive</w>": 4835,
    "share</w>": 4836,
    "worth</w>": 4837,
    "chemotherapy</w>": 4838,
    "erz": 4839,
    "combat</w>": 4840,
    "fs</w>": 4841,
    "focus</w>": 4842,
    "rever": 4843,
    "powers</w>": 4844,
    "agu": 4845,
    "asser": 4846,
    "debate</w>": 4847,
    "ung</w>": 4848,
    "accompl": 4849,
    "architecture</w>": 4850,
    "musli": 4851,
    "men": 4852,
    "180": 4853,
    "lov": 4854,
    "ilis</w>": 4855,
    "attacked</w>": 4856,
    "cycl": 4857,
    "generation</w>": 4858,
    "migr": 4859,
    "defence</w>": 4860,
    "prime</w>": 4861,
    "structures</w>": 4862,
    "frank</w>": 4863,
    "lasted</w>": 4864,
    "1990s</w>": 4865,
    "bound</w>": 4866,
    "alised</w>": 4867,
    "defensive</w>": 4868,
    "lo</w>": 4869,
    "ari": 4870,
    "ław</w>": 4871,
    "russia</w>": 4872,
    "evans</w>": 4873,
    "belgi": 4874,
    "andy</w>": 4875,
    "jai</w>": 4876,
    "jim</w>": 4877,
    "pagoda</w>": 4878,
    "commonly</w>": 4879,
    "franchise</w>": 4880,
    "missions</w>": 4881,
    "unique</w>": 4882,
    "classes</w>": 4883,
    "composed</w>": 4884,
    "foreign</w>": 4885,
    "orders</w>": 4886,
    "expos": 4887,
    "empire</w>": 4888,
    "legi": 4889,
    "goes</w>": 4890,
    "tionary</w>": 4891,
    "versions</w>": 4892,
    "problems</w>": 4893,
    "titled</w>": 4894,
    "someone</w>": 4895,
    "expedition</w>": 4896,
    "request</w>": 4897,
    "tile</w>": 4898,
    "rein": 4899,
    "rum": 4900,
    "simp": 4901,
    "sipp": 4902,
    "5th</w>": 4903,
    "infantry</w>": 4904,
    "3rd</w>": 4905,
    "complet": 4906,
    "jackson</w>": 4907,
    "knowledge</w>": 4908,
    "icient</w>": 4909,
    "rapidly</w>": 4910,
    "prepared</w>": 4911,
    "yment</w>": 4912,
    "green</w>": 4913,
    "market</w>": 4914,
    "decades</w>": 4915,
    "green": 4916,
    "rey</w>": 4917,
    "elected</w>": 4918,
    "free": 4919,
    "tou": 4920,
    "publish": 4921,
    "1929</w>": 4922,
    "tail</w>": 4923,
    "thor": 4924,
    "pattern</w>": 4925,
    "threatened</w>": 4926,
    "seas</w>": 4927,
    "fare</w>": 4928,
    "angeles</w>": 4929,
    "wis": 4930,
    "tionally</w>": 4931,
    "til": 4932,
    "38</w>": 4933,
    "otes</w>": 4934,
    "representative</w>": 4935,
    "di</w>": 4936,
    "correc": 4937,
    "involving</w>": 4938,
    "proce": 4939,
    "lies</w>": 4940,
    "divisions</w>": 4941,
    "gall": 4942,
    "ost": 4943,
    "credited</w>": 4944,
    "urb": 4945,
    "orated</w>": 4946,
    "ophi": 4947,
    "rhyth": 4948,
    "rical</w>": 4949,
    "layer</w>": 4950,
    "valent</w>": 4951,
    "pass</w>": 4952,
    "150</w>": 4953,
    "sibly</w>": 4954,
    "romantic</w>": 4955,
    "pleas": 4956,
    "iel</w>": 4957,
    "croati": 4958,
    "till": 4959,
    "37</w>": 4960,
    "battleships</w>": 4961,
    "reasons</w>": 4962,
    "depicted</w>": 4963,
    "applied</w>": 4964,
    "ier</w>": 4965,
    "greek</w>": 4966,
    "differenti": 4967,
    "know</w>": 4968,
    "tles</w>": 4969,
    "describes</w>": 4970,
    "usual</w>": 4971,
    "opportunities</w>": 4972,
    "peak</w>": 4973,
    "ocr": 4974,
    "dry</w>": 4975,
    "kind</w>": 4976,
    "recre": 4977,
    "airports</w>": 4978,
    "licen": 4979,
    "facilities</w>": 4980,
    "transportation</w>": 4981,
    "tane": 4982,
    "spores</w>": 4983,
    "longacre</w>": 4984,
    "mass": 4985,
    "publications</w>": 4986,
    "zap": 4987,
    "goat</w>": 4988,
    "wards</w>": 4989,
    "jum": 4990,
    "intelligence</w>": 4991,
    "she": 4992,
    "tenn": 4993,
    "ored</w>": 4994,
    "pregnancy</w>": 4995,
    "believes</w>": 4996,
    "sculptures</w>": 4997,
    "tall</w>": 4998,
    "tenure</w>": 4999,
    "territories</w>": 5000,
    "publishing</w>": 5001,
    "genre</w>": 5002,
    "tropical</w>": 5003,
    "cinema</w>": 5004,
    "maya</w>": 5005,
    "exeter</w>": 5006,
    "aot</w>": 5007,
    "progn": 5008,
    "prognos": 5009,
    "oreg": 5010,
    "oregon</w>": 5011,
    "cric": 5012,
    "cricket</w>": 5013,
    "rowson</w>": 5014,
    "tos": 5015,
    "progres": 5016,
    "ock": 5017,
    "armor": 5018,
    "greatly</w>": 5019,
    "shared</w>": 5020,
    "deser": 5021,
    "keep</w>": 5022,
    "entry</w>": 5023,
    "ror</w>": 5024,
    "lay": 5025,
    "grade</w>": 5026,
    "color</w>": 5027,
    "chestr": 5028,
    "website</w>": 5029,
    "unlike</w>": 5030,
    "watch</w>": 5031,
    "noting</w>": 5032,
    "artic": 5033,
    "occasi": 5034,
    "citing</w>": 5035,
    "ku": 5036,
    "volume</w>": 5037,
    "thirty</w>": 5038,
    "91</w>": 5039,
    "stores</w>": 5040,
    "denied</w>": 5041,
    "itiz": 5042,
    "surren": 5043,
    "prevent</w>": 5044,
    "converted</w>": 5045,
    "rifle</w>": 5046,
    "6th</w>": 5047,
    "completely</w>": 5048,
    "valu": 5049,
    "else</w>": 5050,
    "nothing</w>": 5051,
    "marks</w>": 5052,
    "stati": 5053,
    "depicting</w>": 5054,
    "tum": 5055,
    "amate": 5056,
    "sons</w>": 5057,
    "sir</w>": 5058,
    "mod": 5059,
    "unable</w>": 5060,
    "1989</w>": 5061,
    "leave</w>": 5062,
    "contains</w>": 5063,
    "ae</w>": 5064,
    "relatively</w>": 5065,
    "reach</w>": 5066,
    "injury</w>": 5067,
    "playoff</w>": 5068,
    "dged</w>": 5069,
    "sets</w>": 5070,
    "48</w>": 5071,
    "esco</w>": 5072,
    "gust": 5073,
    "wind</w>": 5074,
    "studios</w>": 5075,
    "performing</w>": 5076,
    "jam": 5077,
    "mes": 5078,
    "fun</w>": 5079,
    "86</w>": 5080,
    "stephen</w>": 5081,
    "chann": 5082,
    "ounding</w>": 5083,
    "murder</w>": 5084,
    "human": 5085,
    "domes": 5086,
    "gets</w>": 5087,
    "projects</w>": 5088,
    "holy</w>": 5089,
    "bin</w>": 5090,
    "ras": 5091,
    "itan</w>": 5092,
    "disease</w>": 5093,
    "89</w>": 5094,
    "chec": 5095,
    "erzher": 5096,
    "erzherzo": 5097,
    "erzherzog</w>": 5098,
    "amun</w>": 5099,
    "goddess</w>": 5100,
    "unknown</w>": 5101,
    "whereas</w>": 5102,
    "phs</w>": 5103,
    "instance</w>": 5104,
    "cannot</w>": 5105,
    "treated</w>": 5106,
    "tives</w>": 5107,
    "arg": 5108,
    "recognized</w>": 5109,
    "examples</w>": 5110,
    "rules</w>": 5111,
    "califor": 5112,
    "california</w>": 5113,
    "soundtrack</w>": 5114,
    "bit</w>": 5115,
    "pro</w>": 5116,
    "anger</w>": 5117,
    "bal</w>": 5118,
    "fly</w>": 5119,
    "agricul": 5120,
    "ero": 5121,
    "impact</w>": 5122,
    "opposed</w>": 5123,
    "destruction</w>": 5124,
    "carbon": 5125,
    "von</w>": 5126,
    "enz": 5127,
    "francisco</w>": 5128,
    "sculpture</w>": 5129,
    "61</w>": 5130,
    "dates</w>": 5131,
    "oxide</w>": 5132,
    "reagents</w>": 5133,
    "sulfi": 5134,
    "election</w>": 5135,
    "leaders</w>": 5136,
    "promotion</w>": 5137,
    "scholar</w>": 5138,
    "chel": 5139,
    "astal</w>": 5140,
    "clint": 5141,
    "clinton</w>": 5142,
    "conventi": 5143,
    "settlement</w>": 5144,
    "musicians</w>": 5145,
    "machine</w>": 5146,
    "metrical</w>": 5147,
    "1900</w>": 5148,
    "flor": 5149,
    "gates</w>": 5150,
    "poles</w>": 5151,
    "ulated</w>": 5152,
    "usz</w>": 5153,
    "teachers</w>": 5154,
    "kre": 5155,
    "atom": 5156,
    "megaliths</w>": 5157,
    "variation</w>": 5158,
    "compu": 5159,
    "timbal": 5160,
    "timbaland</w>": 5161,
    "antimon": 5162,
    "fragilis</w>": 5163,
    "gea": 5164,
    "gag": 5165,
    "leukemic</w>": 5166,
    "mill</w>": 5167,
    "homosex": 5168,
    "aws</w>": 5169,
    "zombie</w>": 5170,
    "zomb": 5171,
    "zombies</w>": 5172,
    "haddock</w>": 5173,
    "compos": 5174,
    "hi</w>": 5175,
    "script</w>": 5176,
    "sales</w>": 5177,
    "expanded</w>": 5178,
    "enemy</w>": 5179,
    "speaking</w>": 5180,
    "target</w>": 5181,
    "chance</w>": 5182,
    "eful</w>": 5183,
    "ro</w>": 5184,
    "neg": 5185,
    "returning</w>": 5186,
    "criticized</w>": 5187,
    "museums</w>": 5188,
    "headquarters</w>": 5189,
    "proved</w>": 5190,
    "conven": 5191,
    "permitted</w>": 5192,
    "session</w>": 5193,
    "spread</w>": 5194,
    "sus</w>": 5195,
    "citiz": 5196,
    "itions</w>": 5197,
    "executive</w>": 5198,
    "57</w>": 5199,
    "64</w>": 5200,
    "establishment</w>": 5201,
    "ounder</w>": 5202,
    "washington</w>": 5203,
    "purposes</w>": 5204,
    "shell</w>": 5205,
    "earliest</w>": 5206,
    "queen</w>": 5207,
    "semi</w>": 5208,
    "andrew</w>": 5209,
    "1954</w>": 5210,
    "edi": 5211,
    "eral</w>": 5212,
    "technology</w>": 5213,
    "analy": 5214,
    "matter</w>": 5215,
    "aside</w>": 5216,
    "1938</w>": 5217,
    "groun": 5218,
    "jen": 5219,
    "suggests</w>": 5220,
    "1926</w>": 5221,
    "mount</w>": 5222,
    "recogn": 5223,
    "funding</w>": 5224,
    "enge</w>": 5225,
    "1952</w>": 5226,
    "ray</w>": 5227,
    "disc</w>": 5228,
    "stand</w>": 5229,
    "distribution</w>": 5230,
    "conservation</w>": 5231,
    "elev": 5232,
    "pin": 5233,
    "shape</w>": 5234,
    "strate</w>": 5235,
    "eff</w>": 5236,
    "score</w>": 5237,
    "ition</w>": 5238,
    "51</w>": 5239,
    "steve</w>": 5240,
    "losing</w>": 5241,
    "percent": 5242,
    "trying</w>": 5243,
    "pas": 5244,
    "bell</w>": 5245,
    "mike</w>": 5246,
    "penalty</w>": 5247,
    "dep": 5248,
    "offers</w>": 5249,
    "85</w>": 5250,
    "uries</w>": 5251,
    "ism": 5252,
    "twice</w>": 5253,
    "fications</w>": 5254,
    "ensemble</w>": 5255,
    "tol": 5256,
    "wooden</w>": 5257,
    "toward</w>": 5258,
    "py": 5259,
    "aded</w>": 5260,
    "embar": 5261,
    "owners</w>": 5262,
    "bow</w>": 5263,
    "trials</w>": 5264,
    "hat": 5265,
    "adv": 5266,
    "kan</w>": 5267,
    "hollywood</w>": 5268,
    "danc": 5269,
    "khan</w>": 5270,
    "esh</w>": 5271,
    "temp": 5272,
    "singh</w>": 5273,
    "attrac": 5274,
    "thakur</w>": 5275,
    "athle": 5276,
    "84</w>": 5277,
    "bour": 5278,
    "rement</w>": 5279,
    "ferdin": 5280,
    "ferdinand</w>": 5281,
    "turre": 5282,
    "vel": 5283,
    "rarely</w>": 5284,
    "aim": 5285,
    "symbol": 5286,
    "aten</w>": 5287,
    "cult</w>": 5288,
    "frank": 5289,
    "constan": 5290,
    "advis": 5291,
    "feel</w>": 5292,
    "cities</w>": 5293,
    "powerful</w>": 5294,
    "stances</w>": 5295,
    "rise</w>": 5296,
    "fit</w>": 5297,
    "increasingly</w>": 5298,
    "fis": 5299,
    "adult</w>": 5300,
    "practices</w>": 5301,
    "lets</w>": 5302,
    "persi": 5303,
    "didn</w>": 5304,
    "experim": 5305,
    "theory</w>": 5306,
    "safe": 5307,
    "plane</w>": 5308,
    "resulting</w>": 5309,
    "cran": 5310,
    "stay</w>": 5311,
    "experienced</w>": 5312,
    "effective</w>": 5313,
    "ghly</w>": 5314,
    "primarily</w>": 5315,
    "titude</w>": 5316,
    "assassination</w>": 5317,
    "chair": 5318,
    "q</w>": 5319,
    "flow</w>": 5320,
    "quarter</w>": 5321,
    "replacement</w>": 5322,
    "meeting</w>": 5323,
    "ee</w>": 5324,
    "zapata</w>": 5325,
    "ador": 5326,
    "kal": 5327,
    "1930</w>": 5328,
    "gue</w>": 5329,
    "uma</w>": 5330,
    "dutch</w>": 5331,
    "rested</w>": 5332,
    "120</w>": 5333,
    "rons</w>": 5334,
    "invas": 5335,
    "portugu": 5336,
    "portuguese</w>": 5337,
    "ocean</w>": 5338,
    "broadway</w>": 5339,
    "ementary</w>": 5340,
    "virg": 5341,
    "adam</w>": 5342,
    "illi": 5343,
    "edge</w>": 5344,
    "seems</w>": 5345,
    "herit": 5346,
    "zy</w>": 5347,
    "dwi": 5348,
    "symmetrical</w>": 5349,
    "sail": 5350,
    "justi": 5351,
    "1982</w>": 5352,
    "why</w>": 5353,
    "bird</w>": 5354,
    "warsaw</w>": 5355,
    "adults</w>": 5356,
    "freeway</w>": 5357,
    "hip</w>": 5358,
    "tot</w>": 5359,
    "eus</w>": 5360,
    "rail</w>": 5361,
    "uyghurs</w>": 5362,
    "monica</w>": 5363,
    "claws</w>": 5364,
    "nx": 5365,
    "fusion</w>": 5366,
    "predec": 5367,
    "runs</w>": 5368,
    "kim": 5369,
    "comic</w>": 5370,
    "line": 5371,
    "camp</w>": 5372,
    "simul": 5373,
    "attacks</w>": 5374,
    "crimin": 5375,
    "accused</w>": 5376,
    "exist</w>": 5377,
    "wear": 5378,
    "shou": 5379,
    "memory</w>": 5380,
    "systems</w>": 5381,
    "seg": 5382,
    "preci": 5383,
    "representing</w>": 5384,
    "tag": 5385,
    "owers</w>": 5386,
    "thetic</w>": 5387,
    "budget</w>": 5388,
    "recently</w>": 5389,
    "confir": 5390,
    "winter</w>": 5391,
    "ket": 5392,
    "stered</w>": 5393,
    "prising</w>": 5394,
    "turing</w>": 5395,
    "account</w>": 5396,
    "apsed</w>": 5397,
    "pay</w>": 5398,
    "bel</w>": 5399,
    "scope</w>": 5400,
    "ck</w>": 5401,
    "scale</w>": 5402,
    "freder": 5403,
    "jose": 5404,
    "joseph</w>": 5405,
    "condition</w>": 5406,
    "1911</w>": 5407,
    "administration</w>": 5408,
    "water": 5409,
    "66</w>": 5410,
    "1919</w>": 5411,
    "adver": 5412,
    "ida</w>": 5413,
    "victorian</w>": 5414,
    "1961</w>": 5415,
    "choice</w>": 5416,
    "institutions</w>": 5417,
    "resc": 5418,
    "louis</w>": 5419,
    "roll</w>": 5420,
    "panel</w>": 5421,
    "gambia</w>": 5422,
    "tam": 5423,
    "shap": 5424,
    "industrial</w>": 5425,
    "1987</w>": 5426,
    "pref": 5427,
    "developing</w>": 5428,
    "straight</w>": 5429,
    "montre": 5430,
    "montreal</w>": 5431,
    "additionally</w>": 5432,
    "streak</w>": 5433,
    "willing</w>": 5434,
    "letter</w>": 5435,
    "dying</w>": 5436,
    "posted</w>": 5437,
    "kill</w>": 5438,
    "awn</w>": 5439,
    "ana</w>": 5440,
    "sit</w>": 5441,
    "revival</w>": 5442,
    "1889</w>": 5443,
    "ographic</w>": 5444,
    "august": 5445,
    "stic": 5446,
    "melod": 5447,
    "mile</w>": 5448,
    "ja": 5449,
    "traff": 5450,
    "connec": 5451,
    "sli": 5452,
    "channel</w>": 5453,
    "contribu": 5454,
    "tie</w>": 5455,
    "broke</w>": 5456,
    "shed</w>": 5457,
    "laws</w>": 5458,
    "degree</w>": 5459,
    "domestic</w>": 5460,
    "guest</w>": 5461,
    "sati": 5462,
    "veg": 5463,
    "clim": 5464,
    "chose</w>": 5465,
    "retirement</w>": 5466,
    "sms</w>": 5467,
    "ben</w>": 5468,
    "án</w>": 5469,
    "stations</w>": 5470,
    "assa": 5471,
    "ara</w>": 5472,
    "rituals</w>": 5473,
    "phen": 5474,
    "count</w>": 5475,
    "signs</w>": 5476,
    "animal</w>": 5477,
    "tili": 5478,
    "argues</w>": 5479,
    "vince</w>": 5480,
    "mani": 5481,
    "buried</w>": 5482,
    "basic</w>": 5483,
    "fill": 5484,
    "laid</w>": 5485,
    "guil": 5486,
    "faith</w>": 5487,
    "teacher</w>": 5488,
    "muslim</w>": 5489,
    "ud": 5490,
    "safety</w>": 5491,
    "1972</w>": 5492,
    "1970s</w>": 5493,
    "cost</w>": 5494,
    "ireland</w>": 5495,
    "grass</w>": 5496,
    "prised</w>": 5497,
    "submarine</w>": 5498,
    "sie": 5499,
    "submarines</w>": 5500,
    "spore</w>": 5501,
    "ange</w>": 5502,
    "eer</w>": 5503,
    "path": 5504,
    "edly</w>": 5505,
    "perfect</w>": 5506,
    "eleg": 5507,
    "anything</w>": 5508,
    "ylide</w>": 5509,
    "yl": 5510,
    "execu": 5511,
    "uality</w>": 5512,
    "writes</w>": 5513,
    "pet</w>": 5514,
    "sle": 5515,
    "leads</w>": 5516,
    "anton": 5517,
    "coastal</w>": 5518,
    "ceremony</w>": 5519,
    "viewers</w>": 5520,
    "owski</w>": 5521,
    "harb": 5522,
    "arm</w>": 5523,
    "budd": 5524,
    "heritage</w>": 5525,
    "jar": 5526,
    "ji": 5527,
    "holding</w>": 5528,
    "altar</w>": 5529,
    "trin": 5530,
    "bob": 5531,
    "63</w>": 5532,
    "idi": 5533,
    "politics</w>": 5534,
    "folk": 5535,
    "theor": 5536,
    "watson</w>": 5537,
    "thail": 5538,
    "chair</w>": 5539,
    "giants</w>": 5540,
    "−</w>": 5541,
    "swedish</w>": 5542,
    "leonard</w>": 5543,
    "astra": 5544,
    "geastr": 5545,
    "geastrum</w>": 5546,
    "nol": 5547,
    "adams</w>": 5548,
    "inich</w>": 5549,
    "e5</w>": 5550,
    "huron</w>": 5551,
    "palestinian</w>": 5552,
    "prism</w>": 5553,
    "castles</w>": 5554,
    "ou</w>": 5555,
    "getting</w>": 5556,
    "armored</w>": 5557,
    "kept</w>": 5558,
    "rant</w>": 5559,
    "incorporated</w>": 5560,
    "essential</w>": 5561,
    "entially</w>": 5562,
    "reality</w>": 5563,
    "orchestr": 5564,
    "instruments</w>": 5565,
    "ranged</w>": 5566,
    "recru": 5567,
    "load</w>": 5568,
    "article</w>": 5569,
    "criticism</w>": 5570,
    "affected</w>": 5571,
    "page</w>": 5572,
    "bin": 5573,
    "extensive</w>": 5574,
    "bes": 5575,
    "supre": 5576,
    "pacific</w>": 5577,
    "appropri": 5578,
    "specimen</w>": 5579,
    "tot": 5580,
    "1861</w>": 5581,
    "prom": 5582,
    "direction</w>": 5583,
    "ayed</w>": 5584,
    "dges</w>": 5585,
    "efforts</w>": 5586,
    "58</w>": 5587,
    "8th</w>": 5588,
    "cav": 5589,
    "operated</w>": 5590,
    "aid</w>": 5591,
    "scar": 5592,
    "purchased</w>": 5593,
    "renamed</w>": 5594,
    "stationed</w>": 5595,
    "organizations</w>": 5596,
    "electric</w>": 5597,
    "honor</w>": 5598,
    "correspon": 5599,
    "gest</w>": 5600,
    "amateur</w>": 5601,
    "wings</w>": 5602,
    "rose</w>": 5603,
    "specimens</w>": 5604,
    "77</w>": 5605,
    "studied</w>": 5606,
    "ousness</w>": 5607,
    "picture</w>": 5608,
    "cher": 5609,
    "worldwide</w>": 5610,
    "tournament</w>": 5611,
    "levels</w>": 5612,
    "maskra": 5613,
    "dark</w>": 5614,
    "females</w>": 5615,
    "bottom</w>": 5616,
    "consists</w>": 5617,
    "sustained</w>": 5618,
    "maximum</w>": 5619,
    "pick</w>": 5620,
    "seconds</w>": 5621,
    "finish</w>": 5622,
    "trophy</w>": 5623,
    "coa": 5624,
    "permission</w>": 5625,
    "starts</w>": 5626,
    "arily</w>": 5627,
    "phoen": 5628,
    "phoenix</w>": 5629,
    "fortun": 5630,
    "insur": 5631,
    "vac": 5632,
    "palace</w>": 5633,
    "xiii</w>": 5634,
    "ut</w>": 5635,
    "pig": 5636,
    "physics</w>": 5637,
    "seat</w>": 5638,
    "towers</w>": 5639,
    "phic</w>": 5640,
    "strength</w>": 5641,
    "composition</w>": 5642,
    "rich</w>": 5643,
    "aware</w>": 5644,
    "poor": 5645,
    "calcul": 5646,
    "traffic</w>": 5647,
    "ign": 5648,
    "kno": 5649,
    "mall": 5650,
    "tang": 5651,
    "significantly</w>": 5652,
    "abled</w>": 5653,
    "dney</w>": 5654,
    "model</w>": 5655,
    "princess</w>": 5656,
    "oon</w>": 5657,
    "starred</w>": 5658,
    "ja</w>": 5659,
    "bai</w>": 5660,
    "2016</w>": 5661,
    "1964</w>": 5662,
    "light": 5663,
    "lightning</w>": 5664,
    "sought</w>": 5665,
    "gary</w>": 5666,
    "concerned</w>": 5667,
    "marrow</w>": 5668,
    "belief</w>": 5669,
    "mobil": 5670,
    "italy</w>": 5671,
    "destroy</w>": 5672,
    "ara": 5673,
    "objects</w>": 5674,
    "mann</w>": 5675,
    "strongly</w>": 5676,
    "reading</w>": 5677,
    "absor": 5678,
    "knew</w>": 5679,
    "evol": 5680,
    "causing</w>": 5681,
    "rule</w>": 5682,
    "circ": 5683,
    "dynamic</w>": 5684,
    "dit</w>": 5685,
    "tend</w>": 5686,
    "sr</w>": 5687,
    "fruit": 5688,
    "certified</w>": 5689,
    "gliders</w>": 5690,
    "landing</w>": 5691,
    "airspace</w>": 5692,
    "increasing</w>": 5693,
    "flights</w>": 5694,
    "mit</w>": 5695,
    "environmental</w>": 5696,
    "uled</w>": 5697,
    "severe</w>": 5698,
    "liner</w>": 5699,
    "requires</w>": 5700,
    "discipl": 5701,
    "gation</w>": 5702,
    "legisl": 5703,
    "abs": 5704,
    "absence</w>": 5705,
    "siege</w>": 5706,
    "destroyer</w>": 5707,
    "houses</w>": 5708,
    "carbonaria</w>": 5709,
    "chairman</w>": 5710,
    "catal": 5711,
    "possibility</w>": 5712,
    "documentary</w>": 5713,
    "daniel</w>": 5714,
    "patri": 5715,
    "reference</w>": 5716,
    "spain</w>": 5717,
    "darwin</w>": 5718,
    "tennant</w>": 5719,
    "mean</w>": 5720,
    "pakistan</w>": 5721,
    "defended</w>": 5722,
    "uri</w>": 5723,
    "km2</w>": 5724,
    "bou": 5725,
    "explains</w>": 5726,
    "considers</w>": 5727,
    "physic": 5728,
    "kit</w>": 5729,
    "invasion</w>": 5730,
    "dream</w>": 5731,
    "1975</w>": 5732,
    "divorce</w>": 5733,
    "relative</w>": 5734,
    "hanna</w>": 5735,
    "lane</w>": 5736,
    "tombs</w>": 5737,
    "hop</w>": 5738,
    "digital</w>": 5739,
    "corporation</w>": 5740,
    "thailand</w>": 5741,
    "urg": 5742,
    "asia</w>": 5743,
    "spou": 5744,
    "pus</w>": 5745,
    "gaga</w>": 5746,
    "husband": 5747,
    "husbandman</w>": 5748,
    "aha</w>": 5749,
    "palen": 5750,
    "adventures</w>": 5751,
    "lamb": 5752,
    "wu</w>": 5753,
    "d5</w>": 5754,
    "types": 5755,
    "soir</w>": 5756,
    "knights</w>": 5757,
    "crusader</w>": 5758,
    "follows</w>": 5759,
    "squad</w>": 5760,
    "expen": 5761,
    "engineers</w>": 5762,
    "enders</w>": 5763,
    "creating</w>": 5764,
    "revolu": 5765,
    "kis": 5766,
    "lem</w>": 5767,
    "heard</w>": 5768,
    "rejected</w>": 5769,
    "arranged</w>": 5770,
    "transfer</w>": 5771,
    "data</w>": 5772,
    "dv": 5773,
    "consequ": 5774,
    "adaptation</w>": 5775,
    "oh</w>": 5776,
    "deter": 5777,
    "dering</w>": 5778,
    "agreement</w>": 5779,
    "cal</w>": 5780,
    "caliber</w>": 5781,
    "battal": 5782,
    "battalion</w>": 5783,
    "valuable</w>": 5784,
    "neither</w>": 5785,
    "spirit</w>": 5786,
    "inder</w>": 5787,
    "suitable</w>": 5788,
    "chapter</w>": 5789,
    "box": 5790,
    "duties</w>": 5791,
    "frederick</w>": 5792,
    "brief": 5793,
    "mountain</w>": 5794,
    "register</w>": 5795,
    "1970</w>": 5796,
    "collaboration</w>": 5797,
    "eth</w>": 5798,
    "pal</w>": 5799,
    "dol": 5800,
    "1920": 5801,
    "1920s</w>": 5802,
    "ts": 5803,
    "doub": 5804,
    "tried</w>": 5805,
    "flat</w>": 5806,
    "technical</w>": 5807,
    "edward</w>": 5808,
    "1915</w>": 5809,
    "tells</w>": 5810,
    "46</w>": 5811,
    "produces</w>": 5812,
    "treasury</w>": 5813,
    "fying</w>": 5814,
    "challenge</w>": 5815,
    "toral</w>": 5816,
    "skin</w>": 5817,
    "ooth</w>": 5818,
    "broad</w>": 5819,
    "inging</w>": 5820,
    "shel": 5821,
    "tap": 5822,
    "capture</w>": 5823,
    "factors</w>": 5824,
    "wa</w>": 5825,
    "blues</w>": 5826,
    "percentage</w>": 5827,
    "happy</w>": 5828,
    "stanley</w>": 5829,
    "combination</w>": 5830,
    "shut": 5831,
    "clin": 5832,
    "finishing</w>": 5833,
    "ville</w>": 5834,
    "statistics</w>": 5835,
    "worn</w>": 5836,
    "82</w>": 5837,
    "observatory</w>": 5838,
    "flan": 5839,
    "centuries</w>": 5840,
    "itated</w>": 5841,
    "fted</w>": 5842,
    "joe</w>": 5843,
    "yl</w>": 5844,
    "austri": 5845,
    "protected</w>": 5846,
    "leys</w>": 5847,
    "bac": 5848,
    "infl": 5849,
    "possibly</w>": 5850,
    "hosted</w>": 5851,
    "ini</w>": 5852,
    "emerged</w>": 5853,
    "fear</w>": 5854,
    "wed": 5855,
    "attracted</w>": 5856,
    "consul": 5857,
    "may": 5858,
    "bass": 5859,
    "income</w>": 5860,
    "brief</w>": 5861,
    "outstanding</w>": 5862,
    "eland</w>": 5863,
    "tests</w>": 5864,
    "flotill": 5865,
    "iterran": 5866,
    "bombar": 5867,
    "mutin": 5868,
    "turrets</w>": 5869,
    "repl": 5870,
    "pp</w>": 5871,
    "outbreak</w>": 5872,
    "eve</w>": 5873,
    "hier": 5874,
    "distinguished</w>": 5875,
    "horus</w>": 5876,
    "step</w>": 5877,
    "truth</w>": 5878,
    "elephan": 5879,
    "die</w>": 5880,
    "vity</w>": 5881,
    "setting</w>": 5882,
    "false</w>": 5883,
    "circum": 5884,
    "icated</w>": 5885,
    "passes</w>": 5886,
    "extreme</w>": 5887,
    "kil": 5888,
    "isol": 5889,
    "decis": 5890,
    "guidance</w>": 5891,
    "bring</w>": 5892,
    "benefit</w>": 5893,
    "banks</w>": 5894,
    "recordings</w>": 5895,
    "describing</w>": 5896,
    "roll": 5897,
    "collected</w>": 5898,
    "decade</w>": 5899,
    "wants</w>": 5900,
    "sector</w>": 5901,
    "aerodrome</w>": 5902,
    "noise</w>": 5903,
    "airfields</w>": 5904,
    "1950s</w>": 5905,
    "1960s</w>": 5906,
    "xi": 5907,
    "circu": 5908,
    "powered</w>": 5909,
    "operate</w>": 5910,
    "joint</w>": 5911,
    "roughly</w>": 5912,
    "brist": 5913,
    "bristol</w>": 5914,
    "aring</w>": 5915,
    "ea</w>": 5916,
    "successor</w>": 5917,
    "difference</w>": 5918,
    "facing</w>": 5919,
    "display</w>": 5920,
    "candi": 5921,
    "pay": 5922,
    "kov": 5923,
    "substitu": 5924,
    "idation</w>": 5925,
    "eh": 5926,
    "typical</w>": 5927,
    "elections</w>": 5928,
    "oppon": 5929,
    "feast</w>": 5930,
    "onist</w>": 5931,
    "finds</w>": 5932,
    "essa</w>": 5933,
    "filmed</w>": 5934,
    "1945</w>": 5935,
    "marsh": 5936,
    "gram": 5937,
    "anne</w>": 5938,
    "vas": 5939,
    "gie</w>": 5940,
    "goo": 5941,
    "does": 5942,
    "doesn</w>": 5943,
    "architectural</w>": 5944,
    "ques</w>": 5945,
    "apse</w>": 5946,
    "rainfall</w>": 5947,
    "surviv": 5948,
    "ications</w>": 5949,
    "moo": 5950,
    "kev": 5951,
    "aire</w>": 5952,
    "morrison</w>": 5953,
    "forty</w>": 5954,
    "authors</w>": 5955,
    "ński</w>": 5956,
    "boy": 5957,
    "directors</w>": 5958,
    "lec": 5959,
    "luc": 5960,
    "ani</w>": 5961,
    "13th</w>": 5962,
    "antiquar": 5963,
    "aa</w>": 5964,
    "shop</w>": 5965,
    "sippy</w>": 5966,
    "cambridge</w>": 5967,
    "dr</w>": 5968,
    "vin</w>": 5969,
    "campus</w>": 5970,
    "alam": 5971,
    "tripol": 5972,
    "tripoli</w>": 5973,
    "phr": 5974,
    "isb": 5975,
    "isbn</w>": 5976,
    "dwight</w>": 5977,
    "palenque</w>": 5978,
    "eton</w>": 5979,
    "professor</w>": 5980,
    "lambton</w>": 5981,
    "archery</w>": 5982,
    "nf3</w>": 5983,
    "qx": 5984,
    "boreas</w>": 5985,
    "ita</w>": 5986,
    "content</w>": 5987,
    "ech</w>": 5988,
    "bles</w>": 5989,
    "gradually</w>": 5990,
    "granted</w>": 5991,
    "grant</w>": 5992,
    "changing</w>": 5993,
    "method</w>": 5994,
    "never": 5995,
    "neverth": 5996,
    "nevertheless</w>": 5997,
    "reven": 5998,
    "formal</w>": 5999,
    "designs</w>": 6000,
    "problem</w>": 6001,
    "tone</w>": 6002,
    "fought</w>": 6003,
    "enjoyed</w>": 6004,
    "life": 6005,
    "develop</w>": 6006,
    "kon": 6007,
    "tank</w>": 6008,
    "ok": 6009,
    "acres</w>": 6010,
    "ette</w>": 6011,
    "henry</w>": 6012,
    "mess": 6013,
    "recalled</w>": 6014,
    "rich": 6015,
    "interpreted</w>": 6016,
    "pted</w>": 6017,
    "safe</w>": 6018,
    "ordn": 6019,
    "battery</w>": 6020,
    "69</w>": 6021,
    "van</w>": 6022,
    "supp": 6023,
    "supply</w>": 6024,
    "remainder</w>": 6025,
    "obtained</w>": 6026,
    "rowed</w>": 6027,
    "enter</w>": 6028,
    "member": 6029,
    "nish</w>": 6030,
    "oration</w>": 6031,
    "1917</w>": 6032,
    "bab": 6033,
    "hood</w>": 6034,
    "prize</w>": 6035,
    "1925</w>": 6036,
    "keeper</w>": 6037,
    "receiving</w>": 6038,
    "1960</w>": 6039,
    "acquired</w>": 6040,
    "indicated</w>": 6041,
    "wood": 6042,
    "1920</w>": 6043,
    "sand</w>": 6044,
    "1927</w>": 6045,
    "yers</w>": 6046,
    "opol": 6047,
    "sport</w>": 6048,
    "sanc": 6049,
    "reaching</w>": 6050,
    "shaped</w>": 6051,
    "scientific</w>": 6052,
    "atus</w>": 6053,
    "gene": 6054,
    "suggesting</w>": 6055,
    "jon": 6056,
    "prospec": 6057,
    "exchange</w>": 6058,
    "goalten": 6059,
    "entering</w>": 6060,
    "injured</w>": 6061,
    "slow</w>": 6062,
    "ive</w>": 6063,
    "attributed</w>": 6064,
    "dead": 6065,
    "ud</w>": 6066,
    "senior</w>": 6067,
    "toronto</w>": 6068,
    "0th</w>": 6069,
    "sa</w>": 6070,
    "78</w>": 6071,
    "ano</w>": 6072,
    "mys": 6073,
    "18th</w>": 6074,
    "preserved</w>": 6075,
    "87</w>": 6076,
    "autom": 6077,
    "diameter</w>": 6078,
    "ologist</w>": 6079,
    "carry</w>": 6080,
    "everyone</w>": 6081,
    "aska</w>": 6082,
    "travel</w>": 6083,
    "anna": 6084,
    "stea": 6085,
    "steam</w>": 6086,
    "passeng": 6087,
    "coal</w>": 6088,
    "bee</w>": 6089,
    "deck</w>": 6090,
    "erable</w>": 6091,
    "ag</w>": 6092,
    "atlantic</w>": 6093,
    "aling</w>": 6094,
    "inters</w>": 6095,
    "bah": 6096,
    "nic</w>": 6097,
    "pursu": 6098,
    "deep": 6099,
    "dialogue</w>": 6100,
    "starring</w>": 6101,
    "seeing</w>": 6102,
    "mumbai</w>": 6103,
    "oner</w>": 6104,
    "concert</w>": 6105,
    "scholar": 6106,
    "scholarship</w>": 6107,
    "94</w>": 6108,
    "eness</w>": 6109,
    "jr</w>": 6110,
    "dread": 6111,
    "mediterran": 6112,
    "mediterranean</w>": 6113,
    "millime": 6114,
    "batteries</w>": 6115,
    "maat</w>": 6116,
    "isis</w>": 6117,
    "demons</w>": 6118,
    "maintained</w>": 6119,
    "communities</w>": 6120,
    "suggest</w>": 6121,
    "iris</w>": 6122,
    "drawing</w>": 6123,
    "keeping</w>": 6124,
    "titles</w>": 6125,
    "province</w>": 6126,
    "periods</w>": 6127,
    "frequently</w>": 6128,
    "vessel</w>": 6129,
    "vul": 6130,
    "rated</w>": 6131,
    "allows</w>": 6132,
    "bones</w>": 6133,
    "heads</w>": 6134,
    "agree</w>": 6135,
    "evil</w>": 6136,
    "relief</w>": 6137,
    "dred</w>": 6138,
    "peaked</w>": 6139,
    "ble": 6140,
    "accounts</w>": 6141,
    "regar": 6142,
    "piper</w>": 6143,
    "big": 6144,
    "fuel</w>": 6145,
    "acceptable</w>": 6146,
    "fically</w>": 6147,
    "gar</w>": 6148,
    "husband</w>": 6149,
    "simultane": 6150,
    "entirely</w>": 6151,
    "stalk</w>": 6152,
    "scopic</w>": 6153,
    "forest</w>": 6154,
    "reduc": 6155,
    "technique</w>": 6156,
    "resem": 6157,
    "candidate</w>": 6158,
    "survived</w>": 6159,
    "sulfide</w>": 6160,
    "derived</w>": 6161,
    "oroz": 6162,
    "orozco</w>": 6163,
    "storylines</w>": 6164,
    "narrative</w>": 6165,
    "lie</w>": 6166,
    "behaviour</w>": 6167,
    "tim</w>": 6168,
    "1979</w>": 6169,
    "nickn": 6170,
    "arrested</w>": 6171,
    "oured</w>": 6172,
    "nominated</w>": 6173,
    "elementary</w>": 6174,
    "obli": 6175,
    "inde": 6176,
    "elephanta</w>": 6177,
    "buddhi": 6178,
    "buddhist</w>": 6179,
    "portic": 6180,
    "riding</w>": 6181,
    "opera</w>": 6182,
    "grey</w>": 6183,
    "containing</w>": 6184,
    "archbishop</w>": 6185,
    "rier</w>": 6186,
    "proper</w>": 6187,
    "wiz": 6188,
    "wizards</w>": 6189,
    "kins</w>": 6190,
    "03</w>": 6191,
    "wic": 6192,
    "bious</w>": 6193,
    "convo": 6194,
    "rh": 6195,
    "vis</w>": 6196,
    "quo": 6197,
    "intensi": 6198,
    "audiences</w>": 6199,
    "telec": 6200,
    "thaksin</w>": 6201,
    "eph": 6202,
    "ias</w>": 6203,
    "uble</w>": 6204,
    "clair</w>": 6205,
    "ocy": 6206,
    "tissue</w>": 6207,
    "quite</w>": 6208,
    "cytog": 6209,
    "cytogene": 6210,
    "teaches</w>": 6211,
    "deac": 6212,
    "hemmema</w>": 6213,
    "sitcom</w>": 6214,
    "type": 6215,
    "bg": 6216,
    "essors</w>": 6217,
    "carrying</w>": 6218,
    "portion</w>": 6219,
    "stories</w>": 6220,
    "aps</w>": 6221,
    "turns</w>": 6222,
    "distance</w>": 6223,
    "other": 6224,
    "masters</w>": 6225,
    "consisting</w>": 6226,
    "protect</w>": 6227,
    "partly</w>": 6228,
    "ko</w>": 6229,
    "model": 6230,
    "responsibility</w>": 6231,
    "dman</w>": 6232,
    "zone</w>": 6233,
    "vehi": 6234,
    "dougl": 6235,
    "douglas</w>": 6236,
    "supreme</w>": 6237,
    "eived</w>": 6238,
    "store</w>": 6239,
    "telling</w>": 6240,
    "garrison</w>": 6241,
    "simply</w>": 6242,
    "citizens</w>": 6243,
    "assumed</w>": 6244,
    "substan": 6245,
    "ordnance</w>": 6246,
    "900</w>": 6247,
    "sort</w>": 6248,
    "inspec": 6249,
    "tenant</w>": 6250,
    "iron": 6251,
    "enlisted</w>": 6252,
    "painted</w>": 6253,
    "briefly</w>": 6254,
    "rear</w>": 6255,
    "roads</w>": 6256,
    "traded</w>": 6257,
    "bian</w>": 6258,
    "facts</w>": 6259,
    "tered</w>": 6260,
    "gone</w>": 6261,
    "cock</w>": 6262,
    "croy": 6263,
    "croydon</w>": 6264,
    "part": 6265,
    "remarked</w>": 6266,
    "lac": 6267,
    "1948</w>": 6268,
    "mill": 6269,
    "targe": 6270,
    "opportunity</w>": 6271,
    "taxonom": 6272,
    "organisation</w>": 6273,
    "refers</w>": 6274,
    "otyp": 6275,
    "closely</w>": 6276,
    "males</w>": 6277,
    "threat</w>": 6278,
    "operates</w>": 6279,
    "1959</w>": 6280,
    "nego": 6281,
    "negoti": 6282,
    "goaltender</w>": 6283,
    "hit": 6284,
    "warm</w>": 6285,
    "suffering</w>": 6286,
    "ota</w>": 6287,
    "adding</w>": 6288,
    "camp": 6289,
    "defeated</w>": 6290,
    "astr": 6291,
    "depth</w>": 6292,
    "julian</w>": 6293,
    "christop": 6294,
    "jesu": 6295,
    "vi</w>": 6296,
    "subsequent</w>": 6297,
    "paris</w>": 6298,
    "orial</w>": 6299,
    "border</w>": 6300,
    "camera</w>": 6301,
    "matt": 6302,
    "fixed</w>": 6303,
    "cosm": 6304,
    "running</w>": 6305,
    "height</w>": 6306,
    "existence</w>": 6307,
    "differences</w>": 6308,
    "hang": 6309,
    "chor": 6310,
    "92</w>": 6311,
    "bility</w>": 6312,
    "annah</w>": 6313,
    "engines</w>": 6314,
    "sic": 6315,
    "equivalent</w>": 6316,
    "waters</w>": 6317,
    "hant</w>": 6318,
    "dg": 6319,
    "advance</w>": 6320,
    "pleasure</w>": 6321,
    "va": 6322,
    "chan</w>": 6323,
    "satur": 6324,
    "saturday</w>": 6325,
    "horse</w>": 6326,
    "twel": 6327,
    "appearing</w>": 6328,
    "phil</w>": 6329,
    "looked</w>": 6330,
    "stood</w>": 6331,
    "recover": 6332,
    "ake</w>": 6333,
    "aft</w>": 6334,
    "1910</w>": 6335,
    "succe": 6336,
    "raid</w>": 6337,
    "element</w>": 6338,
    "core</w>": 6339,
    "writings</w>": 6340,
    "capable</w>": 6341,
    "remin": 6342,
    "dyn": 6343,
    "environment</w>": 6344,
    "tine</w>": 6345,
    "ruption</w>": 6346,
    "marsh</w>": 6347,
    "existed</w>": 6348,
    "soul</w>": 6349,
    "cloth": 6350,
    "existing</w>": 6351,
    "argum": 6352,
    "unusual</w>": 6353,
    "status</w>": 6354,
    "occasionally</w>": 6355,
    "hundred</w>": 6356,
    "what": 6357,
    "sor</w>": 6358,
    "desire</w>": 6359,
    "grave</w>": 6360,
    "tribu": 6361,
    "crown</w>": 6362,
    "orth": 6363,
    "shoot</w>": 6364,
    "operating</w>": 6365,
    "sched": 6366,
    "trained</w>": 6367,
    "touring</w>": 6368,
    "normally</w>": 6369,
    "circuit</w>": 6370,
    "hamp": 6371,
    "reviewed</w>": 6372,
    "context</w>": 6373,
    "severely</w>": 6374,
    "decline</w>": 6375,
    "growing</w>": 6376,
    "commerci": 6377,
    "charges</w>": 6378,
    "approved</w>": 6379,
    "hyp": 6380,
    "gal</w>": 6381,
    "1849</w>": 6382,
    "denomin": 6383,
    "patterson</w>": 6384,
    "circle</w>": 6385,
    "charlot": 6386,
    "charlotte</w>": 6387,
    "indicate</w>": 6388,
    "folk</w>": 6389,
    "tages</w>": 6390,
    "voted</w>": 6391,
    "format</w>": 6392,
    "hydro": 6393,
    "iel": 6394,
    "methods</w>": 6395,
    "rival</w>": 6396,
    "resig": 6397,
    "cabral</w>": 6398,
    "absol": 6399,
    "sexuality</w>": 6400,
    "eric</w>": 6401,
    "literary</w>": 6402,
    "aming</w>": 6403,
    "izes</w>": 6404,
    "fighters</w>": 6405,
    "exposure</w>": 6406,
    "accommod": 6407,
    "ark</w>": 6408,
    "aster</w>": 6409,
    "mitchells</w>": 6410,
    "1947</w>": 6411,
    "hot": 6412,
    "screen": 6413,
    "amy</w>": 6414,
    "emmy</w>": 6415,
    "globe</w>": 6416,
    "grammy</w>": 6417,
    "aired</w>": 6418,
    "nominations</w>": 6419,
    "martin</w>": 6420,
    "lowe</w>": 6421,
    "theater</w>": 6422,
    "decre": 6423,
    "hindu": 6424,
    "portico</w>": 6425,
    "attend": 6426,
    "ava</w>": 6427,
    "ling": 6428,
    "add": 6429,
    "ogen": 6430,
    "jo</w>": 6431,
    "avo": 6432,
    "stream</w>": 6433,
    "jews</w>": 6434,
    "migration</w>": 6435,
    "sevente": 6436,
    "seventeenth</w>": 6437,
    "kevin</w>": 6438,
    "orland": 6439,
    "orlando</w>": 6440,
    "salary</w>": 6441,
    "clearly</w>": 6442,
    "sovie": 6443,
    "les": 6444,
    "battlec": 6445,
    "battlecru": 6446,
    "1935</w>": 6447,
    "rhode</w>": 6448,
    "grass": 6449,
    "kursti": 6450,
    "kurstin</w>": 6451,
    "underne": 6452,
    "underneath</w>": 6453,
    "southeast</w>": 6454,
    "pah</w>": 6455,
    "computer</w>": 6456,
    "detec": 6457,
    "videos</w>": 6458,
    "armies</w>": 6459,
    "acid</w>": 6460,
    "tessa</w>": 6461,
    "astraeus</w>": 6462,
    "magnol": 6463,
    "magnolia</w>": 6464,
    "phrase</w>": 6465,
    "parish</w>": 6466,
    "labour</w>": 6467,
    "moody</w>": 6468,
    "chicks</w>": 6469,
    "elegans</w>": 6470,
    "princeton</w>": 6471,
    "emma</w>": 6472,
    "alamos</w>": 6473,
    "toso</w>": 6474,
    "c3</w>": 6475,
    "g3</w>": 6476,
    "susque": 6477,
    "susquehanna</w>": 6478,
    "hairstyle</w>": 6479,
    "option</w>": 6480,
    "custom": 6481,
    "unless</w>": 6482,
    "otherwise</w>": 6483,
    "ified</w>": 6484,
    "ishes</w>": 6485,
    "desc": 6486,
    "independence</w>": 6487,
    "commanding</w>": 6488,
    "wrec": 6489,
    "ji</w>": 6490,
    "orchestra</w>": 6491,
    "journalists</w>": 6492,
    "reveal</w>": 6493,
    "visual</w>": 6494,
    "copy</w>": 6495,
    "pressing</w>": 6496,
    "dvd</w>": 6497,
    "umes</w>": 6498,
    "rie</w>": 6499,
    "downtown</w>": 6500,
    "missi": 6501,
    "attr": 6502,
    "connection</w>": 6503,
    "ussion</w>": 6504,
    "rifl": 6505,
    "rifles</w>": 6506,
    "somewhat</w>": 6507,
    "mounted</w>": 6508,
    "eme": 6509,
    "sufficient</w>": 6510,
    "confederate</w>": 6511,
    "lieu": 6512,
    "persons</w>": 6513,
    "employment</w>": 6514,
    "zes</w>": 6515,
    "130</w>": 6516,
    "evac": 6517,
    "evacu": 6518,
    "interior</w>": 6519,
    "favor</w>": 6520,
    "roots</w>": 6521,
    "visitors</w>": 6522,
    "1923</w>": 6523,
    "window</w>": 6524,
    "promise</w>": 6525,
    "releases</w>": 6526,
    "alties</w>": 6527,
    "canon</w>": 6528,
    "recommended</w>": 6529,
    "whit": 6530,
    "pursue</w>": 6531,
    "worthing</w>": 6532,
    "childh": 6533,
    "childhood</w>": 6534,
    "clothing</w>": 6535,
    "printing</w>": 6536,
    "admitted</w>": 6537,
    "1916</w>": 6538,
    "pel</w>": 6539,
    "1930s</w>": 6540,
    "1957</w>": 6541,
    "maskray</w>": 6542,
    "producing</w>": 6543,
    "survive</w>": 6544,
    "nash</w>": 6545,
    "clock</w>": 6546,
    "eighth</w>": 6547,
    "agent</w>": 6548,
    "ewski</w>": 6549,
    "winner</w>": 6550,
    "jason</w>": 6551,
    "assists</w>": 6552,
    "ris</w>": 6553,
    "deman": 6554,
    "than": 6555,
    "nation": 6556,
    "correct</w>": 6557,
    "stopped</w>": 6558,
    "phase</w>": 6559,
    "regulation</w>": 6560,
    "weigh": 6561,
    "expansion</w>": 6562,
    "ectively</w>": 6563,
    "joining</w>": 6564,
    "av</w>": 6565,
    "apost": 6566,
    "97</w>": 6567,
    "cope</w>": 6568,
    "manus": 6569,
    "manuscri": 6570,
    "decorated</w>": 6571,
    "pher</w>": 6572,
    "bob</w>": 6573,
    "engineering</w>": 6574,
    "toler": 6575,
    "accept</w>": 6576,
    "steps</w>": 6577,
    "nebr": 6578,
    "nebraska</w>": 6579,
    "rural</w>": 6580,
    "fing": 6581,
    "savannah</w>": 6582,
    "knots</w>": 6583,
    "cargo</w>": 6584,
    "180</w>": 6585,
    "oriented</w>": 6586,
    "pier": 6587,
    "kg</w>": 6588,
    "circulation</w>": 6589,
    "manner</w>": 6590,
    "sand": 6591,
    "bad": 6592,
    "sign": 6593,
    "deliver": 6594,
    "sydney</w>": 6595,
    "sri</w>": 6596,
    "graduated</w>": 6597,
    "repor": 6598,
    "psy": 6599,
    "musician</w>": 6600,
    "escape</w>": 6601,
    "languages</w>": 6602,
    "arabic</w>": 6603,
    "duo</w>": 6604,
    "billion</w>": 6605,
    "repu": 6606,
    "reputation</w>": 6607,
    "crime</w>": 6608,
    "hay</w>": 6609,
    "funds</w>": 6610,
    "asian</w>": 6611,
    "dressed</w>": 6612,
    "neck</w>": 6613,
    "universi": 6614,
    "universities</w>": 6615,
    "minim": 6616,
    "needs</w>": 6617,
    "point": 6618,
    "concerns</w>": 6619,
    "diagnosis</w>": 6620,
    "98</w>": 6621,
    "contact</w>": 6622,
    "99</w>": 6623,
    "interested</w>": 6624,
    "dreadn": 6625,
    "croatia</w>": 6626,
    "flotilla</w>": 6627,
    "cruisers</w>": 6628,
    "sz": 6629,
    "tonnes</w>": 6630,
    "armament</w>": 6631,
    "surrounded</w>": 6632,
    "scra": 6633,
    "phenom": 6634,
    "phara": 6635,
    "beings</w>": 6636,
    "drin": 6637,
    "tah</w>": 6638,
    "maintain</w>": 6639,
    "renew": 6640,
    "ficial</w>": 6641,
    "express</w>": 6642,
    "datory</w>": 6643,
    "circumstances</w>": 6644,
    "insi": 6645,
    "shipping</w>": 6646,
    "credit</w>": 6647,
    "views</w>": 6648,
    "moment</w>": 6649,
    "lying</w>": 6650,
    "counter</w>": 6651,
    "oring</w>": 6652,
    "fischer</w>": 6653,
    "essions</w>": 6654,
    "rebel": 6655,
    "tempo</w>": 6656,
    "matters</w>": 6657,
    "singing</w>": 6658,
    "cool</w>": 6659,
    "icks</w>": 6660,
    "fts</w>": 6661,
    "nether": 6662,
    "netherlands</w>": 6663,
    "licence</w>": 6664,
    "worth": 6665,
    "scheduled</w>": 6666,
    "ministry</w>": 6667,
    "170</w>": 6668,
    "categories</w>": 6669,
    "stock</w>": 6670,
    "lists</w>": 6671,
    "weather</w>": 6672,
    "appropriate</w>": 6673,
    "erly</w>": 6674,
    "valid</w>": 6675,
    "compla": 6676,
    "orn</w>": 6677,
    "synon": 6678,
    "collections</w>": 6679,
    "vit": 6680,
    "agues</w>": 6681,
    "congress</w>": 6682,
    "strike</w>": 6683,
    "motion</w>": 6684,
    "preparation</w>": 6685,
    "trivi": 6686,
    "closer</w>": 6687,
    "secured</w>": 6688,
    "synthesis</w>": 6689,
    "provides</w>": 6690,
    "prison</w>": 6691,
    "killing</w>": 6692,
    "theatrical</w>": 6693,
    "grace</w>": 6694,
    "vement</w>": 6695,
    "cold</w>": 6696,
    "speak</w>": 6697,
    "salv": 6698,
    "agi": 6699,
    "1931</w>": 6700,
    "bat": 6701,
    "tcher</w>": 6702,
    "maur": 6703,
    "medal</w>": 6704,
    "squadrons</w>": 6705,
    "republic": 6706,
    "week": 6707,
    "weekend</w>": 6708,
    "exposed</w>": 6709,
    "watching</w>": 6710,
    "premiere</w>": 6711,
    "movies</w>": 6712,
    "giant</w>": 6713,
    "walk</w>": 6714,
    "cool": 6715,
    "hindu</w>": 6716,
    "unesco</w>": 6717,
    "refu": 6718,
    "considerable</w>": 6719,
    "chambers</w>": 6720,
    "spear</w>": 6721,
    "nich": 6722,
    "begun</w>": 6723,
    "contributed</w>": 6724,
    "techniques</w>": 6725,
    "1977</w>": 6726,
    "work": 6727,
    "obl": 6728,
    "sailors</w>": 6729,
    "protests</w>": 6730,
    "metro": 6731,
    "protest": 6732,
    "iding</w>": 6733,
    "reed</w>": 6734,
    "banned</w>": 6735,
    "incident</w>": 6736,
    "bbc</w>": 6737,
    "amend": 6738,
    "candid": 6739,
    "oral</w>": 6740,
    "induction</w>": 6741,
    "younger</w>": 6742,
    "ppg</w>": 6743,
    "florida</w>": 6744,
    "ern": 6745,
    "ray": 6746,
    "tade": 6747,
    "tadeusz</w>": 6748,
    "ok</w>": 6749,
    "kras": 6750,
    "missile</w>": 6751,
    "hits</w>": 6752,
    "bay": 6753,
    "timber</w>": 6754,
    "slop": 6755,
    "stuart</w>": 6756,
    "crane</w>": 6757,
    "spar": 6758,
    "inum</w>": 6759,
    "cow": 6760,
    "meh": 6761,
    "viewed</w>": 6762,
    "1976</w>": 6763,
    "liqu": 6764,
    "rapid</w>": 6765,
    "leban": 6766,
    "gle": 6767,
    "eighteen</w>": 6768,
    "windows</w>": 6769,
    "opined</w>": 6770,
    "dign": 6771,
    "chut": 6772,
    "chutz": 6773,
    "chutzpah</w>": 6774,
    "kree": 6775,
    "kreeft</w>": 6776,
    "hemmemas</w>": 6777,
    "lu</w>": 6778,
    "deacon</w>": 6779,
    "typeset": 6780,
    "nf6</w>": 6781,
    "kau": 6782,
    "canal</w>": 6783,
    "game": 6784,
    "galli": 6785,
    "partially</w>": 6786,
    "outs</w>": 6787,
    "swit": 6788,
    "ideal</w>": 6789,
    "interests</w>": 6790,
    "allies</w>": 6791,
    "rian</w>": 6792,
    "prove</w>": 6793,
    "certain": 6794,
    "decides</w>": 6795,
    "confron": 6796,
    "predecessor</w>": 6797,
    "appeal</w>": 6798,
    "duty</w>": 6799,
    "promote</w>": 6800,
    "acity</w>": 6801,
    "atively</w>": 6802,
    "urring</w>": 6803,
    "remov": 6804,
    "eline</w>": 6805,
    "sho": 6806,
    "decom": 6807,
    "housed</w>": 6808,
    "receives</w>": 6809,
    "dest</w>": 6810,
    "responded</w>": 6811,
    "let": 6812,
    "teleg": 6813,
    "eling</w>": 6814,
    "assembled</w>": 6815,
    "demand</w>": 6816,
    "superi": 6817,
    "passage</w>": 6818,
    "classified</w>": 6819,
    "cris": 6820,
    "9th</w>": 6821,
    "companies</w>": 6822,
    "1862</w>": 6823,
    "burg</w>": 6824,
    "labor</w>": 6825,
    "inity</w>": 6826,
    "lieutenant</w>": 6827,
    "predomin": 6828,
    "quick</w>": 6829,
    "fine</w>": 6830,
    "1895</w>": 6831,
    "glass</w>": 6832,
    "wasn</w>": 6833,
    "bought</w>": 6834,
    "accompanying</w>": 6835,
    "garden</w>": 6836,
    "mosph": 6837,
    "scatter": 6838,
    "yard</w>": 6839,
    "pengu": 6840,
    "wear</w>": 6841,
    "covers</w>": 6842,
    "friend": 6843,
    "gos": 6844,
    "installed</w>": 6845,
    "1950</w>": 6846,
    "recognised</w>": 6847,
    "organised</w>": 6848,
    "continent</w>": 6849,
    "altern": 6850,
    "caught</w>": 6851,
    "measuring</w>": 6852,
    "tip</w>": 6853,
    "continental</w>": 6854,
    "queens": 6855,
    "scott</w>": 6856,
    "carter</w>": 6857,
    "controversi": 6858,
    "detro": 6859,
    "detroit</w>": 6860,
    "struggle</w>": 6861,
    "ulation</w>": 6862,
    "understanding</w>": 6863,
    "host</w>": 6864,
    "dean</w>": 6865,
    "campbell</w>": 6866,
    "eliminated</w>": 6867,
    "pts</w>": 6868,
    "wick</w>": 6869,
    "convers": 6870,
    "architect</w>": 6871,
    "observations</w>": 6872,
    "ella</w>": 6873,
    "arian</w>": 6874,
    "zel": 6875,
    "ada</w>": 6876,
    "erected</w>": 6877,
    "urban</w>": 6878,
    "inspiration</w>": 6879,
    "forth</w>": 6880,
    "ldn</w>": 6881,
    "hil": 6882,
    "gan</w>": 6883,
    "izing</w>": 6884,
    "cli": 6885,
    "red": 6886,
    "railway</w>": 6887,
    "blockade</w>": 6888,
    "monitors</w>": 6889,
    "700</w>": 6890,
    "mounts</w>": 6891,
    "shells</w>": 6892,
    "solid</w>": 6893,
    "bars</w>": 6894,
    "demonstrated</w>": 6895,
    "wounded</w>": 6896,
    "require</w>": 6897,
    "crews</w>": 6898,
    "tren": 6899,
    "apparently</w>": 6900,
    "universe</w>": 6901,
    "fourteen</w>": 6902,
    "barry</w>": 6903,
    "anup": 6904,
    "opposite</w>": 6905,
    "negative</w>": 6906,
    "bo</w>": 6907,
    "bly</w>": 6908,
    "contained</w>": 6909,
    "bach": 6910,
    "veget": 6911,
    "fa</w>": 6912,
    "animals</w>": 6913,
    "elephant</w>": 6914,
    "yan": 6915,
    "accord": 6916,
    "accordingly</w>": 6917,
    "prece": 6918,
    "convin": 6919,
    "convinced</w>": 6920,
    "rid": 6921,
    "harm": 6922,
    "sole</w>": 6923,
    "twin</w>": 6924,
    "fitted</w>": 6925,
    "assault</w>": 6926,
    "beliefs</w>": 6927,
    "fundam": 6928,
    "thousan": 6929,
    "thousands</w>": 6930,
    "ologies</w>": 6931,
    "origin</w>": 6932,
    "ropol": 6933,
    "consistent</w>": 6934,
    "sia</w>": 6935,
    "behavior</w>": 6936,
    "period": 6937,
    "poorly</w>": 6938,
    "establish</w>": 6939,
    "nut</w>": 6940,
    "describe</w>": 6941,
    "dram": 6942,
    "asserted</w>": 6943,
    "reader</w>": 6944,
    "ordinary</w>": 6945,
    "useful</w>": 6946,
    "intermedi": 6947,
    "interaction</w>": 6948,
    "filled</w>": 6949,
    "insul": 6950,
    "innoc": 6951,
    "ignor": 6952,
    "punishment</w>": 6953,
    "hoped</w>": 6954,
    "encouraged</w>": 6955,
    "answ": 6956,
    "oph": 6957,
    "suic": 6958,
    "suicide</w>": 6959,
    "promotional</w>": 6960,
    "odo": 6961,
    "drums</w>": 6962,
    "easa</w>": 6963,
    "gliding</w>": 6964,
    "significance</w>": 6965,
    "recreational</w>": 6966,
    "wider</w>": 6967,
    "classification</w>": 6968,
    "notably</w>": 6969,
    "criticised</w>": 6970,
    "cruise</w>": 6971,
    "inet</w>": 6972,
    "theast": 6973,
    "collapsed</w>": 6974,
    "yu": 6975,
    "simultaneously</w>": 6976,
    "donald</w>": 6977,
    "µm</w>": 6978,
    "institution</w>": 6979,
    "escu": 6980,
    "amounts</w>": 6981,
    "democr": 6982,
    "fill</w>": 6983,
    "ensure</w>": 6984,
    "agricultural</w>": 6985,
    "doors</w>": 6986,
    "cies</w>": 6987,
    "items</w>": 6988,
    "file</w>": 6989,
    "cement</w>": 6990,
    "hua</w>": 6991,
    "violation</w>": 6992,
    "dictator</w>": 6993,
    "carib": 6994,
    "dancing</w>": 6995,
    "aqu": 6996,
    "cau": 6997,
    "liked</w>": 6998,
    "prohibited</w>": 6999,
    "burial</w>": 7000,
    "las": 7001,
    "wearing</w>": 7002,
    "escort</w>": 7003,
    "regularly</w>": 7004,
    "marshal</w>": 7005,
    "cole</w>": 7006,
    "gold": 7007,
    "palin</w>": 7008,
    "talk</w>": 7009,
    "category</w>": 7010,
    "shu": 7011,
    "brilli": 7012,
    "brigade</w>": 7013,
    "opinions</w>": 7014,
    "conventional</w>": 7015,
    "quoted</w>": 7016,
    "temperature</w>": 7017,
    "axis</w>": 7018,
    "gambling</w>": 7019,
    "shoul": 7020,
    "skull</w>": 7021,
    "alism</w>": 7022,
    "path</w>": 7023,
    "programs</w>": 7024,
    "shing</w>": 7025,
    "fter</w>": 7026,
    "casu": 7027,
    "footage</w>": 7028,
    "tab": 7029,
    "asi": 7030,
    "marke": 7031,
    "jersey</w>": 7032,
    "arrival</w>": 7033,
    "survivors</w>": 7034,
    "climate</w>": 7035,
    "cutting</w>": 7036,
    "prisoners</w>": 7037,
    "statute</w>": 7038,
    "beaten</w>": 7039,
    "02</w>": 7040,
    "fü": 7041,
    "ów</w>": 7042,
    "emphasis</w>": 7043,
    "zy": 7044,
    "owa</w>": 7045,
    "jerzy</w>": 7046,
    "attitude</w>": 7047,
    "dan</w>": 7048,
    "trip</w>": 7049,
    "bce</w>": 7050,
    "zeal": 7051,
    "piggo": 7052,
    "piggott</w>": 7053,
    "hartley</w>": 7054,
    "median</w>": 7055,
    "belgium</w>": 7056,
    "beats</w>": 7057,
    "gery</w>": 7058,
    "somer": 7059,
    "somerset</w>": 7060,
    "sciences</w>": 7061,
    "erman</w>": 7062,
    "frigates</w>": 7063,
    "ores</w>": 7064,
    "promiscu": 7065,
    "fletcher</w>": 7066,
    "stib": 7067,
    "mortim": 7068,
    "mortimer</w>": 7069,
    "graduate</w>": 7070,
    "jerus": 7071,
    "jerusal": 7072,
    "jerusalem</w>": 7073,
    "earthstar</w>": 7074,
    "brook</w>": 7075,
    "dioc": 7076,
    "catholics</w>": 7077,
    "openings</w>": 7078,
    "myeloid</w>": 7079,
    "shaog": 7080,
    "shaoguan</w>": 7081,
    "boxing</w>": 7082,
    "ffman</w>": 7083,
    "dignity</w>": 7084,
    "homosexual</w>": 7085,
    "galleys</w>": 7086,
    "clement</w>": 7087,
    "prefect</w>": 7088,
    "gm</w>": 7089,
    "c5</w>": 7090,
    "joey</w>": 7091,
    "lefield</w>": 7092,
    "nameless</w>": 7093,
    "speech</w>": 7094,
    "difficulty</w>": 7095,
    "abilities</w>": 7096,
    "gained</w>": 7097,
    "attribu": 7098,
    "ela</w>": 7099,
    "lose</w>": 7100,
    "atta": 7101,
    "improve</w>": 7102,
    "achie": 7103,
    "achieve</w>": 7104,
    "identify</w>": 7105,
    "engine</w>": 7106,
    "capacity</w>": 7107,
    "eased</w>": 7108,
    "itations</w>": 7109,
    "ryan</w>": 7110,
    "isms</w>": 7111,
    "repeti": 7112,
    "focused</w>": 7113,
    "happened</w>": 7114,
    "flowers</w>": 7115,
    "fate</w>": 7116,
    "ammuni": 7117,
    "ammunition</w>": 7118,
    "convention</w>": 7119,
    "deleg": 7120,
    "informed</w>": 7121,
    "telegra": 7122,
    "confirmed</w>": 7123,
    "situations</w>": 7124,
    "gency</w>": 7125,
    "conqu": 7126,
    "250</w>": 7127,
    "bron": 7128,
    "eable</w>": 7129,
    "caval": 7130,
    "12th</w>": 7131,
    "nit": 7132,
    "thered</w>": 7133,
    "equal</w>": 7134,
    "ironcl": 7135,
    "rank</w>": 7136,
    "iv</w>": 7137,
    "repaired</w>": 7138,
    "pounder</w>": 7139,
    "airs</w>": 7140,
    "1890</w>": 7141,
    "olished</w>": 7142,
    "nie</w>": 7143,
    "relocated</w>": 7144,
    "commem": 7145,
    "1973</w>": 7146,
    "cards</w>": 7147,
    "themed</w>": 7148,
    "exer": 7149,
    "evening</w>": 7150,
    "seventeen</w>": 7151,
    "kinder": 7152,
    "kindergar": 7153,
    "kindergarten</w>": 7154,
    "1924</w>": 7155,
    "atmosph": 7156,
    "plants</w>": 7157,
    "cost": 7158,
    "solely</w>": 7159,
    "yor": 7160,
    "extent</w>": 7161,
    "1983</w>": 7162,
    "bition</w>": 7163,
    "1934</w>": 7164,
    "beauti": 7165,
    "beautiful</w>": 7166,
    "1955</w>": 7167,
    "epi": 7168,
    "youth</w>": 7169,
    "eyes</w>": 7170,
    "otro": 7171,
    "memo": 7172,
    "spaced</w>": 7173,
    "habitat</w>": 7174,
    "timor</w>": 7175,
    "mature</w>": 7176,
    "receive</w>": 7177,
    "jeff</w>": 7178,
    "controversial</w>": 7179,
    "culmin": 7180,
    "penguins</w>": 7181,
    "tempor": 7182,
    "temporarily</w>": 7183,
    "minnes": 7184,
    "minnesota</w>": 7185,
    "protest</w>": 7186,
    "amaz": 7187,
    "notic": 7188,
    "shots</w>": 7189,
    "gallery</w>": 7190,
    "connects</w>": 7191,
    "ola</w>": 7192,
    "emb": 7193,
    "forti": 7194,
    "roof</w>": 7195,
    "sophi": 7196,
    "papal</w>": 7197,
    "ship": 7198,
    "ric</w>": 7199,
    "brand</w>": 7200,
    "talent</w>": 7201,
    "derly</w>": 7202,
    "newspap": 7203,
    "grounds</w>": 7204,
    "alternative</w>": 7205,
    "georg": 7206,
    "hamas</w>": 7207,
    "richmond</w>": 7208,
    "cot": 7209,
    "anced</w>": 7210,
    "rectang": 7211,
    "rectangular</w>": 7212,
    "narrow</w>": 7213,
    "banded</w>": 7214,
    "waiting</w>": 7215,
    "treat</w>": 7216,
    "resistance</w>": 7217,
    "atives</w>": 7218,
    "thrill": 7219,
    "bollywood</w>": 7220,
    "ethnic</w>": 7221,
    "medium</w>": 7222,
    "inhib": 7223,
    "confi": 7224,
    "violent</w>": 7225,
    "mah": 7226,
    "looks</w>": 7227,
    "ame": 7228,
    "boring</w>": 7229,
    "definition</w>": 7230,
    "rem": 7231,
    "amit": 7232,
    "bachchan</w>": 7233,
    "wedding</w>": 7234,
    "fast</w>": 7235,
    "ceremon": 7236,
    "celebrity</w>": 7237,
    "appoint": 7238,
    "lum": 7239,
    "realized</w>": 7240,
    "recognition</w>": 7241,
    "battleship</w>": 7242,
    "karl</w>": 7243,
    "bombard": 7244,
    "bombardment</w>": 7245,
    "ancon": 7246,
    "ancona</w>": 7247,
    "twelve</w>": 7248,
    "tubes</w>": 7249,
    "goddesses</w>": 7250,
    "shrines</w>": 7251,
    "references</w>": 7252,
    "like": 7253,
    "dynastic</w>": 7254,
    "clear": 7255,
    "regions</w>": 7256,
    "vener": 7257,
    "universal</w>": 7258,
    "constantly</w>": 7259,
    "boun": 7260,
    "archy</w>": 7261,
    "imag": 7262,
    "osiris</w>": 7263,
    "linked</w>": 7264,
    "statues</w>": 7265,
    "refer</w>": 7266,
    "herent</w>": 7267,
    "manife": 7268,
    "clothes</w>": 7269,
    "acle</w>": 7270,
    "fund</w>": 7271,
    "apparent</w>": 7272,
    "dency</w>": 7273,
    "wallis</w>": 7274,
    "ptions</w>": 7275,
    "materials</w>": 7276,
    "flesh</w>": 7277,
    "symb": 7278,
    "identity</w>": 7279,
    "headed</w>": 7280,
    "yellow</w>": 7281,
    "ruled</w>": 7282,
    "intell": 7283,
    "emper": 7284,
    "mandatory</w>": 7285,
    "discussed</w>": 7286,
    "whatever</w>": 7287,
    "feels</w>": 7288,
    "aya</w>": 7289,
    "rower</w>": 7290,
    "tro</w>": 7291,
    "finnish</w>": 7292,
    "thinking</w>": 7293,
    "seriously</w>": 7294,
    "aerial</w>": 7295,
    "annually</w>": 7296,
    "helic": 7297,
    "helicop": 7298,
    "farm</w>": 7299,
    "obj": 7300,
    "regarding</w>": 7301,
    "mail</w>": 7302,
    "hang</w>": 7303,
    "parties</w>": 7304,
    "busin": 7305,
    "althy</w>": 7306,
    "hunter</w>": 7307,
    "eria</w>": 7308,
    "require": 7309,
    "segment</w>": 7310,
    "specifically</w>": 7311,
    "formally</w>": 7312,
    "bure": 7313,
    "expensive</w>": 7314,
    "accid": 7315,
    "claiming</w>": 7316,
    "err": 7317,
    "hundre": 7318,
    "wich</w>": 7319,
    "alleged</w>": 7320,
    "theastern</w>": 7321,
    "civilians</w>": 7322,
    "dur": 7323,
    "strategy</w>": 7324,
    "fruitbodies</w>": 7325,
    "burned</w>": 7326,
    "stim": 7327,
    "stands</w>": 7328,
    "kay</w>": 7329,
    "coined</w>": 7330,
    "eliminate</w>": 7331,
    "surviving</w>": 7332,
    "detailed</w>": 7333,
    "deprec": 7334,
    "facility</w>": 7335,
    "seeking</w>": 7336,
    "corey</w>": 7337,
    "chay": 7338,
    "chaykov": 7339,
    "chaykovsky</w>": 7340,
    "products</w>": 7341,
    "cataly": 7342,
    "chlor": 7343,
    "failing</w>": 7344,
    "fled</w>": 7345,
    "executed</w>": 7346,
    "hero</w>": 7347,
    "resignation</w>": 7348,
    "cabinet</w>": 7349,
    "caribbe": 7350,
    "caribbean</w>": 7351,
    "comments</w>": 7352,
    "frequent</w>": 7353,
    "ustin</w>": 7354,
    "aining</w>": 7355,
    "involvement</w>": 7356,
    "finding</w>": 7357,
    "emotional</w>": 7358,
    "politic": 7359,
    "ners</w>": 7360,
    "historians</w>": 7361,
    "plagi": 7362,
    "holl": 7363,
    "kilome": 7364,
    "wave</w>": 7365,
    "showed</w>": 7366,
    "rings</w>": 7367,
    "searching</w>": 7368,
    "administr": 7369,
    "campaig": 7370,
    "dil": 7371,
    "wast": 7372,
    "republican</w>": 7373,
    "trust</w>": 7374,
    "ier": 7375,
    "stam": 7376,
    "editor</w>": 7377,
    "longest</w>": 7378,
    "premiered</w>": 7379,
    "pregnant</w>": 7380,
    "worthy</w>": 7381,
    "ester</w>": 7382,
    "indeed</w>": 7383,
    "goods</w>": 7384,
    "09</w>": 7385,
    "mound</w>": 7386,
    "columns</w>": 7387,
    "yog": 7388,
    "vana</w>": 7389,
    "address</w>": 7390,
    "compil": 7391,
    "fresh</w>": 7392,
    "mates</w>": 7393,
    "credits</w>": 7394,
    "therea": 7395,
    "thereafter</w>": 7396,
    "interviews</w>": 7397,
    "finland</w>": 7398,
    "fies</w>": 7399,
    "remixed</w>": 7400,
    "confis": 7401,
    "confisc": 7402,
    "mayor</w>": 7403,
    "industries</w>": 7404,
    "conduct</w>": 7405,
    "illance</w>": 7406,
    "opposing</w>": 7407,
    "emily</w>": 7408,
    "candidates</w>": 7409,
    "jeff": 7410,
    "olym": 7411,
    "dd": 7412,
    "juni": 7413,
    "junior</w>": 7414,
    "averaged</w>": 7415,
    "controvers": 7416,
    "controversy</w>": 7417,
    "buc": 7418,
    "thomp": 7419,
    "thompson</w>": 7420,
    "soviets</w>": 7421,
    "hans</w>": 7422,
    "educational</w>": 7423,
    "icz</w>": 7424,
    "portrayed</w>": 7425,
    "versed</w>": 7426,
    "kö": 7427,
    "outh</w>": 7428,
    "convoy</w>": 7429,
    "kent</w>": 7430,
    "coty</w>": 7431,
    "folklor": 7432,
    "method": 7433,
    "partial</w>": 7434,
    "southwest</w>": 7435,
    "eleven</w>": 7436,
    "essive</w>": 7437,
    "listen": 7438,
    "marking</w>": 7439,
    "platinum</w>": 7440,
    "normal": 7441,
    "extrem": 7442,
    "extremely</w>": 7443,
    "bang": 7444,
    "township</w>": 7445,
    "surgery</w>": 7446,
    "petro": 7447,
    "vau": 7448,
    "vaudev": 7449,
    "arab</w>": 7450,
    "sailing</w>": 7451,
    "promiscuous</w>": 7452,
    "sunday</w>": 7453,
    "alan</w>": 7454,
    "allo": 7455,
    "bened": 7456,
    "volun": 7457,
    "sis</w>": 7458,
    "wrong</w>": 7459,
    "condem": 7460,
    "1877</w>": 7461,
    "zealand</w>": 7462,
    "drun": 7463,
    "timate</w>": 7464,
    "champ": 7465,
    "gama</w>": 7466,
    "spoiled</w>": 7467,
    "pam</w>": 7468,
    "chapat</w>": 7469,
    "crex</w>": 7470,
    "winter": 7471,
    "uyghur</w>": 7472,
    "faculty</w>": 7473,
    "depaul</w>": 7474,
    "virt": 7475,
    "virtue</w>": 7476,
    "mutinus</w>": 7477,
    "theore": 7478,
    "wheelchair</w>": 7479,
    "funk</w>": 7480,
    "shaol": 7481,
    "shaolin</w>": 7482,
    "eng</w>": 7483,
    "1759</w>": 7484,
    "typewriter</w>": 7485,
    "punc": 7486,
    "punctu": 7487,
    "punctuation</w>": 7488,
    "bx": 7489,
    "defences</w>": 7490,
    "b5</w>": 7491,
    "kauffman</w>": 7492,
    "hospitaller</w>": 7493,
    "hospitall": 7494,
    "hospitallers</w>": 7495,
    "homs</w>": 7496,
    "chasuble</w>": 7497,
    "gameplay</w>": 7498,
    "sung</w>": 7499,
    "translation</w>": 7500,
    "ira</w>": 7501,
    "animated</w>": 7502,
    "iced</w>": 7503,
    "perspec": 7504,
    "altered</w>": 7505,
    "learn</w>": 7506,
    "link</w>": 7507,
    "distributed</w>": 7508,
    "task</w>": 7509,
    "enemies</w>": 7510,
    "kaz": 7511,
    "yam": 7512,
    "compon": 7513,
    "oh": 7514,
    "chos": 7515,
    "ycl": 7516,
    "putting</w>": 7517,
    "feeling</w>": 7518,
    "closure</w>": 7519,
    "removal</w>": 7520,
    "legacy</w>": 7521,
    "vehicles</w>": 7522,
    "illustrated</w>": 7523,
    "install": 7524,
    "vised</w>": 7525,
    "wait</w>": 7526,
    "rumors</w>": 7527,
    "span</w>": 7528,
    "supposed</w>": 7529,
    "believing</w>": 7530,
    "civilian</w>": 7531,
    "surrender</w>": 7532,
    "emergency</w>": 7533,
    "crisis</w>": 7534,
    "repairs</w>": 7535,
    "percussion</w>": 7536,
    "prise</w>": 7537,
    "illustr": 7538,
    "repair</w>": 7539,
    "dunn": 7540,
    "vol</w>": 7541,
    "sanford</w>": 7542,
    "96</w>": 7543,
    "pist": 7544,
    "obe": 7545,
    "1874</w>": 7546,
    "barr": 7547,
    "closing</w>": 7548,
    "fair</w>": 7549,
    "conclusion</w>": 7550,
    "fifty</w>": 7551,
    "veter": 7552,
    "gather": 7553,
    "1912</w>": 7554,
    "exists</w>": 7555,
    "merged</w>": 7556,
    "courses</w>": 7557,
    "doro": 7558,
    "colour</w>": 7559,
    "principal</w>": 7560,
    "freedom</w>": 7561,
    "household</w>": 7562,
    "paint": 7563,
    "paintings</w>": 7564,
    "pill": 7565,
    "doubt</w>": 7566,
    "collaborated</w>": 7567,
    "natur": 7568,
    "jones</w>": 7569,
    "sored</w>": 7570,
    "1928</w>": 7571,
    "mr</w>": 7572,
    "1921</w>": 7573,
    "stev": 7574,
    "printed</w>": 7575,
    "way": 7576,
    "cherry</w>": 7577,
    "faces</w>": 7578,
    "bai": 7579,
    "pool</w>": 7580,
    "qualified</w>": 7581,
    "alities</w>": 7582,
    "habitats</w>": 7583,
    "bands</w>": 7584,
    "poss": 7585,
    "lesser</w>": 7586,
    "acles</w>": 7587,
    "pel": 7588,
    "bry": 7589,
    "measure</w>": 7590,
    "requested</w>": 7591,
    "65</w>": 7592,
    "stro": 7593,
    "signing</w>": 7594,
    "senators</w>": 7595,
    "ring": 7596,
    "moore</w>": 7597,
    "hire</w>": 7598,
    "frame</w>": 7599,
    "breaking</w>": 7600,
    "ré": 7601,
    "picked</w>": 7602,
    "sitting</w>": 7603,
    "arena</w>": 7604,
    "insurance</w>": 7605,
    "iring</w>": 7606,
    "bringing</w>": 7607,
    "proceeded</w>": 7608,
    "listing</w>": 7609,
    "astronom": 7610,
    "teamm": 7611,
    "restricted</w>": 7612,
    "vatican</w>": 7613,
    "reform</w>": 7614,
    "stages</w>": 7615,
    "dial</w>": 7616,
    "courty": 7617,
    "circular</w>": 7618,
    "17th</w>": 7619,
    "apart</w>": 7620,
    "rooms</w>": 7621,
    "fresc": 7622,
    "sweden</w>": 7623,
    "ographer</w>": 7624,
    "columbia</w>": 7625,
    "dresses</w>": 7626,
    "nered</w>": 7627,
    "cad": 7628,
    "key": 7629,
    "rhythm</w>": 7630,
    "cd</w>": 7631,
    "highligh": 7632,
    "aim</w>": 7633,
    "gang</w>": 7634,
    "newspapers</w>": 7635,
    "dge": 7636,
    "intersec": 7637,
    "visible</w>": 7638,
    "casem": 7639,
    "fingal</w>": 7640,
    "aground</w>": 7641,
    "deployed</w>": 7642,
    "tman</w>": 7643,
    "gow</w>": 7644,
    "hut": 7645,
    "embarked</w>": 7646,
    "join</w>": 7647,
    "oak</w>": 7648,
    "pine</w>": 7649,
    "pounds</w>": 7650,
    "weight</w>": 7651,
    "heat</w>": 7652,
    "prevented</w>": 7653,
    "rising</w>": 7654,
    "conce": 7655,
    "81</w>": 7656,
    "pene": 7657,
    "fragments</w>": 7658,
    "disabled</w>": 7659,
    "easily</w>": 7660,
    "amid": 7661,
    "defend</w>": 7662,
    "sam</w>": 7663,
    "delivered</w>": 7664,
    "cape</w>": 7665,
    "nomination</w>": 7666,
    "thi</w>": 7667,
    "thu": 7668,
    "fail": 7669,
    "fiction</w>": 7670,
    "turning</w>": 7671,
    "confused</w>": 7672,
    "romance</w>": 7673,
    "₹</w>": 7674,
    "rob": 7675,
    "pret": 7676,
    "tia</w>": 7677,
    "thew</w>": 7678,
    "tiger</w>": 7679,
    "advoc": 7680,
    "wore</w>": 7681,
    "stead": 7682,
    "za": 7683,
    "comeback</w>": 7684,
    "anni": 7685,
    "lem": 7686,
    "leadership</w>": 7687,
    "93</w>": 7688,
    "sympt": 7689,
    "symptoms</w>": 7690,
    "spot</w>": 7691,
    "clev": 7692,
    "cleveland</w>": 7693,
    "tland</w>": 7694,
    "raise</w>": 7695,
    "indis": 7696,
    "agement</w>": 7697,
    "succeeded</w>": 7698,
    "myths</w>": 7699,
    "inations</w>": 7700,
    "fundamental</w>": 7701,
    "estimates</w>": 7702,
    "seated</w>": 7703,
    "devo": 7704,
    "prehistoric</w>": 7705,
    "artwork</w>": 7706,
    "icon": 7707,
    "rulers</w>": 7708,
    "aths</w>": 7709,
    "priests</w>": 7710,
    "hostile</w>": 7711,
    "aggressive</w>": 7712,
    "elabor": 7713,
    "journey</w>": 7714,
    "cure</w>": 7715,
    "integ": 7716,
    "rous</w>": 7717,
    "scent</w>": 7718,
    "dog</w>": 7719,
    "horn</w>": 7720,
    "intermediate</w>": 7721,
    "shir": 7722,
    "presentation</w>": 7723,
    "isolated</w>": 7724,
    "pure</w>": 7725,
    "decisions</w>": 7726,
    "mention</w>": 7727,
    "pet": 7728,
    "christians</w>": 7729,
    "jam</w>": 7730,
    "ona</w>": 7731,
    "zil": 7732,
    "sounding</w>": 7733,
    "hard": 7734,
    "commenting</w>": 7735,
    "registered</w>": 7736,
    "introduction</w>": 7737,
    "motor": 7738,
    "employe": 7739,
    "exhibits</w>": 7740,
    "actual</w>": 7741,
    "crit": 7742,
    "legislation</w>": 7743,
    "operational</w>": 7744,
    "users</w>": 7745,
    "mixing</w>": 7746,
    "concentration</w>": 7747,
    "famili": 7748,
    "abroad</w>": 7749,
    "firing</w>": 7750,
    "accompanied</w>": 7751,
    "destroyers</w>": 7752,
    "ags</w>": 7753,
    "bearing</w>": 7754,
    "ulate</w>": 7755,
    "moderate</w>": 7756,
    "denomination</w>": 7757,
    "christopher</w>": 7758,
    "persu": 7759,
    "calls</w>": 7760,
    "proposal</w>": 7761,
    "massach": 7762,
    "massachus": 7763,
    "massachuset": 7764,
    "massachusetts</w>": 7765,
    "dson</w>": 7766,
    "warned</w>": 7767,
    "locally</w>": 7768,
    "trouble</w>": 7769,
    "susp": 7770,
    "sumption</w>": 7771,
    "dehy": 7772,
    "membered</w>": 7773,
    "oselec": 7774,
    "stere": 7775,
    "enanti": 7776,
    "arsenic</w>": 7777,
    "tivity</w>": 7778,
    "application</w>": 7779,
    "variations</w>": 7780,
    "exo": 7781,
    "resigned</w>": 7782,
    "mate</w>": 7783,
    "reconc": 7784,
    "iliation</w>": 7785,
    "lau": 7786,
    "strand</w>": 7787,
    "conspir": 7788,
    "corruption</w>": 7789,
    "lyn": 7790,
    "explaining</w>": 7791,
    "junc": 7792,
    "unsuccessful</w>": 7793,
    "enzo</w>": 7794,
    "personality</w>": 7795,
    "regard</w>": 7796,
    "plagiar": 7797,
    "dipl": 7798,
    "chelor</w>": 7799,
    "ridge</w>": 7800,
    "bush</w>": 7801,
    "eith</w>": 7802,
    "companion</w>": 7803,
    "replacing</w>": 7804,
    "kit": 7805,
    "mitchell</w>": 7806,
    "impression</w>": 7807,
    "1949</w>": 7808,
    "sarah</w>": 7809,
    "update</w>": 7810,
    "net": 7811,
    "virgin": 7812,
    "virginia</w>": 7813,
    "approached</w>": 7814,
    "denn": 7815,
    "krak": 7816,
    "intenti": 7817,
    "jenni": 7818,
    "jennifer</w>": 7819,
    "jean</w>": 7820,
    "tape</w>": 7821,
    "idity</w>": 7822,
    "chro": 7823,
    "heroes</w>": 7824,
    "murti</w>": 7825,
    "numbered</w>": 7826,
    "carving</w>": 7827,
    "covering</w>": 7828,
    "rivers</w>": 7829,
    "moon</w>": 7830,
    "eze</w>": 7831,
    "measures</w>": 7832,
    "teen": 7833,
    "accomplished</w>": 7834,
    "proli": 7835,
    "drinking</w>": 7836,
    "casualties</w>": 7837,
    "peaking</w>": 7838,
    "reconstruction</w>": 7839,
    "confiscated</w>": 7840,
    "photographs</w>": 7841,
    "semi": 7842,
    "communist</w>": 7843,
    "1980</w>": 7844,
    "nova</w>": 7845,
    "metropol": 7846,
    "else": 7847,
    "journalist</w>": 7848,
    "nets</w>": 7849,
    "averaging</w>": 7850,
    "bounds</w>": 7851,
    "block</w>": 7852,
    "establishing</w>": 7853,
    "waves</w>": 7854,
    "dominated</w>": 7855,
    "defender</w>": 7856,
    "bobby</w>": 7857,
    "nett</w>": 7858,
    "ois</w>": 7859,
    "survival</w>": 7860,
    "intellec": 7861,
    "forb": 7862,
    "pupil": 7863,
    "pupils</w>": 7864,
    "sy</w>": 7865,
    "reversed</w>": 7866,
    "print</w>": 7867,
    "wo": 7868,
    "atomic</w>": 7869,
    "sser</w>": 7870,
    "belt</w>": 7871,
    "baltic</w>": 7872,
    "scheer</w>": 7873,
    "beds</w>": 7874,
    "anglo</w>": 7875,
    "krasnyi</w>": 7876,
    "ink": 7877,
    "1967</w>": 7878,
    "mtv</w>": 7879,
    "dharm": 7880,
    "encycl": 7881,
    "telecom</w>": 7882,
    "depu": 7883,
    "deputy</w>": 7884,
    "racy</w>": 7885,
    "terminal</w>": 7886,
    "strach": 7887,
    "gray</w>": 7888,
    "f2</w>": 7889,
    "welsh</w>": 7890,
    "settlements</w>": 7891,
    "mainland</w>": 7892,
    "margin</w>": 7893,
    "gleba</w>": 7894,
    "bio": 7895,
    "chances</w>": 7896,
    "nha</w>": 7897,
    "champion</w>": 7898,
    "rectory</w>": 7899,
    "wiscon": 7900,
    "wisconsin</w>": 7901,
    "vasco</w>": 7902,
    "serial</w>": 7903,
    "hurt</w>": 7904,
    "glee</w>": 7905,
    "wintering</w>": 7906,
    "asts</w>": 7907,
    "cytogenetics</w>": 7908,
    "clave</w>": 7909,
    "census</w>": 7910,
    "raymond</w>": 7911,
    "slave</w>": 7912,
    "cox</w>": 7913,
    "tity</w>": 7914,
    "1766</w>": 7915,
    "audiob": 7916,
    "adorj": 7917,
    "adorján</w>": 7918,
    "pagodas</w>": 7919,
    "lit</w>": 7920,
    "tactical</w>": 7921,
    "parall": 7922,
    "retained</w>": 7923,
    "underwent</w>": 7924,
    "ries</w>": 7925,
    "depending</w>": 7926,
    "occurs</w>": 7927,
    "completion</w>": 7928,
    "ocked</w>": 7929,
    "skill</w>": 7930,
    "weapon</w>": 7931,
    "militi": 7932,
    "cell": 7933,
    "ranks</w>": 7934,
    "attached</w>": 7935,
    "arrest</w>": 7936,
    "asking</w>": 7937,
    "begin</w>": 7938,
    "trial</w>": 7939,
    "som": 7940,
    "improv": 7941,
    "improvements</w>": 7942,
    "maintaining</w>": 7943,
    "detail</w>": 7944,
    "price</w>": 7945,
    "chosen</w>": 7946,
    "topped</w>": 7947,
    "multi</w>": 7948,
    "adaptations</w>": 7949,
    "vals</w>": 7950,
    "usa</w>": 7951,
    "antiqu": 7952,
    "1894</w>": 7953,
    "exter": 7954,
    "simple</w>": 7955,
    "determine</w>": 7956,
    "dispat": 7957,
    "telegraph</w>": 7958,
    "rel</w>": 7959,
    "substantial</w>": 7960,
    "cavalry</w>": 7961,
    "1863</w>": 7962,
    "tools</w>": 7963,
    "engage</w>": 7964,
    "returns</w>": 7965,
    "renov": 7966,
    "basement</w>": 7967,
    "northwest</w>": 7968,
    "displayed</w>": 7969,
    "meet": 7970,
    "meetings</w>": 7971,
    "thro": 7972,
    "dorothy</w>": 7973,
    "edm": 7974,
    "edmund</w>": 7975,
    "artis": 7976,
    "autum": 7977,
    "autumn</w>": 7978,
    "thum": 7979,
    "youngest</w>": 7980,
    "elder</w>": 7981,
    "1908</w>": 7982,
    "1940s</w>": 7983,
    "publishers</w>": 7984,
    "attend</w>": 7985,
    "margar": 7986,
    "margaret</w>": 7987,
    "ashes</w>": 7988,
    "properties</w>": 7989,
    "1953</w>": 7990,
    "hibition</w>": 7991,
    "1933</w>": 7992,
    "feeding</w>": 7993,
    "sacram": 7994,
    "preservation</w>": 7995,
    "bet</w>": 7996,
    "tering</w>": 7997,
    "fifa</w>": 7998,
    "1968</w>": 7999,
    "shallow</w>": 8000,
    "soft</w>": 8001,
    "research": 8002,
    "otype</w>": 8003,
    "blu": 8004,
    "ender</w>": 8005,
    "fold</w>": 8006,
    "apar": 8007,
    "amphi": 8008,
    "consu": 8009,
    "icate</w>": 8010,
    "ilers</w>": 8011,
    "nik": 8012,
    "otta": 8013,
    "mason</w>": 8014,
    "string</w>": 8015,
    "allen</w>": 8016,
    "chal": 8017,
    "clubs</w>": 8018,
    "hitch": 8019,
    "vancou": 8020,
    "vancouver</w>": 8021,
    "pointing</w>": 8022,
    "vote</w>": 8023,
    "lom": 8024,
    "deliber": 8025,
    "investigation</w>": 8026,
    "talking</w>": 8027,
    "color": 8028,
    "earn</w>": 8029,
    "fting</w>": 8030,
    "indicates</w>": 8031,
    "plus</w>": 8032,
    "drove</w>": 8033,
    "villa</w>": 8034,
    "apostol": 8035,
    "gated</w>": 8036,
    "ify</w>": 8037,
    "thematic": 8038,
    "approval</w>": 8039,
    "implem": 8040,
    "dul": 8041,
    "program": 8042,
    "nh": 8043,
    "1905</w>": 8044,
    "83</w>": 8045,
    "rep": 8046,
    "thi": 8047,
    "tioning</w>": 8048,
    "fra": 8049,
    "boards</w>": 8050,
    "memorable</w>": 8051,
    "elderly</w>": 8052,
    "calculated</w>": 8053,
    "uss</w>": 8054,
    "confederacy</w>": 8055,
    "georgia</w>": 8056,
    "reserve</w>": 8057,
    "glas": 8058,
    "glasgow</w>": 8059,
    "beam</w>": 8060,
    "slow": 8061,
    "nel": 8062,
    "displaced</w>": 8063,
    "layers</w>": 8064,
    "08</w>": 8065,
    "pound</w>": 8066,
    "pole</w>": 8067,
    "satisfied</w>": 8068,
    "aboard</w>": 8069,
    "penetr": 8070,
    "dah": 8071,
    "badly</w>": 8072,
    "sailed</w>": 8073,
    "chester</w>": 8074,
    "trium": 8075,
    "jacqu": 8076,
    "psych": 8077,
    "actresses</w>": 8078,
    "kim</w>": 8079,
    "unrest</w>": 8080,
    "tant</w>": 8081,
    "hai</w>": 8082,
    "ranging</w>": 8083,
    "kum": 8084,
    "kumar</w>": 8085,
    "gross</w>": 8086,
    "filmma": 8087,
    "departure</w>": 8088,
    "bond</w>": 8089,
    "mits</w>": 8090,
    "mutual</w>": 8091,
    "munic": 8092,
    "municip": 8093,
    "helps</w>": 8094,
    "victim": 8095,
    "victims</w>": 8096,
    "ranking</w>": 8097,
    "fourteenth</w>": 8098,
    "scorer</w>": 8099,
    "diagnosed</w>": 8100,
    "brian</w>": 8101,
    "prefer": 8102,
    "gat": 8103,
    "appointment</w>": 8104,
    "eted</w>": 8105,
    "loud</w>": 8106,
    "“</w>": 8107,
    "kenne": 8108,
    "lis": 8109,
    "1902</w>": 8110,
    "triple</w>": 8111,
    "signal</w>": 8112,
    "74</w>": 8113,
    "aimed</w>": 8114,
    "restoration</w>": 8115,
    "shipped</w>": 8116,
    "allu": 8117,
    "theistic</w>": 8118,
    "relations</w>": 8119,
    "sugges": 8120,
    "hierog": 8121,
    "perfec": 8122,
    "myth</w>": 8123,
    "resemble</w>": 8124,
    "itive</w>": 8125,
    "deaths</w>": 8126,
    "absorbed</w>": 8127,
    "elite</w>": 8128,
    "chaos</w>": 8129,
    "patron</w>": 8130,
    "disru": 8131,
    "succession</w>": 8132,
    "contain</w>": 8133,
    "motiv": 8134,
    "battles</w>": 8135,
    "grow</w>": 8136,
    "dden</w>": 8137,
    "conve": 8138,
    "reveals</w>": 8139,
    "ector</w>": 8140,
    "product</w>": 8141,
    "fu</w>": 8142,
    "acknowle": 8143,
    "mont": 8144,
    "1971</w>": 8145,
    "dismissed</w>": 8146,
    "soil</w>": 8147,
    "statue</w>": 8148,
    "commands</w>": 8149,
    "rebellion</w>": 8150,
    "philos": 8151,
    "stery</w>": 8152,
    "drum": 8153,
    "essing</w>": 8154,
    "howard</w>": 8155,
    "posing</w>": 8156,
    "matt</w>": 8157,
    "rolling</w>": 8158,
    "bath</w>": 8159,
    "tribute</w>": 8160,
    "ismo</w>": 8161,
    "breed</w>": 8162,
    "orthodo": 8163,
    "replied</w>": 8164,
    "defined</w>": 8165,
    "vint": 8166,
    "vintage</w>": 8167,
    "glider</w>": 8168,
    "patro": 8169,
    "infra": 8170,
    "infrastructure</w>": 8171,
    "1956</w>": 8172,
    "involves</w>": 8173,
    "drag": 8174,
    "races</w>": 8175,
    "criteria</w>": 8176,
    "licensed</w>": 8177,
    "excep": 8178,
    "weak": 8179,
    "hundreds</w>": 8180,
    "smar": 8181,
    "wars</w>": 8182,
    "hms</w>": 8183,
    "geop": 8184,
    "geopy": 8185,
    "geopyx": 8186,
    "geopyxis</w>": 8187,
    "var</w>": 8188,
    "distinctive</w>": 8189,
    "irregular</w>": 8190,
    "dens": 8191,
    "ale": 8192,
    "by": 8193,
    "colleagues</w>": 8194,
    "engra": 8195,
    "mckay</w>": 8196,
    "renewed</w>": 8197,
    "discussion</w>": 8198,
    "annular</w>": 8199,
    "senate</w>": 8200,
    "franklin</w>": 8201,
    "salt</w>": 8202,
    "dub": 8203,
    "borne</w>": 8204,
    "snow": 8205,
    "concerning</w>": 8206,
    "trivial</w>": 8207,
    "olition</w>": 8208,
    "tiny</w>": 8209,
    "poll": 8210,
    "epo": 8211,
    "epox": 8212,
    "reactions</w>": 8213,
    "stronger</w>": 8214,
    "depends</w>": 8215,
    "reagent</w>": 8216,
    "onium</w>": 8217,
    "preferred</w>": 8218,
    "classical</w>": 8219,
    "drug</w>": 8220,
    "breaks</w>": 8221,
    "supporters</w>": 8222,
    "escaped</w>": 8223,
    "blown</w>": 8224,
    "tla</w>": 8225,
    "opponents</w>": 8226,
    "affairs</w>": 8227,
    "remove</w>": 8228,
    "ongoing</w>": 8229,
    "tful</w>": 8230,
    "ashed</w>": 8231,
    "instrumental</w>": 8232,
    "math</w>": 8233,
    "unt</w>": 8234,
    "alls</w>": 8235,
    "novels</w>": 8236,
    "twenti": 8237,
    "policies</w>": 8238,
    "pup": 8239,
    "ulted</w>": 8240,
    "sleep</w>": 8241,
    "rowing</w>": 8242,
    "innocent</w>": 8243,
    "owns</w>": 8244,
    "lorenzo</w>": 8245,
    "tested</w>": 8246,
    "kid": 8247,
    "reflected</w>": 8248,
    "recon": 8249,
    "spirit": 8250,
    "spiritual</w>": 8251,
    "sees</w>": 8252,
    "internal</w>": 8253,
    "pressive</w>": 8254,
    "agrees</w>": 8255,
    "miller</w>": 8256,
    "jona": 8257,
    "jonathan</w>": 8258,
    "plagiarism</w>": 8259,
    "diplom": 8260,
    "expeditions</w>": 8261,
    "rf": 8262,
    "defending</w>": 8263,
    "bombers</w>": 8264,
    "nickname</w>": 8265,
    "crash</w>": 8266,
    "kilometres</w>": 8267,
    "ued</w>": 8268,
    "knight</w>": 8269,
    "considering</w>": 8270,
    "disaster</w>": 8271,
    "therine</w>": 8272,
    "strained</w>": 8273,
    "1951</w>": 8274,
    "hotel</w>": 8275,
    "acclaim</w>": 8276,
    "ece</w>": 8277,
    "rants</w>": 8278,
    "hurst</w>": 8279,
    "sully</w>": 8280,
    "jim": 8281,
    "times": 8282,
    "jane</w>": 8283,
    "theaters</w>": 8284,
    "watched</w>": 8285,
    "brilliant</w>": 8286,
    "judge</w>": 8287,
    "tradem": 8288,
    "forcing</w>": 8289,
    "tos</w>": 8290,
    "planet</w>": 8291,
    "massive</w>": 8292,
    "orb": 8293,
    "detected</w>": 8294,
    "harbour</w>": 8295,
    "sq</w>": 8296,
    "trimurti</w>": 8297,
    "showing</w>": 8298,
    "subsi": 8299,
    "ravana</w>": 8300,
    "keepers</w>": 8301,
    "shoulder</w>": 8302,
    "frieze</w>": 8303,
    "tourist</w>": 8304,
    "presents</w>": 8305,
    "vai</w>": 8306,
    "disbanded</w>": 8307,
    "spector</w>": 8308,
    "mainst": 8309,
    "pushing</w>": 8310,
    "zilto": 8311,
    "ziltoid</w>": 8312,
    "smo": 8313,
    "drugs</w>": 8314,
    "camps</w>": 8315,
    "photograph": 8316,
    "nik</w>": 8317,
    "rub": 8318,
    "tenth</w>": 8319,
    "barrier</w>": 8320,
    "gusts</w>": 8321,
    "devast": 8322,
    "surveillance</w>": 8323,
    "exac": 8324,
    "trinsey</w>": 8325,
    "constitutional</w>": 8326,
    "1963</w>": 8327,
    "cats</w>": 8328,
    "jump</w>": 8329,
    "kley</w>": 8330,
    "brad": 8331,
    "cbs</w>": 8332,
    "gham</w>": 8333,
    "niel": 8334,
    "nielsen</w>": 8335,
    "defenders</w>": 8336,
    "profit</w>": 8337,
    "studying</w>": 8338,
    "nazis</w>": 8339,
    "forbid": 8340,
    "forbidden</w>": 8341,
    "ki": 8342,
    "zation</w>": 8343,
    "fred</w>": 8344,
    "arihant</w>": 8345,
    "missiles</w>": 8346,
    "1974</w>": 8347,
    "05</w>": 8348,
    "folklore</w>": 8349,
    "thames</w>": 8350,
    "megalithic</w>": 8351,
    "scand": 8352,
    "belonging</w>": 8353,
    "values</w>": 8354,
    "antiquaries</w>": 8355,
    "pitt</w>": 8356,
    "kav": 8357,
    "crossing</w>": 8358,
    "listeners</w>": 8359,
    "rca</w>": 8360,
    "bells</w>": 8361,
    "melody</w>": 8362,
    "hay": 8363,
    "charted</w>": 8364,
    "convection</w>": 8365,
    "restore</w>": 8366,
    "hindi": 8367,
    "hindi</w>": 8368,
    "dharmend": 8369,
    "dharmendra</w>": 8370,
    "aco": 8371,
    "aka</w>": 8372,
    "gian</w>": 8373,
    "lob": 8374,
    "logs</w>": 8375,
    "baht</w>": 8376,
    "cns</w>": 8377,
    "sonthi</w>": 8378,
    "ocracy</w>": 8379,
    "exerc": 8380,
    "teleph": 8381,
    "bangko": 8382,
    "bangkok</w>": 8383,
    "gramm": 8384,
    "reagan</w>": 8385,
    "fab</w>": 8386,
    "vaudeville</w>": 8387,
    "nichol": 8388,
    "flame</w>": 8389,
    "gers</w>": 8390,
    "telli": 8391,
    "mysore</w>": 8392,
    "cornwallis</w>": 8393,
    "strachan</w>": 8394,
    "mane": 8395,
    "maneater</w>": 8396,
    "bds</w>": 8397,
    "jarvis</w>": 8398,
    "clean</w>": 8399,
    "consent</w>": 8400,
    "metallic</w>": 8401,
    "immemorial</w>": 8402,
    "iny</w>": 8403,
    "interpretation</w>": 8404,
    "mechanical</w>": 8405,
    "omal</w>": 8406,
    "honor": 8407,
    "subcontinent</w>": 8408,
    "boom</w>": 8409,
    "aly</w>": 8410,
    "dubious</w>": 8411,
    "lebanon</w>": 8412,
    "joan</w>": 8413,
    "alit": 8414,
    "verte": 8415,
    "ax</w>": 8416,
    "worker</w>": 8417,
    "ean": 8418,
    "boogie</w>": 8419,
    "comedies</w>": 8420,
    "lb</w>": 8421,
    "tigers</w>": 8422,
    "pitched</w>": 8423,
    "soap</w>": 8424,
    "kiss</w>": 8425,
    "rad</w>": 8426,
    "angelo</w>": 8427,
    "abnormal": 8428,
    "abnormalities</w>": 8429,
    "subtypes</w>": 8430,
    "prognosis</w>": 8431,
    "prognostic</w>": 8432,
    "yuan</w>": 8433,
    "vez</w>": 8434,
    "blacks</w>": 8435,
    "justice</w>": 8436,
    "refin": 8437,
    "log</w>": 8438,
    "truc": 8439,
    "matthew</w>": 8440,
    "hale</w>": 8441,
    "chastity</w>": 8442,
    "wig": 8443,
    "wigner</w>": 8444,
    "dand": 8445,
    "terri</w>": 8446,
    "escu</w>": 8447,
    "div</w>": 8448,
    "conclave</w>": 8449,
    "audiobook</w>": 8450,
    "advantages</w>": 8451,
    "d6</w>": 8452,
    "f4</w>": 8453,
    "neutrin": 8454,
    "neutrinos</w>": 8455,
    "crusaders</w>": 8456,
    "battlefield</w>": 8457,
    "playstation</w>": 8458,
    "composer</w>": 8459,
    "compati": 8460,
    "shift</w>": 8461,
    "militia</w>": 8462,
    "abil": 8463,
    "desper": 8464,
    "ilian</w>": 8465,
    "factor</w>": 8466,
    "ading</w>": 8467,
    "none</w>": 8468,
    "platform</w>": 8469,
    "models</w>": 8470,
    "essentially</w>": 8471,
    "fantas": 8472,
    "spi": 8473,
    "limitations</w>": 8474,
    "positively</w>": 8475,
    "balance</w>": 8476,
    "purchase</w>": 8477,
    "principle</w>": 8478,
    "macarthur</w>": 8479,
    "oldest</w>": 8480,
    "vier</w>": 8481,
    "perceived</w>": 8482,
    "skir": 8483,
    "depos": 8484,
    "ultimate</w>": 8485,
    "prompted</w>": 8486,
    "aspect</w>": 8487,
    "delivery</w>": 8488,
    "inaug": 8489,
    "stayed</w>": 8490,
    "m18": 8491,
    "chy</w>": 8492,
    "regiment</w>": 8493,
    "11th</w>": 8494,
    "exha": 8495,
    "cured</w>": 8496,
    "impressed</w>": 8497,
    "borrowed</w>": 8498,
    "lt</w>": 8499,
    "ironclad</w>": 8500,
    "colonel</w>": 8501,
    "cler": 8502,
    "carp": 8503,
    "surrendered</w>": 8504,
    "forever</w>": 8505,
    "ieties</w>": 8506,
    "progress</w>": 8507,
    "onary</w>": 8508,
    "hym": 8509,
    "christ</w>": 8510,
    "kate</w>": 8511,
    "artistic</w>": 8512,
    "afterward</w>": 8513,
    "advertis": 8514,
    "submitted</w>": 8515,
    "1958</w>": 8516,
    "leaves</w>": 8517,
    "york": 8518,
    "yorkshire</w>": 8519,
    "restored</w>": 8520,
    "ds": 8521,
    "book": 8522,
    "bap": 8523,
    "bapti": 8524,
    "disciples</w>": 8525,
    "1932</w>": 8526,
    "thoughts</w>": 8527,
    "shiel": 8528,
    "withdrew</w>": 8529,
    "among": 8530,
    "amongst</w>": 8531,
    "try": 8532,
    "smooth</w>": 8533,
    "entally</w>": 8534,
    "taxonomy</w>": 8535,
    "phy": 8536,
    "angle</w>": 8537,
    "bears</w>": 8538,
    "pairs</w>": 8539,
    "shorter</w>": 8540,
    "inhab": 8541,
    "well": 8542,
    "substrate</w>": 8543,
    "eries</w>": 8544,
    "oming</w>": 8545,
    "expec": 8546,
    "tility</w>": 8547,
    "burgh</w>": 8548,
    "russell</w>": 8549,
    "hitchcock</w>": 8550,
    "coaching</w>": 8551,
    "intention</w>": 8552,
    "deadline</w>": 8553,
    "interim</w>": 8554,
    "consistently</w>": 8555,
    "rook": 8556,
    "rookie</w>": 8557,
    "blo": 8558,
    "ado</w>": 8559,
    "commodore</w>": 8560,
    "replace</w>": 8561,
    "departed</w>": 8562,
    "mathematic": 8563,
    "flanked</w>": 8564,
    "falling</w>": 8565,
    "scription</w>": 8566,
    "ula</w>": 8567,
    "strategic</w>": 8568,
    "locations</w>": 8569,
    "respected</w>": 8570,
    "initiated</w>": 8571,
    "ocks</w>": 8572,
    "bear</w>": 8573,
    "ez</w>": 8574,
    "graphic</w>": 8575,
    "las</w>": 8576,
    "sophistic": 8577,
    "hills</w>": 8578,
    "mari": 8579,
    "garnered</w>": 8580,
    "bian": 8581,
    "mixes</w>": 8582,
    "couldn</w>": 8583,
    "bridge": 8584,
    "streets</w>": 8585,
    "sixteen</w>": 8586,
    "crosses</w>": 8587,
    "1981</w>": 8588,
    "scotland</w>": 8589,
    "vertical</w>": 8590,
    "generated</w>": 8591,
    "passengers</w>": 8592,
    "slowly</w>": 8593,
    "anyone</w>": 8594,
    "endor": 8595,
    "hull</w>": 8596,
    "rails</w>": 8597,
    "110</w>": 8598,
    "virtually</w>": 8599,
    "comfor": 8600,
    "tide</w>": 8601,
    "04</w>": 8602,
    "nave</w>": 8603,
    "thriller</w>": 8604,
    "orous</w>": 8605,
    "kick</w>": 8606,
    "failure</w>": 8607,
    "whil": 8608,
    "whilst</w>": 8609,
    "bh": 8610,
    "fear": 8611,
    "separated</w>": 8612,
    "filming</w>": 8613,
    "causes</w>": 8614,
    "sanctu": 8615,
    "mind</w>": 8616,
    "resta": 8617,
    "restaur": 8618,
    "ambass": 8619,
    "ambassad": 8620,
    "desir": 8621,
    "desirable</w>": 8622,
    "preceding</w>": 8623,
    "lym": 8624,
    "annivers": 8625,
    "superior</w>": 8626,
    "immediate</w>": 8627,
    "illness</w>": 8628,
    "corrid": 8629,
    "austria</w>": 8630,
    "spend</w>": 8631,
    "settled</w>": 8632,
    "sunk</w>": 8633,
    "68</w>": 8634,
    "prop": 8635,
    "breakout</w>": 8636,
    "lighter</w>": 8637,
    "offer": 8638,
    "offerings</w>": 8639,
    "combinations</w>": 8640,
    "diverse</w>": 8641,
    "advice</w>": 8642,
    "traits</w>": 8643,
    "perfectly</w>": 8644,
    "supernatural</w>": 8645,
    "likewise</w>": 8646,
    "crossed</w>": 8647,
    "hypo": 8648,
    "subordin": 8649,
    "coh": 8650,
    "oversaw</w>": 8651,
    "ban</w>": 8652,
    "perception</w>": 8653,
    "disorder</w>": 8654,
    "boundar": 8655,
    "boundaries</w>": 8656,
    "kinson</w>": 8657,
    "transc": 8658,
    "divin": 8659,
    "draws</w>": 8660,
    "harv": 8661,
    "predic": 8662,
    "icity</w>": 8663,
    "preced": 8664,
    "differentiated</w>": 8665,
    "recurring</w>": 8666,
    "dissol": 8667,
    "amid</w>": 8668,
    "epithe": 8669,
    "coff": 8670,
    "refuses</w>": 8671,
    "learning</w>": 8672,
    "nationally</w>": 8673,
    "judg": 8674,
    "vuln": 8675,
    "atically</w>": 8676,
    "complicated</w>": 8677,
    "rev": 8678,
    "arguments</w>": 8679,
    "trend</w>": 8680,
    "dominant</w>": 8681,
    "zu": 8682,
    "likened</w>": 8683,
    "creative</w>": 8684,
    "object</w>": 8685,
    "interven": 8686,
    "righ": 8687,
    "oked</w>": 8688,
    "legen": 8689,
    "distor": 8690,
    "adri": 8691,
    "apoc": 8692,
    "alyp": 8693,
    "allmusic</w>": 8694,
    "distur": 8695,
    "thinks</w>": 8696,
    "silent</w>": 8697,
    "ft": 8698,
    "orthodox</w>": 8699,
    "doz": 8700,
    "rendition</w>": 8701,
    "isn</w>": 8702,
    "worthiness</w>": 8703,
    "1909</w>": 8704,
    "providing</w>": 8705,
    "restrictions</w>": 8706,
    "championships</w>": 8707,
    "accur": 8708,
    "fring": 8709,
    "corresponding</w>": 8710,
    "obtain</w>": 8711,
    "familiar</w>": 8712,
    "drop</w>": 8713,
    "concentrated</w>": 8714,
    "alban": 8715,
    "slav": 8716,
    "illes</w>": 8717,
    "organic</w>": 8718,
    "sta</w>": 8719,
    "1879</w>": 8720,
    "synony": 8721,
    "orange</w>": 8722,
    "sulfur": 8723,
    "sulfur</w>": 8724,
    "burn</w>": 8725,
    "fires</w>": 8726,
    "bureau</w>": 8727,
    "mountains</w>": 8728,
    "liberty</w>": 8729,
    "hudson</w>": 8730,
    "tedly</w>": 8731,
    "sau": 8732,
    "1854</w>": 8733,
    "reducing</w>": 8734,
    "ulties</w>": 8735,
    "1870</w>": 8736,
    "occur</w>": 8737,
    "1878</w>": 8738,
    "propor": 8739,
    "ornam": 8740,
    "variants</w>": 8741,
    "sulfon": 8742,
    "sulfonium</w>": 8743,
    "fluor": 8744,
    "profile</w>": 8745,
    "carbon</w>": 8746,
    "fox": 8747,
    "bases</w>": 8748,
    "yiel": 8749,
    "bic": 8750,
    "rez</w>": 8751,
    "dential</w>": 8752,
    "bent</w>": 8753,
    "exile</w>": 8754,
    "occasions</w>": 8755,
    "encies</w>": 8756,
    "aftermath</w>": 8757,
    "assassins</w>": 8758,
    "machismo</w>": 8759,
    "twentieth</w>": 8760,
    "torture</w>": 8761,
    "ín</w>": 8762,
    "junction</w>": 8763,
    "school": 8764,
    "mere</w>": 8765,
    "sad": 8766,
    "onment</w>": 8767,
    "moments</w>": 8768,
    "compre": 8769,
    "sacri": 8770,
    "1978</w>": 8771,
    "indies</w>": 8772,
    "beth</w>": 8773,
    "keith</w>": 8774,
    "afterwards</w>": 8775,
    "coul": 8776,
    "pir": 8777,
    "vinc": 8778,
    "comedian</w>": 8779,
    "ske": 8780,
    "poeh": 8781,
    "poehler</w>": 8782,
    "lix</w>": 8783,
    "migrants</w>": 8784,
    "michaels</w>": 8785,
    "bright</w>": 8786,
    "dennis</w>": 8787,
    "pitch</w>": 8788,
    "timeslot</w>": 8789,
    "carol</w>": 8790,
    "cha</w>": 8791,
    "strange</w>": 8792,
    "asses</w>": 8793,
    "mediev": 8794,
    "medieval</w>": 8795,
    "chen</w>": 8796,
    "wit</w>": 8797,
    "trademark</w>": 8798,
    "vious</w>": 8799,
    "2000s</w>": 8800,
    "praise</w>": 8801,
    "barbar": 8802,
    "yan</w>": 8803,
    "kail": 8804,
    "kailash</w>": 8805,
    "vish": 8806,
    "vishn": 8807,
    "vishnu</w>": 8808,
    "vara</w>": 8809,
    "cite</w>": 8810,
    "legend</w>": 8811,
    "tourism</w>": 8812,
    "brac": 8813,
    "legs</w>": 8814,
    "linga</w>": 8815,
    "ros": 8816,
    "fast": 8817,
    "consol": 8818,
    "monit": 8819,
    "entitled</w>": 8820,
    "varied</w>": 8821,
    "arrang": 8822,
    "driving</w>": 8823,
    "trick</w>": 8824,
    "scribed</w>": 8825,
    "asing</w>": 8826,
    "sof": 8827,
    "carto": 8828,
    "genres</w>": 8829,
    "williams</w>": 8830,
    "ardo</w>": 8831,
    "funded</w>": 8832,
    "invest": 8833,
    "dat": 8834,
    "targeted</w>": 8835,
    "hoo": 8836,
    "web</w>": 8837,
    "statement</w>": 8838,
    "pla": 8839,
    "tube</w>": 8840,
    "reas": 8841,
    "amendment</w>": 8842,
    "rocke": 8843,
    "torate</w>": 8844,
    "challenged</w>": 8845,
    "explic": 8846,
    "jeffrey</w>": 8847,
    "hornets</w>": 8848,
    "rig": 8849,
    "rebounds</w>": 8850,
    "rp": 8851,
    "blaz": 8852,
    "knicks</w>": 8853,
    "signature</w>": 8854,
    "pics</w>": 8855,
    "pages</w>": 8856,
    "shoes</w>": 8857,
    "strength": 8858,
    "utah</w>": 8859,
    "crowd</w>": 8860,
    "profession": 8861,
    "papers</w>": 8862,
    "seas": 8863,
    "internet</w>": 8864,
    "wealthy</w>": 8865,
    "annex": 8866,
    "annexed</w>": 8867,
    "neutral</w>": 8868,
    "ab</w>": 8869,
    "passages</w>": 8870,
    "yst": 8871,
    "kraków</w>": 8872,
    "ogues</w>": 8873,
    "stanis": 8874,
    "stefan</w>": 8875,
    "ghet": 8876,
    "smu": 8877,
    "congreg": 8878,
    "imier": 8879,
    "imierz</w>": 8880,
    "cz": 8881,
    "kam": 8882,
    "enon</w>": 8883,
    "alfred</w>": 8884,
    "tz</w>": 8885,
    "yn": 8886,
    "construct</w>": 8887,
    "reactors</w>": 8888,
    "unclear</w>": 8889,
    "köni": 8890,
    "könig</w>": 8891,
    "rst</w>": 8892,
    "millimeters</w>": 8893,
    "wilhel": 8894,
    "warships</w>": 8895,
    "spite</w>": 8896,
    "speculated</w>": 8897,
    "ahead</w>": 8898,
    "itted</w>": 8899,
    "combe</w>": 8900,
    "barrows</w>": 8901,
    "potentially</w>": 8902,
    "termed</w>": 8903,
    "ashbee</w>": 8904,
    "elsewhere</w>": 8905,
    "remn": 8906,
    "ographic": 8907,
    "wright</w>": 8908,
    "kavka": 8909,
    "kavkaz</w>": 8910,
    "terial</w>": 8911,
    "dot</w>": 8912,
    "c4</w>": 8913,
    "wilson</w>": 8914,
    "soci": 8915,
    "garage</w>": 8916,
    "rudol": 8917,
    "outages</w>": 8918,
    "atro": 8919,
    "si</w>": 8920,
    "mehboo": 8921,
    "mehbooba</w>": 8922,
    "rosa": 8923,
    "ensuring</w>": 8924,
    "fifteen</w>": 8925,
    "outlaws</w>": 8926,
    "wim": 8927,
    "iconic</w>": 8928,
    "here": 8929,
    "ester": 8930,
    "anupong</w>": 8931,
    "telephone</w>": 8932,
    "tium</w>": 8933,
    "regurg": 8934,
    "interviewed</w>": 8935,
    "tellicherry</w>": 8936,
    "flee": 8937,
    "bowman</w>": 8938,
    "trioxide</w>": 8939,
    "neighb": 8940,
    "characterized</w>": 8941,
    "120": 8942,
    "decay</w>": 8943,
    "cites</w>": 8944,
    "boli": 8945,
    "sins</w>": 8946,
    "ucl</w>": 8947,
    "grammar</w>": 8948,
    "examining</w>": 8949,
    "condemned</w>": 8950,
    "obligation</w>": 8951,
    "ml</w>": 8952,
    "differentiation</w>": 8953,
    "crac": 8954,
    "moralit": 8955,
    "moralitas</w>": 8956,
    "asks</w>": 8957,
    "innings</w>": 8958,
    "1901</w>": 8959,
    "nach": 8960,
    "nachtig": 8961,
    "nachtigall</w>": 8962,
    "livin</w>": 8963,
    "grassland</w>": 8964,
    "eggs</w>": 8965,
    "feral</w>": 8966,
    "ocytic</w>": 8967,
    "remission</w>": 8968,
    "radiation</w>": 8969,
    "leukemias</w>": 8970,
    "clinical</w>": 8971,
    "guang": 8972,
    "iang</w>": 8973,
    "xin": 8974,
    "ál": 8975,
    "parks</w>": 8976,
    "rug": 8977,
    "rugby</w>": 8978,
    "onism</w>": 8979,
    "legitimate</w>": 8980,
    "benedict</w>": 8981,
    "gravity</w>": 8982,
    "speakers</w>": 8983,
    "chapman</w>": 8984,
    "1769</w>": 8985,
    "fire": 8986,
    "wn": 8987,
    "danden": 8988,
    "dandenong</w>": 8989,
    "tacuma</w>": 8990,
    "outlaw</w>": 8991,
    "qing</w>": 8992,
    "bot</w>": 8993,
    "buchar": 8994,
    "bucharest</w>": 8995,
    "ozplo": 8996,
    "ozploitation</w>": 8997,
    "bernis</w>": 8998,
    "typesetting</w>": 8999,
    "fragrance</w>": 9000,
    "pawn</w>": 9001,
    "cx": 9002,
    "e6</w>": 9003,
    "rb": 9004,
    "c6</w>": 9005,
    "cowan</w>": 9006,
    "algy</w>": 9007,
    "pan</w>": 9008,
    "adju": 9009,
    "linear</w>": 9010,
    "maps</w>": 9011,
    "gau": 9012,
    "knocked</w>": 9013,
    "acquire</w>": 9014,
    "temporary</w>": 9015,
    "kurt</w>": 9016,
    "gallian</w>": 9017,
    "revenge</w>": 9018,
    "escorted</w>": 9019,
    "ymous</w>": 9020,
    "shad": 9021,
    "card</w>": 9022,
    "revolutionary</w>": 9023,
    "assess</w>": 9024,
    "synthes": 9025,
    "wish</w>": 9026,
    "su</w>": 9027,
    "demo</w>": 9028,
    "download</w>": 9029,
    "exclusive</w>": 9030,
    "anno": 9031,
    "seemed</w>": 9032,
    "gi</w>": 9033,
    "ayl": 9034,
    "oom</w>": 9035,
    "ami</w>": 9036,
    "decommissi": 9037,
    "æs": 9038,
    "æsthetic</w>": 9039,
    "equate</w>": 9040,
    "onry</w>": 9041,
    "totten</w>": 9042,
    "possession</w>": 9043,
    "cements</w>": 9044,
    "dispatched</w>": 9045,
    "message</w>": 9046,
    "destination</w>": 9047,
    "sic</w>": 9048,
    "authorized</w>": 9049,
    "abra": 9050,
    "placing</w>": 9051,
    "bore</w>": 9052,
    "67</w>": 9053,
    "regiments</w>": 9054,
    "comprising</w>": 9055,
    "documents</w>": 9056,
    "dunnington</w>": 9057,
    "functions</w>": 9058,
    "orian</w>": 9059,
    "summary</w>": 9060,
    "flint</w>": 9061,
    "rounds</w>": 9062,
    "summar": 9063,
    "pace</w>": 9064,
    "1880</w>": 9065,
    "1893</w>": 9066,
    "devoted</w>": 9067,
    "demolished</w>": 9068,
    "106</w>": 9069,
    "preserve</w>": 9070,
    "girl": 9071,
    "theories</w>": 9072,
    "fairy</w>": 9073,
    "posthum": 9074,
    "belonged</w>": 9075,
    "nur": 9076,
    "supervis": 9077,
    "churches</w>": 9078,
    "ram</w>": 9079,
    "modelled</w>": 9080,
    "garden": 9081,
    "gardens</w>": 9082,
    "trun": 9083,
    "focusing</w>": 9084,
    "scattered</w>": 9085,
    "dust</w>": 9086,
    "pover": 9087,
    "poverty</w>": 9088,
    "simon</w>": 9089,
    "angel</w>": 9090,
    "disappeared</w>": 9091,
    "1962</w>": 9092,
    "bed": 9093,
    "ere": 9094,
    "tournaments</w>": 9095,
    "impac": 9096,
    "foot": 9097,
    "charter</w>": 9098,
    "mp</w>": 9099,
    "lacks</w>": 9100,
    "und": 9101,
    "wealth</w>": 9102,
    "elevated</w>": 9103,
    "enetic</w>": 9104,
    "dna</w>": 9105,
    "further": 9106,
    "furthermore</w>": 9107,
    "split": 9108,
    "rounded</w>": 9109,
    "queensland</w>": 9110,
    "guine": 9111,
    "guinea</w>": 9112,
    "functional</w>": 9113,
    "maturity</w>": 9114,
    "gear</w>": 9115,
    "historically</w>": 9116,
    "selection</w>": 9117,
    "dd</w>": 9118,
    "richards</w>": 9119,
    "howson</w>": 9120,
    "ottawa</w>": 9121,
    "kan": 9122,
    "ank": 9123,
    "publicly</w>": 9124,
    "speculation</w>": 9125,
    "passion</w>": 9126,
    "stopping</w>": 9127,
    "wrong": 9128,
    "delay</w>": 9129,
    "options</w>": 9130,
    "dealt</w>": 9131,
    "personally</w>": 9132,
    "victories</w>": 9133,
    "secure</w>": 9134,
    "dropped</w>": 9135,
    "edu": 9136,
    "mich": 9137,
    "teammates</w>": 9138,
    "agents</w>": 9139,
    "progressive</w>": 9140,
    "reforms</w>": 9141,
    "73</w>": 9142,
    "240</w>": 9143,
    "mete": 9144,
    "meteor": 9145,
    "continuous</w>": 9146,
    "programme</w>": 9147,
    "nab": 9148,
    "gap</w>": 9149,
    "heli": 9150,
    "modi": 9151,
    "enclosed</w>": 9152,
    "frescoes</w>": 9153,
    "sto": 9154,
    "sophisticated</w>": 9155,
    "mechanism</w>": 9156,
    "elle</w>": 9157,
    "zer</w>": 9158,
    "rafa": 9159,
    "rafael</w>": 9160,
    "chorus</w>": 9161,
    "farmland</w>": 9162,
    "kin</w>": 9163,
    "nd": 9164,
    "connecting</w>": 9165,
    "navi": 9166,
    "1865</w>": 9167,
    "cly": 9168,
    "clyde</w>": 9169,
    "equipped</w>": 9170,
    "bullo": 9171,
    "bulloch</w>": 9172,
    "supplies</w>": 9173,
    "aided</w>": 9174,
    "financed</w>": 9175,
    "conversion</w>": 9176,
    "tally</w>": 9177,
    "intense</w>": 9178,
    "tatt": 9179,
    "nall</w>": 9180,
    "easy</w>": 9181,
    "resol": 9182,
    "landed</w>": 9183,
    "maneu": 9184,
    "upri": 9185,
    "prince</w>": 9186,
    "lanka</w>": 9187,
    "communication</w>": 9188,
    "joy</w>": 9189,
    "psychological</w>": 9190,
    "glam": 9191,
    "grossing</w>": 9192,
    "grandfather</w>": 9193,
    "chop": 9194,
    "jeev</w>": 9195,
    "malini</w>": 9196,
    "fat": 9197,
    "gu</w>": 9198,
    "satire</w>": 9199,
    "stan</w>": 9200,
    "horror</w>": 9201,
    "amitab": 9202,
    "amitabh</w>": 9203,
    "shares</w>": 9204,
    "staying</w>": 9205,
    "myself</w>": 9206,
    "municipal</w>": 9207,
    "commissioner</w>": 9208,
    "housing</w>": 9209,
    "floods</w>": 9210,
    "ceremonies</w>": 9211,
    "contrary</w>": 9212,
    "hartford</w>": 9213,
    "buff": 9214,
    "retiring</w>": 9215,
    "choos": 9216,
    "fresh": 9217,
    "anniversary</w>": 9218,
    "nings</w>": 9219,
    "sized</w>": 9220,
    "uniform</w>": 9221,
    "examination</w>": 9222,
    "evident</w>": 9223,
    "spending</w>": 9224,
    "”</w>": 9225,
    "erie</w>": 9226,
    "awar": 9227,
    "awareness</w>": 9228,
    "dreadnought</w>": 9229,
    "engagement</w>": 9230,
    "attempting</w>": 9231,
    "turkey</w>": 9232,
    "function</w>": 9233,
    "lay</w>": 9234,
    "aten": 9235,
    "atenism</w>": 9236,
    "femin": 9237,
    "tance</w>": 9238,
    "reminis": 9239,
    "reflecting</w>": 9240,
    "myth": 9241,
    "origins</w>": 9242,
    "arrows</w>": 9243,
    "understood</w>": 9244,
    "nile</w>": 9245,
    "civilization</w>": 9246,
    "ambi": 9247,
    "divinities</w>": 9248,
    "landsc": 9249,
    "landscape</w>": 9250,
    "demon</w>": 9251,
    "funer": 9252,
[...]
